#version: 0.2
n i
i e
o w
r z
c z
s t
r a
p o
s z
d z
r o
c h</w>
n a
ni e</w>
n a</w>
s k
i e</w>
a r
rz e
z a
s i
t e
a n
w i
l i
k o
g o</w>
j e
r e
ni e
c h
y ch</w>
a ł
w y
l e
m i
ó w</w>
o d
si ę</w>
t a
p rze
t y
c j
k a
c i
n e
a l
rz y
ni a</w>
o b
o r
a d
k t
ow a
m o
dz i
ż e</w>
d o</w>
m a
st a
o n
k i</w>
p ra
y m</w>
m ie
o ś
l a
ł a
cz e
w a
k a</w>
p i
d a
c i</w>
e n
j a
s t</w>
r u
w ie
t o</w>
cz y
d o
b y
n y</w>
k u</w>
m i</w>
dz ie
i n
e r
w o
u j
l i</w>
kt ó
o s
c y</w>
n e</w>
p ow
e j</w>
e m</w>
p a
m y</w>
k ie
p rzy
k ow
p ro
n ych</w>
cj i</w>
p ie
je st</w>
c e</w>
r ó
r y
s a
o t
d y
k i
ł a</w>
d e
p e
t u
c ie</w>
P o
w a</w>
któ r
0 0
b i
ż y
e go</w>
sk ie
sk i</w>
s po
a j
f i
po d
z na
k o</w>
2 00
l a</w>
c ie
ro z
dz ie</w>
z y
ł o
k u
a t
l e</w>
ne j</w>
c e
w sz
b y</w>
l u
ł o</w>
ą c
rz y</w>
cz a
ne go</w>
oś ci</w>
c y
z e
d ow
pra w
n i</w>
t o
ł u
t a</w>
w e
d y</w>
ra z</w>
ko n
o g
k ów</w>
ł y</w>
a ł</w>
z o
ał a</w>
m e
wi ę
g a
t y</w>
z a</w>
b u
ow i
b e
ni u</w>
b ę
je d
s y
ż e
na j
o d</w>
ó w
s p
cz y</w>
c a</w>
n ym</w>
uj e</w>
ow an
g ra
m u</w>
m u
p o</w>
m a</w>
i ch</w>
j ą</w>
prze z</w>
n o
n ą</w>
s e
sz e
j e</w>
ty m</w>
u n
ch o
oś ć</w>
l o
al e</w>
n ow
t ra
j u
d u
st y
J a
sz cz
a ch</w>
z i
sk a</w>
te go</w>
d la</w>
1 9
t u</w>
g ł
p re
b ie
ja k</w>
skie go</w>
J e
n o</w>
rz ą
r a</w>
w ar
ni k</w>
pow ie
rz e</w>
b ar
s z</w>
al i</w>
ś ci
M i
1 2</w>
nie j</w>
mi a
ał y</w>
r y</w>
Z a
g o
r ow
s ie
r owa
c z</w>
cj a</w>
b ra
i m</w>
ał o</w>
m en
o raz</w>
c o</w>
w ła
K o
ta k
dz i</w>
ro ku</w>
p u
y st
skie j</w>
ś ci</w>
dzi ał
P a
pie r
w ó
mie j
s ą</w>
w ie</w>
ą c</w>
ju ż</w>
s o
b o
g i
k re
wi ad
w od
prze d
ł ow
st ę
ł ad
t rze
t ow
n ości</w>
f or
bę dzie</w>
cy j
owa ć</w>
z d
l ko</w>
Po l
k ra
b a
on e</w>
0 0</w>
mo ż
1 0</w>
k ar
nie m</w>
r i
K a
ni cz
sz y
cz ę
b li
p rowa
st an
ty cz
ś my</w>
M a
j a</w>
ty lko</w>
m y
p ad
miej s
sp ó
C h
u t
dz e
wi ą
W i
g od
M ar
te j</w>
k ę</w>
t e</w>
e k</w>
s u
stę p
j ę
w y</w>
mie sz
wsz yst
t ów</w>
W y
po l
ci a</w>
te m</w>
ko le
ow ej</w>
na k</w>
b o</w>
st o
j i</w>
si ę
ta k</w>
z e</w>
ow ych</w>
któr e</w>
ł y
b a</w>
ow y</w>
pi sa
on y</w>
N ie</w>
a k
d ru
st ra
be z
pra c
m ó
sz e</w>
N a</w>
ń st
o l
s ła
d i
owa nia</w>
ow e</w>
w o</w>
s ob
owa ł</w>
kie m</w>
zo sta
s ie</w>
s wo
t kow
cj ę</w>
te ż</w>
je go</w>
któr y</w>
ró w
ę d
nie j
N a
ż y</w>
st e
d a</w>
an y</w>
s łu
S z
g i</w>
p ar
p l</w>
1 1</w>
c ów</w>
l u</w>
k ie</w>
ś ć</w>
pier wsz
dz o</w>
P rze
sz a
P i
jed nak</w>
mo że</w>
aj ą</w>
by ło</w>
st a</w>
c o
pow i
p rzy</w>
ki ch</w>
y mi</w>
c en
li śmy</w>
tak że</w>
an e</w>
N ie
cza s</w>
sk ich</w>
ą ce</w>
ow a</w>
k sz
r ę
ś cie</w>
ąc ych</w>
ni c
g a</w>
t ru
po li
a mi</w>
owa nie</w>
by ł</w>
1 5</w>
C z
k ą</w>
te r
ę dz
sz ko
s praw
szcz e</w>
d ob
2 0</w>
pe ł
s u</w>
f e
g ó
te re
cj e</w>
g ru
ó b</w>
uj ą</w>
bar dzo</w>
ko ń
w al
a ć</w>
ro d
w z
ki l
ki m</w>
by ć</w>
ra z
la t</w>
pe w
t ar
i st
z ie
ni ka</w>
li w
st ro
u sta
ą cy</w>
ci ą
u ro
m ar
p ó
na d</w>
A n
po d</w>
je j</w>
bę d
mo g
cz nie</w>
t or
pisa ł</w>
n ość</w>
wa ż
p ła
o na</w>
u r
miesz ka
wie r
z ł</w>
lu b</w>
oś ci
wiad o
ni ków</w>
ra n
zo st
L e
T o</w>
ch od
d en
g l
sk im</w>
R o
sz a</w>
k ład
W ie
je szcze</w>
ł em</w>
l an
ni cy</w>
a li
ow ego</w>
t ych</w>
d łu
s y</w>
T e
g ie
t r
li cz
ga ni
g ro
po cz
na pisał</w>
o n</w>
d ro
i i</w>
dzi ał</w>
3 0</w>
kie go</w>
a m</w>
ni ch</w>
m ów
K ra
prze d</w>
S ta
k t</w>
1 3</w>
sta wi
ob e
sa mo
sz y</w>
sz cze
s a</w>
mi ni
moż na</w>
1 4</w>
ń ski</w>
g u</w>
kt o
m ie</w>
g e
st ar
1 8</w>
ł ą
1 6</w>
t ro
te n</w>
19 9
kie j</w>
ko na
sty cz
a k</w>
on o</w>
mów i</w>
g mi
R e
P ro
os ob
M o
rz a</w>
1 7</w>
an i</w>
k la
sk ie</w>
a nia</w>
ży tkow
ka ch</w>
c ał
P od
o sta
2 2</w>
nie ż</w>
s i</w>
spó ł
ró ż
mi s
I I</w>
ro dzi
on ych</w>
c u</w>
or gani
ch a
dz e</w>
sz ych</w>
si ą
S e
2 1</w>
te k</w>
W o
s pe
da w
ta ch</w>
g os
rów nież</w>
o na
wi at
u m</w>
u l
L i
t ka
mo ści</w>
p y
ka za
bu dow
de cy
g ot
ś li</w>
1 9</w>
m o</w>
P o</w>
D zi
0 1</w>
spo ł
we t</w>
któ re
ow ie</w>
sk u
ja ko</w>
j u</w>
D o
pra cy</w>
fi na
żytkow nik</w>
któ rzy</w>
ro dow
pre z
0 12</w>
U żytkownik</w>
cz o
sk o</w>
za wod
będ ą</w>
n u
ał em</w>
ci ę
in for
ni i</w>
ą ł</w>
p la
ś nie</w>
i n</w>
pi s
p ły
f un
st rze
bez pie
k ry
ą t
kole j
s er
cz a</w>
ędz y</w>
by ła</w>
0 9</w>
I n
ow ym</w>
d ni
ow ie
sob ie</w>
f a
po da
wię ksz
g dy</w>
j m
n s
b ie</w>
owan e</w>
ni ę
mó wi
cz ne</w>
s ł
d u</w>
ko m
i a</w>
z wy
2 3</w>
któr a</w>
w an
s pra
wią za
w e</w>
czy ć</w>
5 0</w>
na le
re m</w>
g or
na wet</w>
2 5</w>
ę t
cze nia</w>
n ku</w>
u sz</w>
ka ż
prowa dz
c ki</w>
dzie j</w>
le p
wiado mości</w>
o kre
R a
ow i</w>
er y
wie l
z da
pod ar
ro bi
R ad
0 2</w>
osta t
wię c</w>
na u
ko rzy
st wa</w>
ó ł</w>
któr ych</w>
wa ć</w>
rz u
ś l
t rzy
ni m</w>
ta m</w>
0 8</w>
s ą
ne k</w>
M ie
wo l
P rzy
st ą
o m</w>
mia st</w>
g u
w ni
t re
n ymi</w>
spo tka
sła w</w>
o ko
ą ć</w>
sk o
ob y
na z
po r
a u
spo r
na s</w>
sz ą</w>
os ób</w>
B o
po zy
u ch
ę k
sk u</w>
st os
W ar
cz nych</w>
k ro
m nie</w>
p y</w>
t ę</w>
be z</w>
fi r
pa ńst
dzie l
od powie
sta w
cz nej</w>
dze nia</w>
0 6</w>
j ę</w>
d od
b le
B e
ł od
cze go</w>
B i
0 5</w>
0 7</w>
n ę</w>
z ł
ka z
pro je
ma ją</w>
prze ci
e k
0 3</w>
stan owi
wy da
bar dziej</w>
zna j
za cji</w>
0 4</w>
a by</w>
sk a
cze j</w>
B y
tu a
st o</w>
t wa</w>
dzi ć</w>
prez en
by ły</w>
ni ą</w>
ra l
w ro
ci u</w>
T o
h a
l ar
P ra
sz ym</w>
za le
b or
N aj
cze nie</w>
P ie
an ych</w>
u li
i m
s em</w>
d rze
ka mi</w>
u l</w>
ty w
wo je
sa m
mi st
jed no
le t
ku r
st u
ow ą</w>
D o</w>
uj ąc
gł os
c ą</w>
c ej</w>
prac ow
owan y</w>
pod ob
m al
zosta ł</w>
tru d
uj ę</w>
pu bli
mie ni
ra d
p an
pi ł
wi a
g dzie</w>
gos podar
t ą</w>
powi ad
L u
czy wi
pie ni
ś rod
bu d
na m</w>
bi or
sz ę</w>
sy tua
E uro
re n
st u</w>
ni ż</w>
nie nia</w>
og ra
a n</w>
cj ą</w>
ó r
cj al
e l
ty s</w>
go dzi
py ta
czy li</w>
s ce</w>
ry wa
an o</w>
z u
le k
l og
A le</w>
wła s
r w
sz u
i l
st wo</w>
k lu
s ad
2 4</w>
a nie</w>
e le
nie go</w>
wo j
tu ry</w>
200 6</w>
k ła
wła ści
ar ty
Ja k</w>
rz ę
gó l
przy pad
p un
po mo
u cz
st ru
po ś
A r
K on
sz ej</w>
w en
in tere
moż liw
je my</w>
c ach</w>
je dy
mie r
infor ma
t wier
N I
ró d</w>
aj ąc
wy ż
pa n</w>
obe c
po z
200 3</w>
pro ble
cho dzi</w>
fina ns
wię cej</w>
owi ą
R y
trze ba</w>
u cze
m ery
ko sz
mo n
te le
200 7</w>
S a
Kra kow
dy re
przed stawi
wó dz
dzi ł</w>
Pol ski</w>
cz e</w>
d nia</w>
miejs ce</w>
or y
pow od
dzie ci</w>
u wa
mi ędzy</w>
sk ą</w>
200 5</w>
B a
ro b
B ar
s prze
wie le</w>
T y
społ e
ob owią
2 6</w>
200 4</w>
ości ą</w>
ś wiat
wią z
s cy</w>
J u
c er
kt u</w>
l ą
st em</w>
ś cie
g ę</w>
t nie</w>
wa ł</w>
zy den
przy got
owa rzy
d wa</w>
pro du
4 0</w>
ot rzy
pro gra
czy ł</w>
ś wie
li z
du ż
ob ie
Cz y</w>
w spół
o k
wz gl
ę ż
wy so
mieszka ń
ń skiego</w>
t ki</w>
kie dy</w>
ch ro
p a</w>
ł on
2 7</w>
dze nie</w>
na to
Pol sce</w>
2 8</w>
B u
pi ta
p ró
m niej</w>
któr ym</w>
m ów</w>
k an
t ał
s ób</w>
si ad
de n</w>
Pi ot
kto r</w>
k cji</w>
cz u</w>
p er
D zie
mi ał</w>
t i
s k</w>
kt u
po trze
2 9</w>
dz ą</w>
k ró
in we
po ja
200 2</w>
d wó
roz po
rz ęd
c ka</w>
gł ów
lo ka
że by</w>
wa nia</w>
u mie
K u
aj ąc</w>
an d
mog ą</w>
wzgl ęd
pow in
kil ka</w>
pó ź
w ski</w>
zł ot
W e
mia sta</w>
K rzy
czo ra
usta wy</w>
na ch</w>
sz ego</w>
na d
ow ski</w>
ą d</w>
spo sób</w>
m łod
c u
ob a
tu r
S t
Je d
g ło
za ch
st i
rzą d</w>
o k</w>
An drze
pod czas</w>
ch i
w ró
ni ki</w>
n r</w>
K ie
w er
ło dzie
sz ł
le g
owa na</w>
tra fi
or a</w>
organi z
ne t</w>
sta nie</w>
M u
in nych</w>
cz nego</w>
m ał
cz ny</w>
intere s
czy k</w>
s łow
m an
O W
mis ji</w>
c kiego</w>
mi ę
ni c</w>
st y</w>
la tego</w>
War sza
wszyst kich</w>
wła śnie</w>
3 1</w>
god z</w>
mi n
pe j
O d
p lan
sty tu
po m
ro l
uj ąc</w>
W a
ch wi
j ąc</w>
g dy
me t
h o
wsz e</w>
które j</w>
te ma
po nad</w>
b ro
dru ży
te mu</w>
z ji</w>
ż ad
g n
ni ka
N i
k ół</w>
dwó ch</w>
cze ś
zd oby
te l
n os
j ąc
O d</w>
4 5</w>
f er
D a
Je st</w>
stą pi
szcze gól
b ad
ni ach</w>
pre zyden
miejs c
łow ie
na stęp
ra k
u m
bli ż
te dy</w>
h ist
te ri
sta ć</w>
a ż</w>
wy ja
ow o</w>
ci ć</w>
ro k</w>
Wo j
ło ż
kie row
A R
D e
st ów</w>
się cy</w>
czywi ście</w>
la tach</w>
d ar
cza sie</w>
owan ych</w>
G a
je ch
mi n</w>
ni ć</w>
wie lu</w>
200 8</w>
z god
ś ród</w>
pre ze
kt ów</w>
bra m
szy b
o ł
re k</w>
ra ż
200 1</w>
ch e
d ni</w>
T ar
ob ro
o fi
s ji</w>
sk ar
s ów</w>
F i
kła d</w>
woje wódz
ko nie
za sad
sprze da
b ym</w>
u d
czora j</w>
ni a
te raz</w>
b u</w>
re sz
ś li
dzie ć</w>
owan o</w>
ch ci
przeci w
m od
m l
wy kona
je den</w>
Ro z
in ter
spraw ie</w>
kow ski</w>
kow i
ś le
o st
dzie n
lu dzi</w>
ku ra
spó l
wi cz</w>
ń ska</w>
gl ą
ku l
st er
re ali
wszyst ko</w>
te n
da le
1 8
fun k
pi ę
że li</w>
sk ład
M e
tak ie</w>
rzą du</w>
wszyst kim</w>
ż a
ksz tał
fi l
ch u</w>
3 6</w>
d w
pó ł
or ów</w>
mu si
si a
6 0</w>
sz ał
ło ży
d wie</w>
że nia</w>
ko bie
po praw
bezpie cze
t rzy</w>
ę ki</w>
le m</w>
w em</w>
ne r
kt y</w>
z ar
po nie
pra wa</w>
że nie</w>
czy n
ma ch</w>
K S</w>
F ran
te ch
t wo
R ze
co m</w>
zna cz
war un
M ał
wi a</w>
b an
Ch o
ś wiad
ś wię
pro c</w>
p ie</w>
za pew
on u</w>
g ry
za koń
ko l
da ć</w>
u waż
ży cia</w>
ch a</w>
I E
raz em</w>
Wie l
ta mi</w>
nie nie</w>
mi na
do ty
t łu
r owi
S o
O r
r ą
ó d</w>
znaj d
je śli</w>
ńst wa</w>
powie dział</w>
g en
ob y</w>
owa niu</w>
owie m</w>
za gra
wro te</w>
00 0</w>
bu dy
ko ści</w>
na rodow
to r</w>
w n
ty god
t wo</w>
ucze st
ie n
3 5</w>
ra ch</w>
sz an
g nie
rzą d
Po li
złot ych</w>
ń skiej</w>
ko mu
J an
w ra
z robi
3 3</w>
og ó
S i
na r
c ę</w>
war t
ci ł</w>
zost ała</w>
A da
cz łowie
p li
To ma
T a
dłu g</w>
oko ło</w>
zosta nie</w>
zy sk
dob rze</w>
G rze
z wiąz
u ży
z wiąza
ąt ku</w>
po n
m niej
w cześ
bud że
sz to
kon kur
nale ży</w>
C o</w>
3 2</w>
te r</w>
mo c
wa nie</w>
b owiem</w>
swo je</w>
czy z
Andrze j</w>
gmi ny</w>
k sią
0 6
dział u</w>
cza su</w>
uj ących</w>
m ęż
d ę</w>
ta cji</w>
g ar
dru gie
które go</w>
ow ali</w>
powi at
ą dze</w>
ne m</w>
tru m</w>
pro ce
ł u</w>
f o
A u
pier o</w>
ne r</w>
oś wiad
k rzy
stro ny</w>
on ym</w>
n p</w>
cze s
me czu</w>
o kaz
peł ni
l nych</w>
v i
200 0</w>
wszyst kie</w>
cz na</w>
h i
P e
c kiej</w>
po de
pra wi
przy ję
bu r
w spól
Mi ch
rze nia</w>
S K
cie ż</w>
bie ra
zwy cię
w s
słu ż
osob y</w>
sze nia</w>
ó ł
ku men
ow ała</w>
0 5
wy korzy
cz łon
8 0</w>
Z e
prezen t
roz umie
T ak</w>
dział al
pierwsz y</w>
Je śli</w>
pa ra
1 00</w>
przy zna
wy pad
Krzy szto
al bo</w>
D u
ma g
każ d
kil ku</w>
kra ju</w>
n ów</w>
w zi
Piot r</w>
wy bor
naj lep
dzie ń</w>
do tycz
la ta</w>
4 1</w>
potrze b
przy szł
państ wa</w>
samo chod
ar t</w>
ch y
cyj ne</w>
póź niej</w>
cyj nych</w>
wni o
wy gra
a ut
s w
sz pita
o pi
P ar
u dział</w>
w ał
4 6</w>
inwe sty
w tedy</w>
t ka</w>
d ź</w>
mi nu
Sta ni
7 0</w>
ś nia</w>
ml n</w>
l ne</w>
4 4</w>
mu zy
przed się
do mu</w>
za ję
200 9</w>
ja z
mi li
nale ż
C ze
po my
D y
5 5</w>
A l
czy cie
w pły
nic twa</w>
b er
ma my</w>
s ły
Po zna
nato miast</w>
raz ie</w>
S A</w>
n ością</w>
do kumen
a w
st rzy
by ł
re gi
z mia
di a</w>
cze rw
miejs cu</w>
dz a</w>
3 4</w>
decy d
ów ki</w>
cz ym</w>
l ot
ni ę</w>
i ż</w>
dru g
prze wod
właści cie
sytua cji</w>
co ś</w>
ę dzi
ęk uję</w>
mu si</w>
sie bie</w>
pie j</w>
cz u
k l
poli ty
za wsze</w>
Po la
sa m</w>
R ob
obowią z
spó ł</w>
r z</w>
u bie
cz nym</w>
dzi ś</w>
3 8</w>
P u
ży cie</w>
le n
a b
o pie
pa na</w>
sy ste
on ą</w>
ty tu
wó r
3 7</w>
d an
d ż
Se j
3 9</w>
G ra
C E
p ani</w>
roz wiąza
Pie r
B ra
za kład
m łodzie
po zna
ta j</w>
ucz ni
kow e</w>
dob r
zwy k
wa ch</w>
za da
organi za
s ła</w>
ch ce</w>
arty ku
ste r</w>
je m
Mie j
pieni ądze</w>
Z a</w>
sta ł</w>
sze nie</w>
po ko
Mar ci
fi ka
h e
we k</w>
u zna
ą tek</w>
Pa nie</w>
Ja n</w>
K ar
wó j</w>
kie ru
dz y</w>
cz ą</w>
ce nie</w>
log i
mi any</w>
po łow
rodow i
st wier
mist rz
p u</w>
ą tkow
dod at
cho ć</w>
szcz ę
cj ona
sia j</w>
k cie</w>
4 2</w>
swo ich</w>
I z
le piej</w>
ędz y
4 8</w>
pow o
4 3</w>
s ł</w>
k wi
uj ące</w>
na da
at o
B ie
w ska
T u
sz u</w>
Dzi ękuję</w>
uj ący</w>
z mieni
Mar i
c ła
a m
sz ło</w>
wcześ niej</w>
za jm
rzą dow
ni ku</w>
wy j
hist or
re d
w spo
pod staw
cie m</w>
C en
I II</w>
G o
C i
19 8
P re
d al
R u
5 6</w>
przypad ku</w>
kon tro
d ł</w>
p le
pa mię
po se
czę ści</w>
B og
czy st
cz ną</w>
cza sem</w>
w rze
cią g
by li</w>
szko ły</w>
mieszkań ców</w>
at a</w>
p al
infor m
poli tycz
R Z
ta kich</w>
w i</w>
g na
l nej</w>
spor tow
o mi
e li
sz ar
ma wi
Mi ni
spe cjal
na mi</w>
cią gu</w>
ła m</w>
dzie my</w>
r p
ję zy
Pa we
wy stęp
l nego</w>
P O
ko m</w>
szcz a</w>
os ie
ła t
aj ące</w>
ta ki</w>
d er
k rę
p owa
f a</w>
st al
on i</w>
sze k</w>
poja wi
ó r</w>
ż ar
5 9</w>
Euro pej
4 7</w>
wi ce
w czoraj</w>
le j
ni kiem</w>
re mon
fir my</w>
zi o
pocz ątku</w>
zost ały</w>
ko r
po tem</w>
T rze
wa ż</w>
mie si
po siad
zale ż
ad e
w w</w>
o kaza
wie ku</w>
te ra
k ty
ł ó
u zysk
z oba
za m
ut rzy
Mi a
wa li
ar i
do piero</w>
Pa n</w>
by t</w>
m em</w>
dyre ktor</w>
S po
decy z
z er
dział a
tema t</w>
o chro
pe ra
ł e
ma m</w>
kró t
2 00</w>
zna le
w śród</w>
t ry
w ały</w>
cze k</w>
n ot
w ww</w>
R os
dw u
now e</w>
rzęd u</w>
mini stra
c a
S T
cie j</w>
za interes
sob ot
M y
tr ów</w>
praw ie</w>
ąc a</w>
cj an
ce k</w>
tłu ma
miejs ca</w>
czę sto</w>
5 7</w>
ro dz
ś ni
powiad a</w>
sz czy
z y</w>
5 4</w>
Krzyszto f</w>
e g
kra j
g ł</w>
wy ra
gó r
świat a</w>
dzie r
aj ących</w>
sz tu
R A
czę ść</w>
G ór
ze społ
5 1</w>
5 2</w>
S u
p rywa
cze ń</w>
Sz ko
ś mier
ak cji</w>
u ka
S y
l ny</w>
ru cho
sy j
wie t
4 9</w>
S tra
cha rak
drugie j</w>
prze cież</w>
o j
ch ow
mie ć</w>
t z
g an
C ie
cj on
prze j
jed nym</w>
P ow
S Z
z wie
na gro
o net</w>
kow ych</w>
w ali</w>
za wie
Mar ek</w>
o nego</w>
naj mniej</w>
w or
ja kie</w>
od e
s en
dy sku
5 8</w>
sła wa</w>
in ne</w>
ni ż
dz ę</w>
ch ło
U nii</w>
wię k
Ż y
Toma sz</w>
ąc ego</w>
J o
S ie
nie z
raz y</w>
ś mie
ma j
pieni ędzy</w>
si ł
S ą
ob ra
k li
ty sięcy</w>
przed e</w>
ni ca</w>
mini st
d latego</w>
nau czycie
7 5</w>
za kre
koń ca</w>
mi ała</w>
liw ości</w>
trze ch</w>
n ę
an ka</w>
S tar
cj ach</w>
ko men
za bra
cze ka
f ak
przedstawi cie
niej sze</w>
9 0</w>
men t</w>
rze nie</w>
pro cen
Wy so
K O
rz ch
obe c</w>
ro m
kt o</w>
ro n
ży ć</w>
lu dzie</w>
po sta
Grze gor
ol og
sz ka</w>
K to</w>
te k
ma teri
rz a
cj ali
wz ro
nos i</w>
5 3</w>
preze s</w>
ni ami</w>
c kich</w>
c oraz</w>
wa ją</w>
par t
ni o</w>
ś la
Pawe ł</w>
d e</w>
Grzegor z</w>
Krakow ie</w>
st rz
ma ł</w>
ż a</w>
li p
któr ą</w>
ka te
ku pi
ja ki
cie ka
pierwsz ej</w>
ż dż
Te raz</w>
k we
de k</w>
przedsię bior
W sz
S P</w>
kon cer
w ała</w>
uwa gę</w>
si ł</w>
kon y
C Z
J ó
tycz nie</w>
ce p
la czego</w>
naj bardziej</w>
now ych</w>
wn ęt
cz ar
dy da
g ów</w>
chwi li</w>
o nej</w>
P owi
przy j
wsz y
uli cy</w>
G ł
k e
mi an
z mie
stan ą</w>
rzy ć</w>
jed nego</w>
u ni
ot war
powie dzieć</w>
pro pon
ra mi</w>
k ce
za trzy
dzi ała</w>
rze cz
pocz ta</w>
o p
ste ty</w>
Rad y</w>
ńst wo</w>
o pol
ści a</w>
ka rze</w>
ga ze
pyta nie</w>
K ul
ksią ż
kie wicz</w>
czy ła</w>
sa mi</w>
c kim</w>
e fe
cz war
w ą</w>
sł ów</w>
cze niu</w>
wszy scy</w>
powa ż
L a
kto ś</w>
G ru
sk i
ś rodowi
cze śnie</w>
se k
ś nie
mi ar
Z ie
ce nia</w>
na dzie
ch y</w>
r o</w>
dzi ęki</w>
sta ro
ja kie
P A
ze spo
na g
miejsc ow
związ ku</w>
ka na
me trów</w>
Wsz yst
Nie m
k uje</w>
prac ę</w>
ma n</w>
R e</w>
re dni
w ane</w>
męż czyz
jedy nie</w>
po zosta
gru py</w>
cz ki</w>
ty le</w>
te ry</w>
de r</w>
wy bra
S zy
wzi ę
D la</w>
on ów</w>
swo ją</w>
al ne</w>
pierwsz e</w>
ał a
d niu</w>
ko misji</w>
w skiego</w>
o nie</w>
przewod nicz
podob nie</w>
aj e</w>
c ami</w>
wod y</w>
Jó ze
te l</w>
cyj ny</w>
pod kre
tor a</w>
z g
o pła
praw o</w>
kow ej</w>
t k
Pro szę</w>
łą cz
naj bliż
ob u
pomo cy</w>
Pol ska</w>
ni ł</w>
K i
w obec</w>
zna la
aj ący</w>
gł ę
w ę</w>
tere nie</w>
mie li</w>
ze spół</w>
c ały</w>
z gło
sto p
o sią
199 9</w>
t owarzy
cza k</w>
F un
za ś</w>
nie mie
b ę</w>
ch ę</w>
k s</w>
każ dy</w>
pi ęk
cho dzi
n ąć</w>
rzą dz
O l
ogra fi
ud ało</w>
S te
v e
prze wi
n ki</w>
j ących</w>
te ry
w ąt
tu ry
Pa w
le nia</w>
Woj cie
ko ści
ad ministra
tu ra</w>
po le
ów czas</w>
jed nej</w>
au to
rz u</w>
ubie gł
mi mo</w>
tor ów</w>
Jed nak</w>
K ry
t wie</w>
d oświad
rozpo czę
ge ne
S za
gi m
cyj nego</w>
pew no</w>
pod sta
kow ie</w>
n or
rowi a</w>
a wan
sze dł</w>
je żdż
Marci n</w>
j ący</w>
m or
sp ad
A N
s pa
kt ora</w>
po łu
ó j
k m</w>
s ło
ał am</w>
obec nie</w>
ry nku</w>
t uje</w>
przy kład</w>
Sz cze
tra dy
gdy ż</w>
mery ka
t wór
r u</w>
b ry
ał e</w>
ró d
R O
do m
chy ba</w>
wy po
b lo
mó gł</w>
c em</w>
me k</w>
o fer
przy ja
p i</w>
o t</w>
tele wi
k in
r ów</w>
Ja cek</w>
G da
za cja</w>
otrzy m
możliw ości</w>
cj a
spotka nia</w>
pre mie
ni os
z organiz
su kce
s pi
wy star
pose ł</w>
le cz</w>
2 6
tz w</w>
ń skim</w>
wie k</w>
Ś lą
swo im</w>
praw dę</w>
C o
w raz</w>
dzi siaj</w>
k się
G e
na szych</w>
my śl
ń skich</w>
po rząd
duż o</w>
cyj nej</w>
je n
ma ga
prowa dzi
k wo
lek s
kro tnie</w>
kar z</w>
m owy</w>
t ne</w>
dzie sią
s la
sku te
ra mach</w>
pro kura
za czę
mi ł
ędzy narodow
a g
u sz
jedno st
me cz</w>
fe ren
na szej</w>
D latego</w>
we j
róż nych</w>
W al
sa ch</w>
stos un
cza s
u ra
kow o</w>
spraw y</w>
dzie w
C zy
n u</w>
naj większ
cz ych</w>
ja k
J ego</w>
G dy
zd row
ko mi
le nie</w>
bo i
se zo
N e
f ra
st wo
m pi
informa cji</w>
Mar szał
konie c</w>
ponie waż</w>
m ę</w>
D ru
a na
Ju ż</w>
mówi ł</w>
ów no</w>
g rzy
dro g
pol skich</w>
nie n</w>
A T
d em</w>
le gł
ele kt
reali z
i t
K A</w>
tu ral
g ry</w>
gi i</w>
si a</w>
po przed
stru ktu
now y</w>
z wo
o zna
ź dzier
ście j</w>
mo że
t ować</w>
tu taj</w>
dział ania</w>
od by
s ja</w>
Ada m</w>
Je żeli</w>
u słu
d ź
u r</w>
Kie dy</w>
da je</w>
Pier wsz
kl ien
po stęp
mi i</w>
kan dyda
pro stu</w>
li ć</w>
u sza</w>
owi cz</w>
l nie</w>
je stem</w>
Kra ków</w>
1 7
L I
wie nia</w>
h and
sie rp
stu den
C e
na szym</w>
mi na</w>
pró b
now ego</w>
pa ździer
za j
wnęt rz
kre dy
i le</w>
zu peł
sz ka
wie nie</w>
J a</w>
sz kół</w>
sam ym</w>
s e</w>
b og
kate gor
re g
Je rzy</w>
sk ła
st ało</w>
pracow ników</w>
nie c</w>
zost ało</w>
We dług</w>
S T</w>
za mie
gie l
pla c
zna cznie</w>
ko mis
pa t
no si
przy czy
wła szcza</w>
W ła
dłu ż
G dy</w>
Wi ę
dział em</w>
fun du
z miany</w>
po za</w>
ob o
cho dz
c kie</w>
199 8</w>
sta ra
odpowie dzi
Ja ro
a na</w>
d ów</w>
ni kt</w>
ma ja</w>
1 6
ka rzy</w>
in stytu
kow i</w>
W ło
F e
di i</w>
wrze śnia</w>
ch ód</w>
u st</w>
wó j
sk rzy
ja ch</w>
la men
owi ce</w>
pro pozy
ek sp
g e</w>
ar z</w>
roz e
od aw
poli cjan
powiat u</w>
prze kaza
ów ka</w>
praw dzi
P an
zespoł u</w>
W ro
owa niem</w>
tra n
proje ktu</w>
z byt</w>
czę ściej</w>
st w</w>
p sy
m owa</w>
budow y</w>
al nych</w>
ze k</w>
t h
czy ta
ąc ym</w>
Z bi
mi ot
l ę</w>
świe t
cen y</w>
or u
a l</w>
li sto
znale ź
ka de
po zio
wo ju</w>
rów na
pa pie
l nym</w>
nie dziel
swo jej</w>
roz gry
sz kole
zd ję
Stani sław</w>
wie m</w>
pad a</w>
Ś wię
rob ot
li ł</w>
m ało</w>
przeci w</w>
e mery
prze kona
s ę</w>
in nymi</w>
Bi ał
ni ce</w>
pode j
pol skiego</w>
Powi at
je żeli</w>
Mo że</w>
re gu
na szego</w>
pierwsz ym</w>
moż li
z ni
praw do
poda t
do stęp
po pu
k wiet
Mich ał</w>
k cja</w>
łą cznie</w>
pra c</w>
Cen trum</w>
o cze
proje kt</w>
ąc ej</w>
t an
z m</w>
głów nie</w>
o ce
ży ł</w>
pol skiej</w>
n ął</w>
U SA</w>
Mia sta</w>
ko ść</w>
tro chę</w>
let ni</w>
S to
ce lu</w>
za g
st ała</w>
bę dziemy</w>
ow ało</w>
i um</w>
d anych</w>
Prze d
row e</w>
mist rz</w>
nie sie
Cz ar
be c
Se na
Cz ę
mog li</w>
w s</w>
m er
U ni
to n</w>
ś w</w>
L E
powod u</w>
d ra
z do
klu bu</w>
H e
o czywiście</w>
Rob er
w ówczas</w>
nada l</w>
ch or
m pa
tycz ne</w>
ur o</w>
wart ości</w>
E l
stycz nia</w>
prowa dzić</w>
Kul tury</w>
wiado mo</w>
e ta
cz ka</w>
za ba
Ka zi
niej szych</w>
środ ków</w>
dzie się
mia sto</w>
cz ności</w>
poz wo
ż na</w>
G os
O sta
g nię
d ą</w>
kom pu
D ob
o li
ar e
b ł
zo staną</w>
wy ch
wy glą
do kona
zar ówno</w>
pra w</w>
al ko
Zbi gnie
p en
powi nien</w>
s al
ty ki</w>
K ości
e uro
st wie</w>
Ł uka
mie sięcy</w>
im prez
prowa dzenie</w>
h u
funk cjon
mini ster</w>
doty ch
działal ności</w>
spo n
for ma
szyb ko</w>
sobot ę</w>
j ące</w>
szu ka
rzy ł</w>
rze cz</w>
kow y</w>
pow sta
po kona
ist ot
ał bym</w>
spo ko
ow skiego</w>
gim naz
ste śmy</w>
wi n
za gro
prze strze
ni gdy</w>
dro gi</w>
li zacji</w>
sz ta
Ł o
zda niem</w>
czerw ca</w>
sk ut
Ja na</w>
r ę</w>
kra kow
w ę
Sa mo
cię ż
ni ak</w>
T ade
dod aje</w>
owan ego</w>
względ u</w>
S an
owan ej</w>
Krakow a</w>
kow a</w>
M O
i de
pi sy</w>
m ą</w>
L o
e ner
po twier
li kwi
gos poda
okaz ji</w>
le w
prezyden ta</w>
mi a</w>
ę dzie</w>
ka cji</w>
dru gi</w>
dale j</w>
l ę
An na</w>
oby wa
zy j
mie ście</w>
d nie</w>
ow ały</w>
zwyk le</w>
sze ch
sob ą</w>
ne ws</w>
z właszcza</w>
p kt</w>
na prawdę</w>
os ek</w>
mu szą</w>
jed ną</w>
Pod czas</w>
tow ych</w>
ostat nich</w>
spotka nie</w>
mo kra
no c
pra ce</w>
ga ch</w>
N owy</w>
pi s</w>
rodzi n
ł ów</w>
budy nku</w>
spra w</w>
tra kt
wie lo
Ko misji</w>
histor ii</w>
ta kiej</w>
tre ner</w>
pier w</w>
s wój</w>
kil ku
ta ka</w>
resz tą</w>
jed na</w>
druży ny</w>
W ol
uczni ów</w>
możliw ość</w>
ch cą</w>
kol wiek</w>
H u
wyso kości</w>
mie nia</w>
c jen
O b
19 7
B an
Warsza wie</w>
a t</w>
poli cji</w>
ó j</w>
bie g
spe cjali
S por
bi le
bad a
zrobi ć</w>
K ró
pomo c</w>
w ład
ma ć</w>
ot o
skie m</w>
nicz nych</w>
w prowadz
wi ć</w>
ła ch</w>
prze r
an ej</w>
Ka ż
pi sze</w>
z decyd
komu nika
ist nie
Na rodow
dze niu</w>
wy stąpi
t nych</w>
cią ż</w>
dy na
bi u
w si</w>
ty pu</w>
ri i</w>
spra wa</w>
cz tery</w>
s powod
w u</w>
ź nie</w>
Euro py</w>
ta kiego</w>
prze prowadz
zgod nie</w>
dy wi
d re
ni n
je ź
o dz
do kład
m czasem</w>
powie rzch
h ar
o pera
pró cz</w>
ja ki</w>
wy m</w>
oko li
cen trum</w>
w ad
te at
pro fe
S ą</w>
dłu go</w>
C H
g ości</w>
gdy by</w>
kon ku
zd rowia</w>
kt or
men ta
wie d
K at
świe cie</w>
Te n</w>
prze stęp
cał ej</w>
al nie</w>
wy nika</w>
ju m</w>
Europej skiej</w>
czywi st
O bec
ni o
g rze
6 5</w>
mi ę</w>
z wró
rzu c
ś la</w>
człowie ka</w>
prezyden t</w>
og rom
kon omi
Wro cła
z ja
twier dzi</w>
sp ar
pol ski</w>
c ko</w>
gmi na</w>
wer sy
ob i
proble m</w>
rodzi ny</w>
P la
c k</w>
an ego</w>
w any</w>
ku p
a meryka
szczegól nie</w>
gmi nie</w>
or u</w>
może my</w>
za pła
po zost
Ko lej
an ki</w>
D nia</w>
kla sy</w>
cho dzą</w>
5 00</w>
tow ej</w>
da ł</w>
mo men
n ków</w>
za cję</w>
ci a
Ko mis
prze my
ma l</w>
po now
ś pie
mi ały</w>
N A</w>
la cji</w>
T ak
I V</w>
czy na</w>
pod ję
pro szę</w>
wersy te
bra k</w>
now ej</w>
si l
lip ca</w>
wi ar
resz cie</w>
T ra
dzie dzi
Wi l
sz cza
Prze z</w>
d ość</w>
sk ona
mier z</w>
H a
Z da
u rzęd
wra c
ra cji</w>
ce l
wo ła
owan i</w>
ch ęt
trud no</w>
C za
ele men
odpowiedzi al
oś rod
mu n
za trud
pro te
po ry</w>
zakre sie</w>
na dz
ta rzy
u de
m p
popu lar
spraw ę</w>
pom ni
go ś</w>
g li
wni osek</w>
rze czy</w>
za stęp
pun któw</w>
A leks
sp rzę
nadzie ję</w>
gru dnia</w>
sz ła</w>
se na
ści u</w>
zam k
ze um</w>
u dzie
C a
kole i</w>
ow ę</w>
ta kim</w>
Ł a
ni mi</w>
G ó
za war
ru n
do chod
owan ym</w>
sierp nia</w>
okre sie</w>
Ma m</w>
we dług</w>
u praw
koń cu</w>
ser wa
re prezen
fi zy
re prezent
mar szał
wa ran
ż u</w>
mo cy</w>
prowa dzi</w>
każd ym</w>
raz u</w>
N ato
euro pej
kwe st
na sze</w>
w rę
s ły</w>
h ol
pa nie</w>
progra mu</w>
v ia</w>
pie ra
t ó
po słów</w>
stycz ne</w>
s cy
ta m
Nato miast</w>
pis ów</w>
ń skie</w>
z de
daw no</w>
rze m</w>
mar ca</w>
dro dze</w>
owa ń</w>
dy ś</w>
t wa
z wol
now o
S k
wojewódz twa</w>
budow ę</w>
ty si
A W
ró g</w>
cz ność</w>
uczest ni
po łoż
przeciw ko</w>
H en
znajd uje</w>
paździer nika</w>
ma ga</w>
ow o
że k</w>
naj waż
kon su
stro nie</w>
S ze
tele f
okre śl
t ny</w>
mie niu</w>
8 5</w>
j ad
m 2</w>
minist ra</w>
nic two</w>
swo jego</w>
wi do
kolej ne</w>
li na</w>
to rzy</w>
en i</w>
poś wię
mieszka nia</w>
owa liśmy</w>
niedziel ę</w>
ś wia
dow ie
k ło
i ni
mieszkań cy</w>
do szło</w>
s ali</w>
B o</w>
G ro
aj u</w>
h al
U rzędu</w>
za pro
uważ a</w>
Nie stety</w>
b ru
owi cach</w>
za cz
N o
ra bi
kow ego</w>
B er
n og
n ości
Pi ł
sta n</w>
bez poś
P rzy</w>
Wojcie ch</w>
ty ch
reg ul
ka d
za ło
gaze ta</w>
gro ma
je m</w>
w strzy
ra czej</w>
og ło
t ków</w>
ą b
ofi cjal
to m</w>
Wo je
pa cjen
S ła
od będzie</w>
z łoży
wy kony
tak ą</w>
Ka ro
z re
si at
wy sta
po trafi
an ym</w>
mi ny</w>
budże tu</w>
tycz nych</w>
C y
mi u</w>
in g</w>
go rz
V i
do sta
stan u</w>
artyku ł</w>
by śmy</w>
ob ok</w>
gru n
wsz el
nie rucho
CE ST</w>
zawod ników</w>
działal ność</w>
sa mo</w>
n ka</w>
konku ren
inter ne
szpita la</w>
l os
decy zji</w>
st ad
Cz er
po szu
gru p</w>
lu bi
sie d
Prze d</w>
do m</w>
roz pocz
st re
decy dow
kwiet nia</w>
Bar dzo</w>
re j
nicz ych</w>
słu ch
u bezpie
olog i
ne ra</w>
8 8</w>
Ry szar
z mar
RZ E
w ło
minu t</w>
N o</w>
K ro
roz wi
pu szcz
stę p</w>
od wie
r e</w>
hand l
Ma ciej</w>
li gi</w>
więk sze</w>
Pod ob
os en
czy ło</w>
do skona
państ w
wspo m
tu r</w>
ki bi
ad re
procen t</w>
w ciąż</w>
stu di
szy ć</w>
u bezpiecze
względ em</w>
ru chu</w>
mi ało</w>
oł nie
in te
nad to</w>
za tru
na czej</w>
ad y</w>
Gł ów
ar chi
ał ych</w>
Tar now
H o
Dzi ęki</w>
woj ny</w>
ż ą</w>
Je szcze</w>
roze gra
poz wal
P I
naz wi
organi zacji</w>
klu b
pyta nia</w>
ogra ni
for my</w>
G or
podsta wie</w>
jech ał</w>
sko ń
z ło
hist ory
połow ie</w>
ma i
no cy</w>
chło p
ni z
T ur
Dzi ś</w>
cen tra
da ch</w>
z u</w>
lu dz
gru p
wypad ku</w>
ze bra
e l</w>
M A
e n</w>
prze gra
sie dzi
listo pada</w>
nie ść</w>
ż ą
dywi du
N owym</w>
znala z
ce my</w>
Rober t</w>
Jan usz</w>
dzie li</w>
żad nych</w>
me di
do j
B rze
Mie szka
po kaza
pow szech
Ma g
P ani</w>
nu me
spra wo
P y
po sie
z ie</w>
ń ca</w>
ci aż</w>
tow e</w>
u rzą
o skar
ut wo
Za ko
ogó le</w>
ponie dział
By ł</w>
nie których</w>
K lu
za sa
Mał opol
Zbignie w</w>
wy daw
pu ści
roz woju</w>
słow a</w>
T ym</w>
mi ędzynarodow
b at
H i
ak tyw
od ci
s sa
z bior
stycz nych</w>
ra dy</w>
kra i
powie cie</w>
związa ne</w>
za dow
T h
mówi ć</w>
ni czego</w>
kon tra
B ry
czy ły</w>
śmier ci</w>
da cji</w>
naj wyż
In ter
za miesz
prowa dzenia</w>
większ ość</w>
szko le</w>
W czoraj</w>
6 6</w>
przy jm
mie n
D Z
ąc ą</w>
um owy</w>
pra s
Józe f</w>
u s</w>
lu d
po inform
a my</w>
nic ę</w>
b rz
b rze
pode jm
ok rę
Prze my
sa ż
Po d</w>
po rozumie
te m
f ot
f ran
Marszał ku</w>
wnio sk
cz tere
ob u</w>
za ku
ja s
Mo żna</w>
zupeł nie</w>
l na</w>
s s</w>
gru pa</w>
D i
cyj nym</w>
uro czyst
Trze ba</w>
P or
wy mieni
p lo
ow ymi</w>
pozy cji</w>
og lą
3 00</w>
był oby</w>
g ra</w>
g re
Ja ku
pó ł</w>
godzi ny</w>
S er
głos u</w>
znaleź ć</w>
k tem</w>
t t
al ny</w>
E R
prze znacz
s un
W ę
progra m</w>
W I
po stanowi
2 9
li g
cy k
a ta
e r</w>
ni n</w>
za pa
młodzie ży</w>
re da
s j
ci o
z ja</w>
ocze ki
ów ce</w>
na wi
społe cze
wo ł
każ de
cj ami</w>
kul tury</w>
dow od
Pol skiego</w>
li czyć</w>
ki pe
d rz
tycz nej</w>
q u
cjona ri
re kla
po między</w>
wąt p
w p</w>
wi cza</w>
li n
la ch</w>
t ował</w>
inwesty cji</w>
ś red
prowa dził</w>
zosta ć</w>
cie p
k ować</w>
niej u</w>
D ari
sezo nie</w>
spo sob
sy w
ne mu</w>
Ty mczasem</w>
ubiegł ym</w>
fir m</w>
me dy
Mini ster
s or
po e
po przez</w>
ty ka</w>
Woje wódz
ując ym</w>
tra kcie</w>
M at
nato r</w>
zmia n</w>
chci ał</w>
rodz aju</w>
syste mu</w>
u kład
Obec nie</w>
Ty lko</w>
du że</w>
ży ciu</w>
kon kre
ty j
tra f
gra fi
ow ska</w>
pi a
nic ą</w>
po jedy
roz u
człowie k</w>
kla sy
an ty
Ch ci
kło po
cz one</w>
fir ma</w>
O n</w>
nie co</w>
pro st
zatrzy m
młod ych</w>
o ła</w>
m ę
na sz</w>
możliw e</w>
h a</w>
warun ki</w>
in dywidu
po szczegól
ma nie</w>
Ra f
ci ła</w>
mog ę</w>
row y</w>
znaj o
F ot</w>
informa cje</w>
rze ń</w>
cie c</w>
P Z
sk lep
Z d
d ane</w>
S ł
Mi mo</w>
li a</w>
robi ć</w>
Gda ń
b rzy
li st
S łu
F or
wy pła
stą pie
przy po
ko ło</w>
N owa
ując a</w>
M I
mistrz ost
mia n</w>
t war
ń cy</w>
lu tego</w>
inwe st
wi zy
sytua cja</w>
L D</w>
Z i
K I</w>
obowią za
Z S</w>
drug ie</w>
sprzeda ży</w>
praw nych</w>
an na</w>
6 8</w>
wa mi</w>
korzy st
T a</w>
mo ść</w>
ka rza</w>
e konomi
ch em</w>
M al
szcze gó
h er
cyj na</w>
pro f</w>
li dar
mo s
pa tro
wy niku</w>
miejs c</w>
sek wen
sie j
w ało</w>
par lamen
D ę
k ą
jaki ś</w>
owie c</w>
g ą</w>
woj sk
ab so
ał by</w>
dobr e</w>
so n</w>
po ra
człon ków</w>
bli o
d z</w>
osta te
co dzien
nie ń</w>
Z wiąz
ż ołnie
wy powie
powin na</w>
T O
ro cz
O czywiście</w>
d laczego</w>
zie mi</w>
cy wi
sy stem</w>
ru sz
li tera
c ar
ni one</w>
S tu
jed no</w>
bram ki</w>
redni o</w>
pra ca</w>
ow y
jak by</w>
R E
k wali
i naczej</w>
W ład
ozna cza</w>
zatru dni
ując ego</w>
R ol
nie mal</w>
powin no</w>
roz pa
je steśmy</w>
za rzu
ma nia</w>
wła dze</w>
rze czywist
ając a</w>
ró j
b i</w>
stanowi sko</w>
in stru
A L
al nego</w>
B ro
Po lo
pię ć</w>
licz by</w>
pra kty
sy m
m ś</w>
cał ego</w>
o s</w>
spo li
re li
dz ów</w>
sz la
Ó W</w>
wyda je</w>
róż ne</w>
ta cja</w>
Tade usz</w>
praw da</w>
po spoli
D laczego</w>
cza ch</w>
or o</w>
roz mawi
jakie ś</w>
ni czej</w>
2 0
aut obu
kon ty
nicz e</w>
kolej ny</w>
Po tem</w>
ał oby</w>
C I
b ą</w>
rzecz nik</w>
dzi ła</w>
gie m</w>
j ów</w>
Sej m</w>
wska z
ła by</w>
s ędzi
7 7</w>
P at
powin ny</w>
dotycz ące</w>
ba wi
w ki</w>
do ro
cyj nie</w>
in nego</w>
tech nicz
Dzie n
będ ę</w>
Ga ze
l ka</w>
ki mi</w>
wa niu</w>
kieru nku</w>
Po cz
mist rza</w>
sze ro
d łow
za tem</w>
Kra j
an ą</w>
po łą
szczę ście</w>
peł nos
bie ż
M aj
cztere ch</w>
Ro dzi
sz pa
cał kowi
K il
My śl
St owarzy
ochro ny</w>
z mniej
u stal
S ędzi
za chod
wy bo
Hen ry
S LD</w>
ob słu
fika cji</w>
cał ą</w>
u su
G im
ś wiado
tr wa</w>
samo rządow
fak t</w>
dro b
e du
po ży
wy mag
dze ń</w>
dob re
tur ę</w>
gmi n</w>
ru d
nie wiel
jedno cześnie</w>
sz li</w>
wy naj
waż ne</w>
cze niem</w>
ty mi</w>
Fran cji</w>
6 2</w>
A gnie
kategor ii</w>
o r</w>
je st
za bezpie
ry bu
spół ki</w>
rz ą</w>
ob ję
ó sł</w>
przewodnicz ący</w>
ka zy
po dzie
st ały</w>
s ce
tur nieju</w>
wi dać</w>
b al
cz ony</w>
ch cie
środowi ska</w>
O j
D od
ch ot
Ka mi
ł os
a gen
Or gani
sie ci</w>
po kry
Pod staw
pił kę</w>
doty czy</w>
ci li</w>
Spo łe
tr z</w>
w ska</w>
A d
ga ć</w>
ter mi
pisa ć</w>
pa ni
Łuka sz</w>
przy najmniej</w>
Gos podar
wa na</w>
g wia
W yst
bli sko</w>
6 3</w>
blio te
log ii</w>
sza c
u zasad
at rak
6 1</w>
dze niem</w>
mod er
spra wied
wy łącznie</w>
le ży</w>
k s
wyja śnia</w>
le r</w>
pew ne</w>
re zer
w reszcie</w>
u cie
świa t</w>
li dze</w>
imprez y</w>
b ą
ra di
spół dziel
popraw ki</w>
zi m
Ka tarzy
d s</w>
tow y</w>
go ro
z resztą</w>
głos owania</w>
ga ż
u kry
współ pracy</w>
rob i</w>
pi ątek</w>
T re
następ nie</w>
oko licz
zamk nię
Uni wersyte
oś cie</w>
cz aj
para fi
A kade
Ste fa
li k</w>
powierzch ni</w>
pierwsz ych</w>
powie t
że ń</w>
okaza ło</w>
ni kami</w>
sz cz</w>
ar y</w>
zd u</w>
ra ch
K ow
pocz u
n nych</w>
al nej</w>
kil ka
7 2</w>
ź ród
ch ów</w>
ro bo
K la
spo zy
Sej mu</w>
cze m</w>
l od
na zy
decyz ję</w>
produ kcji</w>
6 4</w>
stad i
kon stru
N or
cz onych</w>
każde go</w>
proble my</w>
ro m</w>
Te at
in ny</w>
od rzu
po t
se kre
li nii</w>
m ą
pierwsz ego</w>
g waran
1 5
kow skiego</w>
tłuma czy</w>
7 8</w>
wy róż
an giel
e mo
produ k
u jemy</w>
ątkow o</w>
l d</w>
in nym</w>
gn ę
po stawi
ka z</w>
spo dzie
s an
bezpiecze ństwa</w>
kompu te
kon f
spor tu</w>
Wyso ka</w>
Nie mie
zoba cz</w>
T owarzy
prze tar
o powiada</w>
li ście</w>
bad ania</w>
pol skim</w>
spoko j
stycz nej</w>
z ne
wal ki</w>
po sła</w>
gn ąć</w>
pamię ta
sz k
Na u
Pola ków</w>
ro dek</w>
P K
szko d
wy niki</w>
are sz
Wszyst ko</w>
ując ej</w>
godzi n</w>
dzi ale</w>
G u
jaz dy</w>
jaz d</w>
ży w
j my</w>
ro syj
zd ra
b l
zdoby ł</w>
Pra c
ta ń
Warsza wa</w>
mi o
konkur su</w>
s ję</w>
kie dyś</w>
mie się
o pa
posta ci</w>
mówi ą</w>
p r
miej ęt
le c</w>
kaz uje</w>
licz ba</w>
krót ce</w>
G i
ar u</w>
cał ym</w>
drug im</w>
U S</w>
ko mó
le gi
U r
U nia</w>
Po za</w>
środ ki</w>
na st
rad ni</w>
W śród</w>
dzi li</w>
9 9</w>
we wnętrz
sko rzy
Je stem</w>
kon ta
ł ę
S Z</w>
met od
z obowiąza
ucze l
6 7</w>
tar z</w>
prze by
wy nosi</w>
obe jm
1 4
Pozna niu</w>
P ot
D ro
NI E</w>
war to</w>
kolej nych</w>
Mał gorz
Z y
sam ego</w>
wię zie
Z na
pra k
cyj ną</w>
Rze sz
dzi siej
n oś
dzie cka</w>
kon sekwen
8 6</w>
wie cz
bur mistrz</w>
O li
kow ym</w>
Fun du
la mi</w>
Sz kół</w>
cz kę</w>
kobie ty</w>
dotych czas
Gim naz
now a</w>
sze wski</w>
zna czy</w>
czy ński</w>
z nów</w>
wy bi
tu rze</w>
si ć</w>
miejscow ości</w>
tor y
u z
e dy
d wo
s ma
ini cja
kom p
kobie t</w>
ając ej</w>
czę ści
row er
wątp liwości</w>
le wi
Ma my</w>
im pre
de k
l ski</w>
li i</w>
t kę</w>
M a</w>
na tural
SK I</w>
większ ości</w>
now ym</w>
musi ał</w>
rz an
W tedy</w>
na ci
Ryszar d</w>
se z
z bi
Paw ła</w>
y ż
Pol skiej</w>
Dari usz</w>
za by
Mari usz</w>
cz ni</w>
a r</w>
h on
owan ą</w>
8 9</w>
ser w
k e</w>
fran cu
ó wek</w>
dzie cko</w>
or y</w>
7 6</w>
Ż e
N ad
usta wa</w>
m e</w>
okre s</w>
la k</w>
mu sie
K or
pan u</w>
e ki
ając ego</w>
zmia nie</w>
se k</w>
i ę</w>
6 9</w>
służ by</w>
b r
spotka niu</w>
pun ktu</w>
wład z</w>
Zda niem</w>
mo im</w>
dob ry</w>
zar e
Warsza wy</w>
ci ą</w>
je sie
S ka
j nych</w>
wan ych</w>
s chod
m ki</w>
jąc ego</w>
cho ciaż</w>
świę ci
sze f</w>
met rowe</w>
de mokra
8 3</w>
k sy
T E
ce l</w>
Ło dzi</w>
ogó l
wo kół</w>
ni ósł</w>
stro nę</w>
ko ła
B O
wy nik</w>
s ch
szy ł</w>
wart ość</w>
Ko men
kon stytu
O święci
niej szy</w>
Pa ńst
no sz
po miesz
X V
zie m
K A
rze czywiście</w>
pun kty</w>
z decydow
ź le</w>
ni na</w>
Myśl ę</w>
8 4</w>
nię cie</w>
stą pi</w>
D ąb
wi l
za rządu</w>
ś wią
tor ium</w>
na stu</w>
cze r
działa ń</w>
gi a</w>
Mi ro
8 1</w>
tygod niu</w>
po par
eg za
Wład y
każd ej</w>
k tyw
kosz ty</w>
sy gna
u miejęt
Ma te
o par
v er
osie d
m ło
ko lo
pił kar
na pis
l o</w>
za stos
ma t</w>
W Y
przyszł ości</w>
sz ły</w>
1 2
sto li
ja ką</w>
Każ dy</w>
wod a</w>
ostat niej</w>
ro śli
zja wi
St an
ow skiej</w>
ma r</w>
skła d</w>
ch ę
kow ska</w>
g ni
c ór
jech ać</w>
godzi nie</w>
Kow al
miejscow ość</w>
odpowie dni
mó c</w>
ź ni</w>
for mu
pol skie</w>
in ten
tycz ny</w>
bada ń</w>
dysku sji</w>
z łoż
preze sa</w>
Mar ia</w>
roz strzy
E wa</w>
I ch</w>
cał e</w>
kontro li</w>
war sza
i mieniu</w>
ta jem
pra sza
tr o</w>
Osta t
zawie ra
otrzy mał</w>
cjonari u
Komis ja</w>
d ie
zost ali</w>
porząd ku</w>
za bie
row ski</w>
stra ża
Raf ał</w>
alko hol
Ś wiat
si ak</w>
t nego</w>
tytu łu</w>
bi ał
t wem</w>
Be z
pa ch</w>
peł ni</w>
za plan
part ii</w>
R i
owa w
poszu ki
8 7</w>
uczni owie</w>
nicz ym</w>
S kar
pod wyż
pro mo
men ty</w>
sw ego</w>
z ła
proble mów</w>
cze ka</w>
e mu</w>
o prac
dyre ktora</w>
tre nin
dokład nie</w>
sj ona
mi r</w>
p t</w>
ssa ge</w>
elekt ro
pracow nicy</w>
al a</w>
g ad
państ wo</w>
wojewódz twie</w>
są du</w>
my śli</w>
199 7</w>
u pad
ni orów</w>
a pe
ż u
ostat nio</w>
sk ach</w>
za rządz
a ktu
9 1</w>
bą dź</w>
Związ ku</w>
ogra nicz
Mu zeum</w>
b r</w>
odpowie dzi</w>
in stal
c ale</w>
zapew ni
pa li
za uwa
nie pełnos
psy cho
wen tu
G ar
f an
kar ie
Ch i
naj lepiej</w>
Sta ro
t ąd</w>
ma gi
os ła
kupi ć</w>
sa ma</w>
stosun ku</w>
N O
za miast</w>
an gaż
od kry
ana liz
n nego</w>
8 2</w>
pa mi
z więk
po prze
ku ch
co f
bi sku
nor mal
wan o</w>
wy zna
Gdy by</w>
prze pisów</w>
do lar
n ne</w>
dy plo
ó d
Sena tu</w>
korzy sta
ta be
bo ha
któ ry
ka pi
ostat ni</w>
dow i
l ą</w>
dzi w
me cha
kow ą</w>
ma szy
pozio mie</w>
1 3
nie si
G re
se n</w>
Kazi mierz</w>
poko j
dzie je</w>
ś le</w>
istnie je</w>
ko go</w>
pa st
T e</w>
wnio sku</w>
kow ane</w>
den cji</w>
Mi strz
Pi a
I N
we z
o szcz
roz mowy</w>
produ cen
pozy tyw
9 5</w>
u tra
pod pis
Pra w
mog ła</w>
stan owi</w>
za łoży
Le szek</w>
kie r
ń ców</w>
D O
d r</w>
rad nych</w>
ma ni
Mini st
wy bu
sła b
po żar
god nie</w>
cho ro
podat ku</w>
ko ch
199 0</w>
k g</w>
kon feren
zale dwie</w>
od powiad
pod j
gospodar ki</w>
w spar
dz wo
po dzi
l ną</w>
zasad y</w>
o le
mo je</w>
Bo t</w>
sym bo
naj częściej</w>
w stęp
prze bie
skie mu</w>
polity ki</w>
my śle
zabra k
nowo czes
F a
p l
prawdo podob
ws pani
i z
on ymi</w>
7 4</w>
pow ro
f y</w>
s peł
B or
ra j
ta cję</w>
właścicie l</w>
rę ce</w>
7 1</w>
uwa gi</w>
Państ w
b ó
M og
nie zależ
koń c
E d
Jaro sław</w>
charak ter</w>
pomy sł</w>
Ka li
7 3</w>
Sł owa
Agnie szka</w>
C ra
obywa te
K ru
Wi sła</w>
rodzi ców</w>
SK A</w>
nie niu</w>
regu la
za słu
d uje</w>
u da</w>
sty na</w>
obe j
Wiel ko
e ko
Pra cy</w>
ni ony</w>
W szy
po ch
wska za
ja kim</w>
le ż
zale ży</w>
men tów</w>
po raż
ostat nim</w>
se sji</w>
9 2</w>
gło s</w>
J ej</w>
zwy cza
książ ki</w>
pię ciu</w>
w skiej</w>
ko ście
Bar t
regi onie</w>
4 00</w>
premie ra</w>
prac uje</w>
tytu ł</w>
Iz bo</w>
naj pierw</w>
momen cie</w>
Na stęp
o powiad
ć by</w>
pow ró
now u</w>
So lidar
sta je</w>
ar gu
ając ym</w>
Gimnaz jum</w>
środ ka</w>
g rywa
er a</w>
li by</w>
Szko ły</w>
sta tu
Re gi
na stąpi
Wszy scy</w>
bi li
usłu g</w>
trafi ł</w>
kosz tów</w>
prac ować</w>
ad a
fra g
u możli
regi ona
me ssage</w>
O st
gie ł
cho dzić</w>
e wentu
dni ach</w>
G ie
ko szy
1 50</w>
rol ę</w>
czy my</w>
s h
K li
u względ
te goro
rów n
ga tu
gene ral
R ów
Aleks and
rzę dzie</w>
Rad a</w>
be k</w>
stycz ny</w>
wi ł</w>
reali zacji</w>
o ni
tow ego</w>
u ja
tycz nego</w>
Na wet</w>
k se
dłu g
ka to
jąc a</w>
G miny</w>
proje kt
ta rz
Euro pie</w>
pomo cą</w>
ch ar
związa nych</w>
mó j</w>
da l</w>
f ry
pi ęt
mężczyz n</w>
W ój
b in
prawi dłow
właści wie</w>
prze wa
zwyk ł
p rz
ski mi</w>
chwi lę</w>
li sty</w>
nie stety</w>
potrze by</w>
R U
u sły
na cze
sk on
daw na</w>
n nej</w>
za po
ne go
w pad
stwier dził</w>
gra ć</w>
budow a</w>
warun kach</w>
T wo
wy nagro
to rem</w>
k ój</w>
In stytu
po równa
wi os
o f</w>
bi zne
głę bo
cen ę</w>
H ar
ka pita
po do
młodzie ż</w>
sti wal
me cze</w>
O gól
r ą</w>
P os
st ali</w>
owi c</w>
c m</w>
B ędzie</w>
ni kom</w>
gi na
osob ist
Za kład
mi l
ając ą</w>
c ką</w>
d ali</w>
pa s
naj ą</w>
tra ns
nie do
materi ał
wo lu
przed miot
ń czy
niez będ
ów kę</w>
Wszyst kie</w>
P R</w>
wy klu
t nej</w>
wykona w
stro n</w>
C E</w>
powo ła
kana ście</w>
w cale</w>
poszczegól nych</w>
liw e</w>
je zd
ki lo
gł oś
od pad
W O
v e</w>
se nator</w>
for mie</w>
le k</w>
Mu si
cza nie</w>
mili onów</w>
u żytkow
komó r
T am</w>
o rze
U krai
T at
za sta
ty ka
na tych
Dy re
B I
poniedział ek</w>
for mal
Niemie c</w>
now ą</w>
M łodzie
ż ony</w>
szy mi</w>
liw ość</w>
ni k
Ma cie
komen dan
roz m
osob a</w>
re la
Katarzy na</w>
połu dni
sty ki</w>
par ta
dzie ci
samochod ów</w>
współ czes
spotka ń</w>
za nie
spor o</w>
moder ni
t ku</w>
ie c</w>
sztu ki</w>
U rząd</w>
rowa ć</w>
konty nu
prze zna
prawdo podobnie</w>
wią zek</w>
ne rw
NI A</w>
me ta
ni owych</w>
dziesię ciu</w>
samo chód</w>
czy tel
wa j
min u</w>
b re
tu ż</w>
pew nie</w>
policjan ci</w>
rz ad
praw y</w>
z d</w>
k le
A ZS</w>
pospoli tej</w>
Małgorz ata</w>
S ch
zaję cia</w>
regi onu</w>
lo na</w>
I X</w>
drz wi</w>
al nym</w>
nierucho mości</w>
e uro</w>
tar i
mie nie</w>
tow i</w>
oś wiat
traf i</w>
czy na
powie działa</w>
nagro dy</w>
ol an
zi om</w>
S pe
zna komi
stan dar
do star
st ri
kon cep
ponow nie</w>
dziesią t</w>
ka ta
ch cę</w>
1 1
A gen
kie wicza</w>
Pierwsz y</w>
Fi na
S ło
cz ni
opi nii</w>
D ol
k lub</w>
te j
wła dzy</w>
in g
od legł
d ało</w>
Wię ksz
ry n
u działu</w>
wsz y</w>
ry zy
g roz
ow ców</w>
ostat nie</w>
zacz ął</w>
si ły</w>
poda tkow
cie le</w>
nicz nej</w>
H ist
od woła
B ur
rozwiąza nia</w>
Ś wi
sze f
po słow
nic ach</w>
dzien nika
zda nie</w>
z mu</w>
Pu bli
da n</w>
miesi ąc
G O
Po nadto</w>
wy maga</w>
CE T</w>
ź niej</w>
ń ską</w>
osią gnię
mo gł
proce du
kato li
le ś
wyja śni
środ ku</w>
t owania</w>
oli mpi
mar ke
Mi koła
gru pie</w>
przedstawicie le</w>
prywa ty
s o</w>
U waż
my ś
Pi S</w>
ty pow
li n</w>
pew nością</w>
za łat
u koń
cza nia</w>
spe k
T rud
O krę
z wal
Bar bar
tow ali</w>
c k
f ar
cho ćby</w>
Ro man</w>
musi my</w>
H er
ce na</w>
par kin
od da
ak cep
ró b
gro ź
Ze spół</w>
sz ty
ł ot
ws chod
M ó
Ja ko</w>
K an
wyja ś
sł u</w>
zna ny</w>
tre nera</w>
z groma
ę cia</w>
su b
są d</w>
ko w</w>
th e</w>
ując ą</w>
Niem cy</w>
dob ra</w>
podkre śla</w>
po ję
pow yż
zwycię stwo</w>
poli cja</w>
rze ć</w>
sam ej</w>
instytu cji</w>
ż nej</w>
nę ła</w>
społe cznej</w>
i s</w>
Dzi siaj</w>
7 9</w>
publi cznych</w>
Pro gra
niej szym</w>
ro li</w>
szan sę</w>
Bog u
gra ł</w>
pol u</w>
do l
O chro
drugie go</w>
nic ki</w>
dolar ów</w>
Ch e
za sko
st ą</w>
pe r</w>
wy stawi
obro ny</w>
wzro st</w>
mo jej</w>
w ych</w>
wen cji</w>
bog a
moc no</w>
at mos
9 4</w>
mieszka ń</w>
boi sku</w>
K U
K ur
bł ęd
M or
M on
Cra co
wie ś</w>
da mi</w>
znala zł</w>
ni owej</w>
mog ły</w>
C ar
cza ć</w>
S pół
mai l</w>
zg ła
ro s
charak tery
l wen
że niu</w>
A mery
tow a</w>
go rze
z le
Be z</w>
warun ków</w>
cha r</w>
rze niu</w>
wspól nie</w>
wy sy
st ka</w>
w ego</w>
P N</w>
Andrze ja</w>
Sz we
kraj ów</w>
rę kę</w>
odpowie d
uczest ników</w>
sez onu</w>
pó j
wy cie
stanowi ska</w>
li za
od bi
wyra źnie</w>
nie wiele</w>
k owania</w>
za bi
N A
row a</w>
sk ę</w>
c twa</w>
U sta
9 3</w>
fil m</w>
in ni</w>
w ka</w>
czeka ć</w>
n owi
śli ć</w>
Wi tam</w>
postęp owania</w>
ch cemy</w>
kła dzie</w>
sz er
kie st
Miej skiej</w>
u ra</w>
t na</w>
u czy
Fran ci
rod u</w>
sk oro</w>
s pełni
wie j
rowa ł</w>
v a</w>
przyszł ym</w>
bo t</w>
re ży
pierwsz a</w>
sk le
nie niem</w>
u rucho
wie dzy</w>
prze pisy</w>
se t</w>
aut or
n ny</w>
eg ze
praw dzie</w>
N owego</w>
u leg
kwe sti
Prze cież</w>
ar ek</w>
rodzi n</w>
Pozna ń</w>
psy chi
kształ c
t owany</w>
al na</w>
R z
a j</w>
przedsię wzię
przy kład
rów no
ra no</w>
D A
le cia</w>
d róg</w>
skła dzie</w>
Ko mu
prac odaw
Pro kura
kil kanaście</w>
y by</w>
oce ni
ż bie
j ne</w>
Jo anna</w>
W e</w>
a cji</w>
st owarzy
bra kuje</w>
zapew nia</w>
Z jedno
g ę
c ała</w>
de fi
mi ałem</w>
pe k</w>
Nowa k</w>
sytua cję</w>
B ru
ne n
słu cha
Do mu</w>
wol ności</w>
ek en
alkohol u</w>
przed szko
ad a</w>
k ru
p ry
teri a</w>
Tak ie</w>
su mie</w>
z nowu</w>
nau ki</w>
Ł ó
d go
rod ę</w>
F il
ku n
sprzeda ż</w>
let niego</w>
Poli cji</w>
k rze
tech no
ma na</w>
P R
cie r
musie li</w>
pi ą
zda nia</w>
t to</w>
mian ę</w>
Ar tur</w>
żad nego</w>
re z
wo ka
ał ę
ga n</w>
k r
podstaw owych</w>
Z wy
ta bli
awan s
Sła wo
Z e</w>
u nek</w>
k war
st ał
C i</w>
z wro
h ali</w>
scy pli
że niem</w>
A K</w>
głos ów</w>
t owane</w>
Po nie
stop niu</w>
st ki</w>
El żbie
stycz nego</w>
ga mi</w>
pi osen
licz ne</w>
K lub</w>
gł owy</w>
a le
f en
u rzędu</w>
ci k</w>
po prawi
konf li
zd ów</w>
P ó
D łu
dzi ę
druży na</w>
0 200</w>
war szta
Th e</w>
Bu dow
zawod nicy</w>
świat owej</w>
Spo tka
da ją</w>
do mów</w>
języ ka</w>
ci ała</w>
t ri
Pa mię
klien tów</w>
odz y
rze ści
ce um</w>
ob serw
K sią
st wem</w>
jąc ej</w>
go la</w>
zada nia</w>
wpły w</w>
kierow nik</w>
lo zo
ni om</w>
za strze
Cho ć</w>
li nie</w>
fot ografi
sta cji</w>
tow ała</w>
po ziom</w>
ar ów</w>
Stani sława</w>
ob sza
9 7</w>
stra ty</w>
f ie</w>
stra te
mistrzost w</w>
ła two</w>
an d</w>
Pro je
d wa
u f
komu ni
Sz tu
wa ka
roz wój</w>
T u</w>
z biera
cz ości</w>
zespo ły</w>
w ęd
R ó
za angaż
rw i</w>
dale ko</w>
o prócz</w>
Ge ne
9 8</w>
wa m</w>
prze ży
In forma
kt orów</w>
man da
li ga</w>
ni owe</w>
ko s
pow oł
t ują</w>
p ę
9 6</w>
a ni
o czy</w>
budow lan
pod legł
Większ ość</w>
M an
lo g</w>
Wi dzów</w>
ciąg le</w>
zajm uje</w>
rześci ja
ka mpa
zy gn
Mag dale
P S
ode bra
spraw ą</w>
OW I
cie m
rze sz
H an
rz ę</w>
Za wod
sam e</w>
T rybu
Pre zyden
Pola cy</w>
poko ju</w>
K os
mo ni
s pie
e t</w>
elekt ry
li t
k ował</w>
Henry k</w>
wn ą
ż ół
to rek</w>
pod ró
reprezen tacji</w>
A by</w>
ml d</w>
prze wo
cz ów</w>
włas ne</w>
dz one</w>
wną trz</w>
u śmie
telewi zji</w>
włas nej</w>
Do ro
Jaku b</w>
wiel kie</w>
mężczyz na</w>
ro dy</w>
Mu zy
czwar tek</w>
archi te
od dział
no c</w>
War to</w>
dro gę</w>
niej sza</w>
przed sta
przy ci
jednost ki</w>
o strze
hon or
nicz ne</w>
st e</w>
na sza</w>
K ę
b ór</w>
prze kro
z rozumie
konkur s</w>
spor t</w>
P O</w>
szcze nia</w>
Le ch</w>
zna czenie</w>
są siad
sto i</w>
R P</w>
so li
inicja ty
o czy
Gru pa</w>
wy mia
sz ki</w>
ra tu
tere nu</w>
rozpo cznie</w>
kon tu
An gli
A G
który mi</w>
1 0
dz am</w>
ad o
C J
czo rem</w>
ś rodek</w>
wy nosi
nię cia</w>
t nym</w>
we eken
wrę cz</w>
a niu</w>
drug ą</w>
chci ałbym</w>
z dy</w>
usta wie</w>
P ół
k wa
Stefa n</w>
Mi l
Rze czy
kur s</w>
Wi kipe
z daw
samochod u</w>
t owanie</w>
jąc ym</w>
nie ć</w>
dru ga</w>
dy spozy
potrzeb ne</w>
Za rząd</w>
bez pła
sze re
O sob
wy równa
wy kaza
ć wi
n ó
skar b
f re
proce s</w>
Do piero</w>
Ko mi
Be l
pił karzy</w>
mie rza</w>
Wi sły</w>
fi kow
wsz e
ja ko
Zako pan
poś red
plac ówki</w>
gospoda rzy</w>
d ała</w>
C H</w>
le wski</w>
wój t</w>
pie lę
Ros ji</w>
publi cznej</w>
rodzi ce</w>
pro ś
najlep szych</w>
wy nika
za propon
f al
stiwal u</w>
pi l
sła w
nauczycie li</w>
p row
wi u</w>
Akade mii</w>
bra n
dziew czy
be l
O prócz</w>
Ogól no
ru ch</w>
kobie ta</w>
opie ku
dotycz ących</w>
bez robot
po móc</w>
cza sów</w>
zespoł ów</w>
pe ten
Za rządu</w>
J ad
sukce s</w>
L O
ubiegł ego</w>
szkole ni
pie ń</w>
F I
kon serwa
ko ali
ty dzień</w>
tabe li</w>
Je den</w>
By ć</w>
s je</w>
ż ona</w>
po słu
włas nym</w>
gn ął</w>
ul ta
chro ni
S ąd</w>
znajd ują</w>
kry zy
budy nek</w>
so r</w>
ci ar
proble mu</w>
su m
P uch
za prezent
no szą</w>
h y
s łem</w>
Je dy
o p</w>
kon tak
S ko
le kar
wie n</w>
nie dawno</w>
wy ści
rozwiąza nie</w>
t rój
ta nie</w>
ą łem</w>
ge n</w>
li ński</w>
Ze społ
zdrow ot
g oście</w>
Z godnie</w>
ska za
gl ąd</w>
t le
ce lem</w>
cie l</w>
kar tki</w>
samo dziel
na by
ła mi</w>
miesi ące</w>
an ek</w>
nume r</w>
kandyda tów</w>
ma mi</w>
eksp er
strze l
Pier wsze</w>
prze ję
ek stra
dz ki</w>
za pra
A T</w>
row ie</w>
Rzeczy pospolitej</w>
wy stąpie
ru je</w>
kon uje</w>
Zy g
rzą t</w>
S I
po ten
rze ź
now o</w>
M y</w>
W od
te rze</w>
dy scypli
gó ry</w>
pił karze</w>
ł ę</w>
s ło</w>
pocz ątek</w>
premie r</w>
o ku
nie bezpie
pierwsz ą</w>
ży ła</w>
nie które</w>
Re j
zdecyd owanie</w>
nicz a</w>
powin ni</w>
Te re
k rą
M od
fina le</w>
za wi
Sędzi ował</w>
ko pal
z na</w>
pił ki</w>
Cho dzi</w>
zg in
kla sie</w>
Mi ędzynarodow
P RZE
Podob nie</w>
f la
k owanie</w>
podo pie
pun kt</w>
vi sta</w>
uch wały</w>
sze niu</w>
reli gi
przyzna je</w>
tele fo
dob y
wie ra
Ochro ny</w>
sta ch</w>
or ia</w>
Trud no</w>
ra tow
e t
rząd ów</w>
żad nej</w>
S al
po la</w>
mistrz o
Dzie ci</w>
w ą
mo n</w>
bi a</w>
zie l
mog ło</w>
Naj pierw</w>
G li
at y</w>
wygra ł</w>
pro mi
wykorzy sty
uczel ni</w>
ha bili
da g
tere n</w>
rach un
w krótce</w>
za pyta
remon t</w>
abso lwen
są dow
wi am</w>
nie zwykle</w>
po kole
wie rzy
włas nych</w>
mieszka nie</w>
la ty</w>
nicz ka</w>
in spe
kra jach</w>
or gan
Ni kt</w>
ob raz
eli mina
dzi ały</w>
J or
Oli mpi
za gospodar
Kie l
li byśmy</w>
ko re
zada ń</w>
pomo c
wie dzą</w>
Ponie waż</w>
sz nie</w>
pla cu</w>
wybo rach</w>
6 00</w>
row ych</w>
środ ę</w>
mówi ąc</w>
ot wo
wo li</w>
m uje</w>
całkowi cie</w>
rę b
do tar
Ni c</w>
wra żenie</w>
Pre ze
199 6</w>
wyra zi
n g
so cjal
nic twem</w>
lu dzi
K obie
D E
tygod ni</w>
rozpocz ął</w>
z j
lud ności</w>
sla vista</w>
łow ski</w>
Kil ka</w>
row i</w>
Pro ble
k rwi</w>
K re
men tu</w>
W in
ry nek</w>
ob ie</w>
sp ła
it p</w>
oj ciec</w>
t h</w>
z realiz
ta cje</w>
K się
P er
19 75</w>
re mi
na sto
bezpoś rednio</w>
pi su</w>
zach ę
prak tycznie</w>
ob raz</w>
mó gł
re kor
sz czy</w>
zoba czyć</w>
kon t
pow tarz
B ęd
on dy
dzie wię
na past
Z aj
tor i
ty fika
s ar
b łą
śl ad
sku tek</w>
gł ową</w>
dzi a</w>
wspom ni
w torek</w>
dotych czas</w>
Je rze
Organi za
b ój
dobre j</w>
wyglą da</w>
le ga
Czy tel
ro n</w>
ci ach</w>
z ga
konsu l
ni czy</w>
tó ż</w>
f f</w>
dy spon
L O</w>
M E
re sta
Da nie
O by
niż ej</w>
S trze
Sz pita
la u
po le</w>
ch owski</w>
c one</w>
s owe</w>
wy wal
wnio ski</w>
wa n</w>
rozgry wek</w>
prac ował</w>
Mari an</w>
pol ska</w>
Miro sław</w>
muzy ki</w>
rz ają</w>
p lu
szpita lu</w>
wy ro
po ru
k ują</w>
po leg
Zespoł u</w>
l owej</w>
funk cjonariu
P S</w>
ist niej
wy obra
mał że
si k</w>
C u
N owa</w>
trze cie</w>
Komi te
za d
zmieni ć</w>
S tro
decyz ja</w>
by łem</w>
dokumen tów</w>
t ę
tem pera
wi na</w>
posiad a</w>
sz ony</w>
nios ła</w>
bi bliote
fi lozo
rez ulta
koncer t</w>
wy biera
ch le
g dzie
Naj lep
NI E
spra wach</w>
po to
wi o
zapew ne</w>
ge r</w>
kto rem</w>
z ów</w>
le s</w>
le ń</w>
D wa</w>
pod miot
fun da
K oś
zwie rząt</w>
ty ków</w>
nar ko
eko logi
Ba ra
miesi ąc</w>
kra dzie
Wiel kiej</w>
szczegó łow
jech ali</w>
mo ty
Bra mki</w>
ser wi
wy raż
05 01</w>
za raz</w>
struktu ry</w>
I m
fundu szy</w>
po god
Lu dzie</w>
ńst wie</w>
sti an</w>
p ł
OW E</w>
dz y
0 100</w>
O rze
Ma z
sprzę t</w>
ws piera
N ow
199 5</w>
gmi nę</w>
Ada m
finans owych</w>
T i
ob rze
sz em</w>
Ż ół
dro ga</w>
D an
z i</w>
ow cy</w>
sze ść</w>
bud ować</w>
Ch y
dz ają</w>
a para
je wski</w>
k wiat
199 4</w>
inform uje</w>
szuka ć</w>
ży li</w>
tycz na</w>
di um</w>
te ra</w>
ka mie
Czę sto
v ii</w>
o powie
mał e</w>
człon kowie</w>
wol no</w>
Tar nów</w>
Ł A
stu dia</w>
og i
cy z
wy kład
cho dzie</w>
bez robo
Ry nku</w>
prze szł
an der</w>
studen tów</w>
Gdań sku</w>
ź ni
mod e
Z A
for ma</w>
ot ar
g uje</w>
kwo ty</w>
cz no</w>
prze kra
ter ów</w>
Fi r
E k
naj więcej</w>
Sta l</w>
ter min</w>
propon uje</w>
ś redni
nag le</w>
pan ów</w>
bra ku</w>
M KS</w>
u k</w>
sw ej</w>
kwest ii</w>
po kaz
K wa
Wy działu</w>
d or
dz ąc</w>
kości oła</w>
ż by</w>
administra cji</w>
ta j
przedstawicie li</w>
bie ra</w>
kontro l
dłuż ej</w>
E le
tow ą</w>
wi dzi
P owie
ko la
sprze daw
Mar y
prasza m</w>
O tóż</w>
b la
b ło
fun kcji</w>
cz ą
finans owe</w>
wa niem</w>
ż ne</w>
ja ka</w>
szyb ciej</w>
B al
czora j
zawod ów</w>
opie ki</w>
spra wi
pozwal a</w>
s uje</w>
Józe fa</w>
le rii</w>
ot a</w>
ne ga
u nie
tre n
większ ą</w>
za ko
natych miast</w>
dra ma
pozost ałych</w>
konkur sie</w>
t ną</w>
rze niem</w>
ty m
sk ra
chęt nie</w>
trze ci</w>
saż er
T ro
Chci ałbym</w>
za czyna</w>
chcie li</w>
nie u
miejs cach</w>
na szą</w>
Gor li
f ał
g łu
fil mu</w>
Pod hal
szy ła</w>
S ok
syj nych</w>
by tu</w>
wy cof
p e</w>
wra ca</w>
położ ona</w>
pi sy
usta w</w>
e mi
ser ii</w>
Pie ni
le ga</w>
mał ych</w>
ał aby</w>
umiejęt ności</w>
tycz nym</w>
gie r</w>
fa bry
por t</w>
w skim</w>
łó dz
Wy bor
c menta
8 00</w>
ogól no
Bo ż
By ła</w>
pe wien</w>
zdo l
s re
od powiada</w>
tar now
g ości
komis ja</w>
mini ster
b ów</w>
Ł O
Piot ra</w>
Barbar a</w>
progra mie</w>
ł e</w>
se r</w>
jeź dzie</w>
De mokra
Okrę g
ga nia</w>
ra mi
al ną</w>
sz eni</w>
mo ja</w>
dokumen ty</w>
rozpo rzą
z ę</w>
P ło
wystar czy</w>
telewi zyj
lo t</w>
cię żar
zna ne</w>
Stra ży</w>
Dy sku
i mię</w>
Jerze go</w>
bi a
Prac ow
kto rzy</w>
odpowie dź</w>
op ty
okre śle
rad ny</w>
wi dzenia</w>
Za chod
Pa ństwa</w>
w dzię
u działem</w>
skie r
ory gina
ser ca</w>
ż em</w>
A m
finans ów</w>
Mi c
Lu dow
I st
p ri
sku pi
E n
pew nym</w>
wy cią
uzysk ać</w>
ni kach</w>
dz ony</w>
g er
ho te
Przed się
edu ka
ł ą</w>
By ło</w>
zdję cia</w>
duż ym</w>
m ka</w>
wa l</w>
Sej mie</w>
zy li
Zyg mun
ka dencji</w>
N E
przy chod
cz ę</w>
ob li
ak cja</w>
zag ad
w za
Klu bu</w>
mał opol
po ło
pie l
pra wo
kom peten
Sławo mir</w>
mie liśmy</w>
gimnaz jum</w>
ci n</w>
W cześ
p ów</w>
z em</w>
spek tak
zaj ął</w>
wskaz uje</w>
me r</w>
społecze ństwa</w>
ob cią
stą d</w>
bezpiecze ństwo</w>
m le
gene ra
Jo h
skrzy ż
prowadz one</w>
zasa d</w>
S O
p ę</w>
po bliż
in nej</w>
Kie row
czy ka</w>
ucz u
Z US</w>
ra d</w>
pobliż u</w>
zasa dzie</w>
pow stanie</w>
Wła ści
Mo sk
duż ą</w>
sko m
wniosk ów</w>
sp rowa
Gł os
do tąd</w>
199 3</w>
T oru
la s</w>
tygod nie</w>
od był</w>
si ła</w>
o pis
informa cję</w>
Magdale na</w>
mło dzi</w>
twier dzą</w>
inwesty cje</w>
ka że</w>
row ej</w>
szan se</w>
Wie le</w>
wy wo
i dzie</w>
par ę</w>
By dgo
T A
Pa na</w>
sz ó
do stos
m owe</w>
ch rześcija
By ły</w>
uroczyst ości</w>
li czy</w>
os z</w>
wy kształ
m ną</w>
wybor u</w>
od działu</w>
druży n</w>
wzi ąć</w>
Podstaw owej</w>
la z
cz o</w>
biu ra</w>
sw ych</w>
wie j</w>
prze ja
wod ę</w>
Trybu na
licz nych</w>
kibi ców</w>
Mate usz</w>
Fi li
Wy niki</w>
od szkod
praw em</w>
w łą
al u</w>
ę ło</w>
Ka cz
A le
zwie rzę
ow ości</w>
Są czu</w>
usłu gi</w>
Le gi
199 2</w>
mo ich</w>
ę ła</w>
a kade
pół noc
RZ Y
Ch rzan
wypo sa
myśl ę</w>
M P
sza ć</w>
te ni
by wa</w>
spo j
n nym</w>
p ta
R Y
uja wni
pamię ci</w>
Mia sto</w>
ch owie</w>
prze ło
W spól
bram kę</w>
kar y</w>
je k</w>
u łat
Jed no
szko łach</w>
ow ca</w>
kul tural
mniej sz
Regi ona
rz one</w>
s h</w>
za zna
Par lamen
na gra
s c
s owych</w>
pie c</w>
z bliż
w ów</w>
t ni</w>
l y</w>
ut ów</w>
ra cję</w>
od bior
je dzie</w>
stanowi ą</w>
Ed war
sk ó
wybor ów</w>
wó d</w>
duż ej</w>
cze ch</w>
wstrzy mał</w>
kla ski</w>
Aleksand ra</w>
przygot ow
wie czorem</w>
m b
Lu d
szko ła</w>
J uli
li ny</w>
pla n</w>
PA P</w>
wiel ki</w>
stan owie
in gu</w>
ak cję</w>
woj nie</w>
Pó źniej</w>
reprezent an
T Y
de ł</w>
przypad kach</w>
wzro stu</w>
ka ra
pole ga</w>
niesie nie</w>
oszcz ęd
e kra
cz nymi</w>
pozosta je</w>
przy jem
godzi nach</w>
roz bi
doro sł
bro ni</w>
Niem czech</w>
bur mistrza</w>
p ka</w>
m ała</w>
wy pełni
inte gra
pu jemy</w>
po pełni
na kład
pr ęd
gra nicy</w>
ł by</w>
wer sji</w>
ak cje</w>
ri a</w>
kura t</w>
zakład u</w>
Mieszka ńcy</w>
kierow cy</w>
awan s</w>
Ł u
resta ura
dodat kowe</w>
W ad
zada nie</w>
dre wni
Sok ół</w>
zd ą
199 1</w>
ob ja
Przy pomni
e pi
X IX</w>
inter pre
decyz je</w>
ni onych</w>
chodzi ło</w>
zwycza j</w>
E u
ąt ki</w>
gospodar czej</w>
T V
przed łu
maga zy
ener gii</w>
g rę</w>
uch a</w>
przy stąpi
ąt kiem</w>
proje kcie</w>
Aleks ander</w>
dy stan
sy n</w>
Rze cz
se kun
bie rze</w>
ma ty
oj ca</w>
ze wnętrz
zabrak ło</w>
minu cie</w>
T A</w>
du ży</w>
u szko
h tt
rz ony</w>
k ł</w>
1 20</w>
war i
or ien
jąc ą</w>
połow y</w>
k cję</w>
gospoda rze</w>
zagra nicznych</w>
Po mocy</w>
wó d
u bra
ce n</w>
wych owaw
I re
Wcześ niej</w>
zamie rza</w>
now eli
ma sz</w>
let nia</w>
dzi ło</w>
An to
przewi dzi
Elżbie ta</w>
po cią
ob szar
pro st</w>
Przedsię bior
htt p</w>
zwró cić</w>
Polo nia</w>
il ości</w>
J E
nego cja
U cze
W ró
ś ni</w>
staw ę</w>
198 9</w>
ban ku</w>
nie sie</w>
re go</w>
Bo le
ąc o</w>
śl ą
uni k
ubezpie czenia</w>
funk cję</w>
zd a</w>
mo jego</w>
ży ci
więzie nia</w>
h od
wie my</w>
wró cił</w>
Dę bi
ż ka</w>
rozpo zna
X X</w>
budy nków</w>
po glą
poinform ował</w>
o re
ju tro</w>
mu szę</w>
parafi i</w>
ener ge
b en
olimpi j
na ru
strze la
Rad o
s mu
nie spo
Mi cha
wo na</w>
utrzy manie</w>
pa sażer
ż on
dobr ym</w>
Uniwersyte tu</w>
mu l
d r
mo ral
staro sta</w>
niej szą</w>
Pozna nia</w>
kar nego</w>
państ w</w>
ł ka</w>
ju niorów</w>
Szko ła</w>
per spe
poś le</w>
ści ą</w>
Par y
let nie</w>
prowadzi li</w>
czy mś</w>
Cze ka
me czach</w>
oficjal nie</w>
najbliż szych</w>
wie c</w>
a s
Da wi
ć mi</w>
ch owa</w>
ł oby</w>
mi ędzy
do finans
Ko l
społe cznych</w>
profe sjona
obie c
zi ono</w>
za pis
żołnie rzy</w>
ow ałem</w>
li stów</w>
rzy ła</w>
w ery
do strze
Mo nika</w>
przer wie</w>
czo ł
rz ał</w>
ży na</w>
tek st</w>
za ch</w>
kow any</w>
Poli cjan
Hi szpa
cz ona</w>
wor y</w>
włas ną</w>
le ra</w>
kapi tał
M łod
p ło
ti on</w>
Ch or
il ość</w>
przyję cie</w>
przygot owy
bie gu</w>
Fundu szu</w>
naj młod
ni ła</w>
duż ych</w>
pow stał</w>
najważ niejsze</w>
w ca</w>
Ko sz
ó g</w>
ofi ar
Dzi ał
U S
b rod
si ost
N owe</w>
nega tyw
gie r
trze ci
l we
Dysku sja</w>
f ut
um owę</w>
fina łu</w>
pozy cję</w>
ał u
S ob
skute cznie</w>
Se ba
wy woł
pro fi
śmie ci</w>
sek su
a ma
dz ono</w>
wy ników</w>
kaza ło</w>
kow ało</w>
ro cznie</w>
pła cić</w>
kierow ców</w>
g wał
zda rzenia</w>
Puch aru</w>
sam ych</w>
a sy
dek lar
b ły
za rząd</w>
śle dz
li zacja</w>
krzy w
komu na
li li</w>
zo r</w>
T ego</w>
M S</w>
pie nia</w>
M IE
szan s</w>
ag re
dw or
nie ch</w>
dź wię
cał ości</w>
O środka</w>
ow skim</w>
ko mu</w>
chor ych</w>
licz bę</w>
Ko ro
na rze
ta len
jednost ek</w>
samo rządu</w>
b rą
u zy
am bi
kwo tę</w>
obywa tel
oskar ż
cza sach</w>
lo s</w>
ry wal
sz one</w>
pamięta ć</w>
słow o</w>
li der
z mu
cho dził</w>
ży dow
S mo
przyj ął</w>
tra m
Gospodar ki</w>
czyn ności</w>
śli ł</w>
okre su</w>
rzeczywist ości</w>
kierow ca</w>
trze ź
w u
ze zna
cy fi
zosta je</w>
og ro
roz sze
now ski</w>
u pły
men cie</w>
ż an
sze fa</w>
i ście</w>
za my
be l</w>
Wy ż
S praw
Z łot
powi at</w>
li st</w>
Te ch
ob serwa
Z O
An t
e s</w>
wykorzy sta
zni k
cho dzenia</w>
ó ż</w>
większ a</w>
c ony</w>
dzie liśmy</w>
drog ą</w>
na t</w>
wy prze
z wrac
Wal de
kar pa
żad en</w>
ur lo
wró cić</w>
Q u
Kon stytu
Z dzi
dwu dzie
po trafi</w>
wiel ką</w>
lot ni
E du
T er
mar t
obowią zek</w>
al bu
należ ała</w>
dobr ą</w>
ow ość</w>
rodzi na</w>
ostate cznie</w>
gdzie ś</w>
pu szcza
choro by</w>
sk ąd</w>
R og
po l</w>
politycz nych</w>
wspo mina</w>
j an
kosz tuje</w>
Kry styna</w>
Ś rodowi
Ry b
zmia na</w>
ą g
sa ty
Mar ka</w>
O klaski</w>
wiel kim</w>
ob od
Bie l
re sor
stycz nym</w>
nic twie</w>
y a</w>
dzi ły</w>
Wi ado
lu dow
wo dzie</w>
me dal</w>
mi ą</w>
miej skiej</w>
de l</w>
rzad ko</w>
F O
per so
A g
sta ty
śmier ć</w>
ta rza</w>
tysi ące</w>
G ol
rozmawi ać</w>
klub ów</w>
zapła cić</w>
z go
Ja po
a d</w>
zaczę ła</w>
OW A
2 50</w>
K e
K al
łoży ć</w>
k wad
Pe w
tow ym</w>
Ban k</w>
ob ni
Tre ner</w>
pokoj owe</w>
je sz</w>
rozwi ja
zastęp ca</w>
korzy stać</w>
przyja ci
okaz ję</w>
usta wi
W spół
Be ski
Narodow ej</w>
Ka na
po mi
cza ł</w>
trze ć</w>
T O</w>
wyso kie</w>
samochod y</w>
wszel kie</w>
la n</w>
pom nieć</w>
sprzę tu</w>
za powiada</w>
pras owy</w>
kłopo ty</w>
K le
za stąpi
pacjen tów</w>
zespo le</w>
kole gów</w>
konferen cji</w>
sezo n</w>
par ku</w>
u my
so ł
Ch cemy</w>
ba mi</w>
Z S
Kat owicach</w>
k ała</w>
S łow
wią zy
w czoraj
obec ności</w>
jako ś</w>
szko dow
re je
Rej on
sp ędz
li sta</w>
L A</w>
koń czy</w>
Stowarzy szenia</w>
za sił
o znacz
stycz na</w>
c two</w>
dz onych</w>
L KS</w>
od ręb
struktu ry
ob c
Zwy cię
za powiad
Mó wi
świę ta</w>
tur niej</w>
ga bi
sk ry
ksy mal
Bo ch
nicz ą</w>
najlep szy</w>
nag rodę</w>
mu zeum</w>
c ku</w>
umie szcz
wspól nego</w>
stoli cy</w>
tycz ną</w>
budow ie</w>
k cje</w>
wypo saż
sena torów</w>
W z
są sie
klu bie</w>
kilka dziesiąt</w>
i ć</w>
s nąć</w>
po łącz
kontak t</w>
prowadzi ła</w>
ści ć</w>
odpowiedni o</w>
S oko
ości ach</w>
Ol ku
Czę ść</w>
Le wi
G mina</w>
Wie sław</w>
ktu ry</w>
Bog a</w>
kilku nastu</w>
ser i
zawod ach</w>
re feren
wystar cz
Wło dzi
wie dzieć</w>
ły by</w>
pi i</w>
ory te
Proje kt</w>
prze cię
g h
spokoj nie</w>
Wie licz
t w</w>
zawod y</w>
A meryka
J A
Ar ty
Iz by</w>
Tu ry
Oby wa
rzą dy</w>
Ch ry
za rabi
większ y</w>
f u
pozna ć</w>
e ś</w>
S twier
Pu char</w>
Przemy sław</w>
ś lu
U R
dod a
7 00</w>
potrze b</w>
posie dzeniu</w>
miar ę</w>
telef on</w>
sty lu</w>
ów czes
odpowiedzial ności</w>
czeka ją</w>
budże t</w>
Pierwsz a</w>
n kach</w>
ce r</w>
drob ne</w>
d any</w>
st ałe</w>
Włady sław</w>
powyż ej</w>
t on
Z at
ę dy</w>
tre ści</w>
Mie czy
niesie nia</w>
kar ny</w>
k ta
kla s</w>
cał kiem</w>
Te le
Społe cznej</w>
Pan slavista</w>
st en
i den
M ad
nadz or
otrzym ali</w>
z nie
ni li</w>
M ęż
miesz ka</w>
bo j
na ście</w>
po chodzi</w>
ludzi om</w>
T rzy</w>
Poli cja</w>
P ri
Zd rowia</w>
prze kazy
o kie
podej rz
ju bile
szcze nie</w>
za n
ja kości</w>
od była</w>
rozstrzy gnię
sze ń</w>
o puści
Li p
Po go
marszał ek</w>
C Z</w>
dział anie</w>
trud ne</w>
ofer ty</w>
rz om</w>
t ce</w>
groz i</w>
s przed
l ad
sk ró
z godzi
ucz ci
świad czenia</w>
le karza</w>
si ński</w>
które mu</w>
Wyst ar
Minist rów</w>
tr wają</w>
Dob rze</w>
koście le</w>
błą d</w>
Ł ę
po chodz
peł no
le karzy</w>
Dzie ń</w>
a kurat</w>
list ę</w>
wod aw
za pad
sze ściu</w>
obywate li</w>
wal czyć</w>
Do m</w>
O bro
wz bu
Ar ka
codzien nie</w>
po czy
kosz t</w>
wypowie dzi</w>
chło pa
Wi to
me dia</w>
S am</w>
sy mpa
Je steśmy</w>
przyzna ł</w>
Rad i
przy słu
stycz ną</w>
strze lił</w>
doskona le</w>
zaku p</w>
wa jąc</w>
s owej</w>
pra g
m m</w>
ja kich</w>
wynosi ła</w>
emery ta
U E</w>
Ł ą
przy stan
poz ba
formu ł
star szych</w>
druży nie</w>
Karo l</w>
Wła śnie</w>
wyż sze</w>
występ uje</w>
sk ali</w>
mógł by</w>
stra ż
tre ne
niepełnos prawnych</w>
py t
a s</w>
pl any</w>
d ę
policjan tów</w>
przedsiębior stw</w>
dz ać</w>
ń ce</w>
ło nek</w>
atmos fer
Fran cu
S os
be r</w>
Tarnow ie</w>
ak t</w>
sta ją</w>
Lu bi
i mi</w>
powsta nia</w>
godzi nę</w>
zakoń czeniu</w>
d ą
u rzę
owi cza</w>
poli cję</w>
fo t</w>
ok e
che mi
zawod nik</w>
obie któw</w>
uli c</w>
kry ty
gł owę</w>
gorze j</w>
powod uje</w>
że gna
po got
ur ę</w>
rę ki</w>
zespo łem</w>
A t
ist ni
Na leży</w>
nę ło</w>
głów nym</w>
specjal nie</w>
t z</w>
Fina ns
ber t</w>
li ła</w>
perspe kty
przy wi
termi nie</w>
skorzy stać</w>
sta mi</w>
t ką</w>
sti wal</w>
likwi dacji</w>
Komen dy</w>
nacze l
sz ów</w>
komunika cji</w>
Zie mi</w>
sł owa
at ów</w>
dy j
olog ii</w>
pa ń</w>
myś l</w>
Gdań sk</w>
je ste
mia r</w>
w prost</w>
wz moc
przyszł ość</w>
Przed stawi
wó r</w>
stę pujemy</w>
po z</w>
ró j</w>
alko ho
powie dzi
stra j
g ie</w>
dro ż
do stać</w>
K ło
b le</w>
S A
R zy
Z u
zare jest
z bo
K ot
Stowarzy szenie</w>
magi stra
ta l</w>
P ła
g ają</w>
PS L</w>
N Y</w>
zatrud nienia</w>
pom or
wrze ś
kaza ł</w>
abso lu
Zjedno czonych</w>
progra m
pojawi ł</w>
po pro
g da
V I</w>
Je zu
mia na</w>
dwu krotnie</w>
Bry ta
Z osta
on o
s cenie</w>
zakład ów</w>
czy łem</w>
mił ości</w>
zre zygn
n g</w>
bry tyj
row e
za prze
Gór nik</w>
ner ów</w>
po trzeba</w>
ubezpiecze ń</w>
młodzie ż
zakre su</w>
włas nego</w>
podkre śla
b lą
tech niki</w>
P al
Ch ło
Pra wo</w>
pow stała</w>
not y</w>
Miej skiego</w>
rzy m
porozumie nia</w>
kilo metrów</w>
ni ona</w>
mo c</w>
wi ce</w>
dz kiej</w>
ście m</w>
zależ ności</w>
Kości oła</w>
re wolu
wi z
sz ał</w>
do zna
dysku syjnych</w>
wan ej</w>
g no
Przypomni jmy</w>
t le</w>
zwycię z
kwest ia</w>
udzie la
wy sił
de lega
zasta nawi
spo ns
M AR
wysta wy</w>
w pła
In we
u zależ
trze ciej</w>
D ra
najlep sze</w>
r i</w>
sprawied liwości</w>
O kazało</w>
przygot owania</w>
ci ę</w>
Ko m
kre a
t owanych</w>
P lan
Roz woju</w>
Spół dziel
ta li
N r</w>
n y
o stro
do stał</w>
Ch a
wrześ niu</w>
P rowa
zdra wiam</w>
t ra</w>
syste mie</w>
Lu bli
re jest
d ry
obie ktu</w>
ne s</w>
fina łow
g al
Koś cie
p em</w>
ni owego</w>
Wrocła wiu</w>
zawie ra</w>
Mar ta</w>
naz wy</w>
mar ek</w>
cz ter
z mianę</w>
O środek</w>
u dostęp
nicz nego</w>
zaba wy</w>
o ceny</w>
k łó
pozio mu</w>
największ ych</w>
wi ny</w>
charak terze</w>
znaj dzie</w>
kie t</w>
d niem</w>
ch e</w>
świad czeń</w>
it d</w>
wy maga
Ja giel
opła ty</w>
trzy dzie
K IE
l skiego</w>
t i</w>
pił ka</w>
stra ży</w>
poz bawi
filozo fi
popraw ek</w>
prze szko
prawdopodob niej</w>
w orów</w>
podob ne</w>
pli wie</w>
jed na
prokura tury</w>
zakoń czył</w>
ni śmy</w>
właścicie li</w>
Ślą ska</w>
umożli wi
Inter ne
ma jąc</w>
Par t
Pa pie
mówi ła</w>
Rów nież</w>
każ da</w>
czę st
Do mi
zaję ć</w>
pow tó
Narodow ego</w>
G ry
gra nicą</w>
po za
ąc z</w>
B E
C on
sprawo zdaw
teat ral
ko ry
ze szł
sz ono</w>
dzier ża
ja mi</w>
z likwi
ode j
ro kiem</w>
oglą dać</w>
S krzy
po mag
Tak że</w>
dzien nie</w>
run dzie</w>
zwycię stwa</w>
L in
z łodzie
Dod at
S prawa</w>
wy znacz
Minister stwa</w>
Towarzy stwa</w>
Minister stwo</w>
c ąc</w>
D ar
przewodnicz ącego</w>
ży nie
1 000</w>
twa rz
obie kt</w>
ter ro
dodat kowo</w>
za nim</w>
tra ge
cz ono</w>
H al
b ach</w>
ma ksymal
doświad czenia</w>
proce su</w>
m ały</w>
J ar
Pla t
rodzi nie</w>
był by</w>
prz od
Wrocła w</w>
ma tema
al ar
kol or
samo lot
P ru
tka mi</w>
materiał ów</w>
t ności</w>
rów nie</w>
kad ry</w>
piel grzy
dwo ma</w>
stę pow
H ut
na wie
Au gu
lau re
Preze s</w>
duż a</w>
al ni</w>
sy na</w>
spo d</w>
Kości ół</w>
W schod
for mę</w>
ci m
n kiem</w>
po kój</w>
Ada ma</w>
Wie r
co na</w>
na ri
for m</w>
proje któw</w>
nie którzy</w>
ma tka</w>
pod pisa
te ro
spółdziel ni</w>
mal ar
w czes
nię ty</w>
bra ć</w>
nie je</w>
po biera
U KS</w>
wyso kość</w>
defi ni
rol ników</w>
p ane</w>
pokona ł</w>
zainteres owanie</w>
trady cji</w>
u ta</w>
przyję ciem</w>
dziedzi nie</w>
stos ow
Lud wi
ge ni
niespo dzi
kosz tow
au tor</w>
sk re
W an
dział ać</w>
wiel kich</w>
B ad
czyz na</w>
zgod y</w>
por tu</w>
usta wą</w>
cze mu</w>
G min
nie leg
pyta ń</w>
ob raż
ko goś</w>
le karz</w>
minu ty</w>
lo n</w>
N E</w>
boi ska</w>
rowa nie</w>
akade mi
miesi ąca</w>
dyspozy cji</w>
w prowadzenie</w>
Krzyszto fa</w>
Świat a</w>
o to</w>
regul ar
stro no
m ych</w>
Progra m</w>
Policjan ci</w>
Cz łowie
kl ę
przyszł ego</w>
mieszka niec</w>
Sz czy
le ni
ce le</w>
języ k</w>
impre z</w>
T ran
nar ciar
czy źni</w>
B ę
edu kacji</w>
s owego</w>
li cen
l owa</w>
ś wi
opła t</w>
zdoby ć</w>
zrobi ł</w>
PK P</w>
od było</w>
nię te</w>
de kla
Nie którzy</w>
Z resztą</w>
komi te
M er
N ar
funkcjon owania</w>
L A
sz owi
kolej ki</w>
G ło
Te k
S wo
rze c</w>
wyż ej</w>
C A</w>
p ała
przypo mina</w>
europej skich</w>
ra b
Wo la</w>
Prezyden t</w>
wol ny</w>
Za wsze</w>
try bu
d ła</w>
l l</w>
ma tycznie</w>
praw ne</w>
czyta ć</w>
pu st
dag ogi
P E
wol nego</w>
sw obod
CZ Y
sportow ych</w>
do łą
Hist oria</w>
de bat
prywaty zacji</w>
rej onie</w>
ar ki</w>
wi dzę</w>
prze pisa
cze goś</w>
leg en
ie m</w>
szczę ścia</w>
wygra ć</w>
stanowi ć</w>
ok rą
mniejsz ości</w>
di a
So ju
fir mie</w>
pod sum
zna czenia</w>
dłu gi</w>
pro m
ż ał
przewi duje</w>
dod ał</w>
połu dnie</w>
Danie l</w>
uważ am</w>
uch y
stra sz
w ale</w>
Ur ba
był ego</w>
20 10</w>
za razem</w>
szczę śli
Kat owice</w>
wiel ko
DZ I
O bo
powod ów</w>
osob om</w>
Ucze st
ąc ymi</w>
zna nych</w>
inten syw
po bi
pracow nik</w>
elemen ty</w>
star ych</w>
czo łow
Nie ch</w>
od będą</w>
pat ri
usta wę</w>
efe kt</w>
pier wo
w ej</w>
ży je</w>
prote st
L ondy
a ktor
przedsiębior stwa</w>
o publi
roz ma
Bog dan</w>
y j
ka n</w>
ł ych</w>
pielę gni
na si</w>
ni kogo</w>
Wyso ki</w>
kra kow</w>
po dy
ze zwo
k w</w>
gra li</w>
dochod ów</w>
roz mów</w>
wykorzy stać</w>
W A
Tar gu</w>
ksią żek</w>
proble mem</w>
da cja</w>
s przed</w>
mon ta
edy cji</w>
Jad wi
zdoby li</w>
fut bo
budże cie</w>
eksp lo
znaleź li</w>
cz łonek</w>
nog i</w>
R aj
de parta
Ban ku</w>
Za głę
do kony
ogrom ne</w>
ob wod
miar u</w>
obra d</w>
pa trzy
uch wał
O SP</w>
naj now
owi cie</w>
Spotka nie</w>
reje stra
B ał
pew nego</w>
propozy cji</w>
adre s</w>
wy trzy
stadi onie</w>
usz ki</w>
nazwi ska</w>
lep sze</w>
l or
8 8
zd rowi
prze rw
rozwiąza ń</w>
dłu gości</w>
z brod
naz wę</w>
Pa ra
wi kipe
sk an
waj car
kaz u</w>
zabra nie</w>
wybor y</w>
ą d
czerw cu</w>
lo nej</w>
s si
na rzę
Wy daje</w>
E ner
gło szenia</w>
dow ol
Ja wo
u zu
ostat niego</w>
właścicie la</w>
Naj bardziej</w>
zawod owych</w>
pojawi ły</w>
zagro żenia</w>
or g</w>
jech ała</w>
F er
rzy ło</w>
G ran
P L</w>
z bro
fir mę</w>
OW A</w>
bog at
o c
Uważ am</w>
naz wa</w>
Ra ci
ra dz
ata ku</w>
rowa nia</w>
Arka di
Osta te
ł ek</w>
re habili
prywa tnych</w>
l y
opi nię</w>
L ot
ż ki</w>
ka sy</w>
bre w</w>
B A
row ego</w>
w łos
wan ego</w>
podj ął</w>
za licz
spo śród</w>
Ch ar
au ta</w>
Iz ra
konkuren cji</w>
Łó dź</w>
tr wał
progra mów</w>
cza mi</w>
po nadto</w>
loka lu</w>
c kiem</w>
inter wen
Sena t</w>
mio tem</w>
dow o
po sł
Chry stu
kra j</w>
du m</w>
gę st
I ra
Z ar
in na</w>
ni ono</w>
pro bo
In spe
ha m
za sob
le j</w>
wiel kości</w>
Z o
politycz nej</w>
wie niu</w>
rz ami</w>
da nie</w>
Vi c
wi ać</w>
nę ły</w>
m owych</w>
o ty
pły ty</w>
Wy daw
G KS</w>
wykorzy st
rywa lizacji</w>
Ż u
przy jeżdż
okoli cy</w>
ko ła</w>
le cz
rzą dzie</w>
for m
nosi ć</w>
ch o</w>
za pis</w>
H and
wielo krotnie</w>
nau gu
su per
tury stów</w>
cze le</w>
ie r</w>
zaplan owano</w>
Żół te</w>
produ któw</w>
mniej sze</w>
sty ka</w>
je de
pró by</w>
Wie lu</w>
pa nią</w>
ob licz
sena tora</w>
zaczę li</w>
papie ro
okaza ł</w>
sprzeda my</w>
A li
elemen tów</w>
naj większe</w>
nicz ki</w>
Małopol ski</w>
Przy stępujemy</w>
Czę sto</w>
wy działu</w>
to ż
wie ń</w>
Doro ta</w>
o szu
grup ę</w>
K od
B ła
pro to
se jm
wystąpi ł</w>
rozpoczę ła</w>
F ry
Na gro
czyz ny</w>
oś wię
Są du</w>
ń scy</w>
Bi bliote
l ane</w>
zakoń czenie</w>
Wo li</w>
urzą dzenia</w>
fundu szu</w>
Re na
ru p
sie dem</w>
wy sp
Orze ł</w>
ka ć</w>
ob chod
są de
s on
wod o
Spor tu</w>
okoli cach</w>
inwe sto
run dy</w>
histor ia</w>
St ąd</w>
dobre go</w>
okre śla
poja zdów</w>
cz ką</w>
R uch
pre cy
porówna niu</w>
uczest nicy</w>
wykona nie</w>
g la</w>
Pol skich</w>
B óg</w>
Ja kie</w>
wykona nia</w>
me n</w>
ist nienia</w>
należ ą</w>
śred niej</w>
głów nego</w>
Gdy ni</w>
Ta ki</w>
postęp owanie</w>
le s
z du
te s</w>
Wła dze</w>
do pła
Li gi</w>
za pomni
wyj ątkow
weeken d</w>
wyda tków</w>
fe stiwalu</w>
lu m
ci ły</w>
szkole nia</w>
dział ów</w>
za ma
przer wy</w>
Gaze ty</w>
zatrud ni</w>
cho rob
A b
specjal ne</w>
urucho mi
poczu cie</w>
strze m</w>
in e</w>
star a</w>
zadow ol
g rz
pi a</w>
saty s
połow ę</w>
pod ło
skar bu</w>
łe ś</w>
czy nienia</w>
Pieni ądze</w>
gi p
za bój
wro cła
Naj wyż
plac ówek</w>
osie dla</w>
wy kry
szan sa</w>
społe czne</w>
cie szy</w>
U czni
oś wiet
19 45</w>
Ant oni</w>
ba b
wy stęp</w>
in teria</w>
tra sy</w>
Bez pie
dzi wi
łow ie</w>
łat wiej</w>
ni owy</w>
N owej</w>
propozy cje</w>
cieka we</w>
an g</w>
O fi
ra t</w>
ma ju</w>
w ości</w>
li wy</w>
y ta
nazwi sko</w>
M in
pod róż
ni tar
wią że</w>
da m</w>
cza sy</w>
ki na</w>
Mi ł
ol brzy
bezrobot nych</w>
dzien ni
E x
ro ż
uzna ł</w>
let niej</w>
plan u</w>
remon tu</w>
spraw dzić</w>
W IE
zi ć</w>
sty pen
gimnaz j
w ory
mini mal
histor ię</w>
k tach</w>
prac ują</w>
g owej</w>
w na</w>
le niu</w>
liw ych</w>
Au to
Szcze gól
kowi ce</w>
dziesię ć</w>
rozgry w
K in
uni wersyte
za się
Ostat nio</w>
ko ni
G A
czo nego</w>
po sze
19 39</w>
ź ró
pod nieść</w>
pozy cja</w>
dod ać</w>
ana li
cza sami</w>
bezpoś red
jakie j
Pra ce</w>
T r
Obywa tel
Solidar ności</w>
o chot
Pol skę</w>
wa s</w>
bie nia</w>
dzieci om</w>
rzą c</w>
jak ą
a tak
prze kształ
T NI
gru dniu</w>
wal ce</w>
dyna mi
spo tyka
prze glą
czy cy</w>
tra sie</w>
or kiest
narodow ej</w>
dow ych</w>
fe rze</w>
nicz ny</w>
kampa nii</w>
re f
posłow i</w>
niej szego</w>
k owana</w>
nu mer
pa ć</w>
c or
okre ś
Państw owej</w>
lo m</w>
sędzi a</w>
z rozu
Pogo ń</w>
S praw</w>
Biał oru
Środowi ska</w>
da na</w>
sportow e</w>
si li</w>
roz waż
wi dowi
G dzie</w>
ma tki</w>
pad ł</w>
połow a</w>
obejm uje</w>
otrzym ała</w>
Chy ba</w>
kom ple
pis mo</w>
osie m</w>
z budow
l on
Kazi mierza</w>
d i</w>
f ol
ni ają</w>
odzy sk
cze ni</w>
Cen tra
mun du
li wa</w>
reda kcji</w>
skom pli
po niżej</w>
kata stro
S PA
wy bór</w>
miej skich</w>
li gen
jedy nym</w>
d ale</w>
H ali
Z ofi
spo tk
Jagiel lo
szcz u</w>
sta bi
G O</w>
ga z
u zupeł
Na dz
parlamen tar
roz li
ch ać</w>
peł ne</w>
znalaz ły</w>
przyj ąć</w>
pozy sk
mie ń</w>
ry wali</w>
człon kiem</w>
ka wał
z wiązek</w>
ze sta
rzu t</w>
ał yby</w>
pod wój
Następ nie</w>
po szkodow
pro pa
Słu p
S pra
kon dy
ku jemy</w>
cj o
cyk lu</w>
ga nie</w>
ude rzył</w>
zamiesz ki
d ano</w>
zgod ę</w>
Po żar
wod ą</w>
inicjaty wy</w>
B li
Ad ministra
or dyna
auto stra
O D
przeszł ości</w>
ar owa</w>
tra gi
ob niż
uro dzi
My śle
praw dy</w>
chow y
me l
Prze ci
gabi ne
Ze spo
rzy li</w>
rz ów</w>
obro nie</w>
loka lnych</w>
wykona niu</w>
dow ód
od dział</w>
większ ych</w>
po st
two rzenia</w>
u dowod
ob a</w>
o fe
Po praw
ży cz
dzie ła</w>
przyczy ną</w>
ra da</w>
ja kiej</w>
zd łu
w ny</w>
in fra
Walde mar</w>
sklep u</w>
i ach</w>
Kraj owej</w>
utrzy my
Jed nym</w>
Ar chi
T Y</w>
prze waż
marszał ka</w>
po jem
przyję cia</w>
ty k</w>
osob ę</w>
Seba stian</w>
rośli n</w>
o póź
M ło
Piot r
politycz ne</w>
klasy fikacji</w>
Gó ra</w>
my śla
studi ów</w>
mą ż</w>
dow e</w>
S ącz</w>
osob iście</w>
rol nictwa</w>
mówi ę</w>
ce niem</w>
na stąpi</w>
chęt nych</w>
znalaz ła</w>
wy łą
od not
rozumie m</w>
fi gu
publi cznego</w>
par tyj
ut ru
e po
w pis
Gda ńska</w>
czy ni</w>
zwy czaj
s ow
dobr ych</w>
obowią zy
równ owa
po nad
stycz niu</w>
pami ęt
bra mek</w>
s bur
u regul
Li ceum</w>
do stęp</w>
na pi
obec ny</w>
ni kowi</w>
połu dniu</w>
do tk
hi po
f f
s we</w>
tygod nia</w>
od czu
czy n</w>
za łoż
brą z
kont rower
ru r
t in</w>
skład a</w>
sw ą</w>
f ron
kow skiej</w>
zna ć</w>
zdłu ż</w>
Me cz</w>
Rob ak</w>
cięż ko</w>
przewi dy
odpad ów</w>
gó rze</w>
Be ata</w>
uzy ska
by łaby</w>
se l
Parlamen tar
Ros ja
zwo len
os a
za mó
su row
przypo mi
poprzed nich</w>
t s</w>
Kami l</w>
odległ ości</w>
Zakopan em</w>
mo ją</w>
Naj waż
e la</w>
kredy tu</w>
wart ości
dow ski</w>
I S
le r
wy jeżdż
wy z
B la
dzie sz</w>
Że by</w>
o po
ser de
w prawdzie</w>
administra cyjnie</w>
P lu
wygra ła</w>
zale gł
dro gach</w>
lu dź
uli cach</w>
reali zację</w>
w chodzi</w>
za kład</w>
wyra ź
prowadz ą</w>
ń czyk</w>
ni anie</w>
spół ka</w>
odpowie dnie</w>
sp rzą
lew ej</w>
ża r</w>
proje kty</w>
wyda tki</w>
c ać</w>
ob ój
S yst
li ści</w>
06 02</w>
przemy słow
szac un
źró deł</w>
Pa uli
wszyst kiego</w>
ośrod ka</w>
U rzędzie</w>
po bytu</w>
o l</w>
wi ta
ę ły</w>
Gene ral
o pad
blo ku</w>
powin niśmy</w>
obec nych</w>
wyj ątkowo</w>
og ni
odz na
po lo
dziel nicy</w>
popraw kę</w>
dzi ało</w>
d b
or dy
Zygmun t</w>
Instytu tu</w>
Z wiązek</w>
K wiat
fa wory
musi ała</w>
zagospodar owania</w>
dział ki</w>
ca my</w>
Dę b
st ra</w>
tam tej
t owi
ż one</w>
Rad ni</w>
Mini ster</w>
h oke
bez względ
wiel kiego</w>
Po łu
wi ze
pó ki</w>
Solidar ność</w>
Ma zu
świą te
let nich</w>
krót ko</w>
CJ A</w>
prow in
li de
O pie
by ś</w>
sla w</w>
ci ło</w>
ke r</w>
no sił</w>
poważ nie</w>
spół ek</w>
obec nej</w>
pis ma</w>
zmie nia</w>
obec ność</w>
dzi ad
pi ą</w>
D róg</w>
nios ły</w>
wynaj ęcia</w>
chłop ców</w>
Z ad
pu l
niej szej</w>
H ol
Wię cej</w>
Edwar d</w>
Prze wod
maj ątku</w>
istot ne</w>
O s
najlep szym</w>
młod y</w>
stwo rzyć</w>
st wa
ve r</w>
al ność</w>
trud ności</w>
spe cyfi
odby wa</w>
postanowi ł</w>
E K</w>
waż nym</w>
Au stri
re struktury
te or
najbliż szym</w>
kolej ce</w>
PO L
podró ży</w>
bi ut
Będ ą</w>
dodat ku</w>
nie bie
zaczę ły</w>
Za m
słu sz
spraw dz
tr wała</w>
fot ogra
na wiąza
ksią dz</w>
do puszcz
ch wy
ch u
ow skich</w>
cz nością</w>
zach owania</w>
wska ź
sre br
zadow o
Ro k</w>
czy nają</w>
ze wnątrz</w>
pozwo li</w>
Karo lina</w>
trafi ła</w>
do r</w>
bie d
Po zdrawiam</w>
A U
su ge
NI K</w>
za zwyczaj</w>
pol ską</w>
a p
oczy szcz
W W</w>
uzysk ał</w>
wzię ło</w>
Ta ka</w>
ludź mi</w>
Ch cę</w>
zaję ła</w>
pozosta wi
po stać</w>
n na</w>
p rę
zapra sza</w>
cie ra
pot ęż
kow cy</w>
waż ny</w>
rzu cił</w>
spotka ć</w>
g ły</w>
preze sem</w>
poja wia</w>
ów ką</w>
z ła</w>
sz ają</w>
drze w</w>
obowiąz ków</w>
pod leg
D O</w>
pew nych</w>
Sos now
kró la</w>
podj ąć</w>
mu m</w>
Przy got
O sie
włas ny</w>
n d</w>
Pol skie</w>
G ą
Oświęci miu</w>
krakow skiej</w>
do rad
ł ki</w>
Cie ka
wynagro dzenia</w>
mi strzem</w>
zapew nić</w>
o pan
ch ach</w>
prze sy
Szcze ci
robi ą</w>
pojedy n
sy n
Gos poda
K AR
sekre tarz</w>
strate gi
nauczycie le</w>
B P</w>
0 41</w>
se kcji</w>
obowiąz ku</w>
układ u</w>
konie czne</w>
doświad czenie</w>
Gra b
Te lewi
pokaza ć</w>
rz ono</w>
terro ry
jedy ny</w>
os e
Wo ź
ła p
star e</w>
prze su
ni ać</w>
wyso ko</w>
at i
st ę</w>
przyczy n</w>
i naugu
kul tu
u rząd</w>
de li
B A</w>
O to</w>
06 01</w>
mie rze</w>
C Y
cie la</w>
konie czność</w>
wiel kiej</w>
ag no
stanowi sku</w>
rz ona</w>
r lan
ka l
głos y</w>
now i</w>
05 02</w>
Powiat owego</w>
Roz mawi
m bar
ja ka
kar ty</w>
wi ca</w>
tek ście</w>
J ęd
dzie la</w>
woj ska</w>
N AT
dzie ćmi</w>
Dru gi</w>
se j
Proble m</w>
mo ment</w>
Wa we
Bu d
Dzien nika</w>
B rz
twar z</w>
tar g
p h
ra cja</w>
chci ała</w>
świado mość</w>
wybu ch
kości ół</w>
propozy cję</w>
dyre ktor
kwali fika
otwar cie</w>
Prze de</w>
zach owanie</w>
sł od
la na</w>
w sty
tr ą
kibi ce</w>
pow ie</w>
tr wać</w>
podzi ęk
c t</w>
X I</w>
wy czaj
wyda rzeń</w>
robi ł</w>
obsłu gi</w>
języ ku</w>
Mi ał</w>
zdecyd ował</w>
każd ą</w>
ar a</w>
Tade usza</w>
de m
tery tori
przeznacz one</w>
swo imi</w>
stra cił</w>
Kod ek
re formy</w>
pa ł</w>
mia ste
zawod owe</w>
robot y</w>
złoży ł</w>
polity ków</w>
znaj dow
bu n
Ni gdy</w>
posłow ie</w>
Wol ności</w>
Krakow skiej</w>
ban k</w>
nie poko
Dawi d</w>
chę ć</w>
nicz o</w>
wie dział</w>
wypad ków</w>
Spra wied
ci my</w>
państw owych</w>
v en
k że</w>
u nika
okaz uje</w>
rę cz
kredy tów</w>
ob j
większ ym</w>
potrafi ą</w>
urzą dzeń</w>
powo li</w>
rz ak</w>
dan ej</w>
Fir ma</w>
ł owi
informa cja</w>
ka rzem</w>
szy li</w>
ści ą
le cie</w>
ba ć</w>
u szy</w>
cie li</w>
re zy
niesie niu</w>
uzysk ania</w>
wal kę</w>
kwo ta</w>
szy n</w>
arty stów</w>
myśl ą</w>
bra kowało</w>
mistrzost wach</w>
J olan
liz ować</w>
ma z
dz kiego</w>
nag ród</w>
K RA
S tru
Li man
mił ość</w>
ra dy
materi ały</w>
AW S</w>
wy sła
od były</w>
ma ra
ok na</w>
wy wiad
San de
Ś le
lan d</w>
zag ra</w>
pe l</w>
wypad ek</w>
wybra ć</w>
Oj ciec</w>
ele m</w>
Si R</w>
po bli
szy ły</w>
specjal nych</w>
kuch ni</w>
Kwa śnie
słuch ać</w>
za mieni
Świę tego</w>
obowiąz uje</w>
precy zyj
sp er
ra cjona
mówi li</w>
Franci szek</w>
jezd ni</w>
przewa gę</w>
czu k</w>
Edu kacji</w>
włas ności</w>
Agen cji</w>
Z ło
wz or
so cjali
li be
rodz aj</w>
kla sa</w>
Powiat u</w>
wy doby
ności ach</w>
świad e
met rowy</w>
sce nari
przestrze ni</w>
rą k</w>
odpowie dzieć</w>
u po
czy t
kie mu</w>
u mów</w>
ó z</w>
Ad ri
al ności</w>
Dyre ktor</w>
do prowadzić</w>
du ch
poważ ne</w>
mu jemy</w>
z je
Nor we
w zdłuż</w>
kra kowi
wia my</w>
por ta
la tek</w>
fil mów</w>
r ie
bram karza</w>
s wym</w>
polity ka</w>
A zor</w>
V AT</w>
tram wa
PR L</w>
cz ają</w>
zni szcz
sk al
pi w
dodat kowych</w>
miejsc em</w>
kow ali</w>
sze niem</w>
Włodzi mierz</w>
u kład</w>
Kie dyś</w>
referen dum</w>
H on
wi dzi</w>
gim na
st r</w>
Po my
ry t
komendan t</w>
wej ścia</w>
profe sor</w>
od woł
W ałę
właścicie le</w>
le karze</w>
konie czności</w>
za rob
Szko le</w>
straża cy</w>
C ał
ka mieni
Dzie w
Roz mowa</w>
boi sko</w>
O ba
Naj więcej</w>
n ur
owa ch</w>
Pat ry
sportow ej</w>
uj ę
zapo bie
nawie rzch
Poli tyki</w>
otrzy ma</w>
cel ów</w>
nic kiego</w>
prze szka
K T
Demokra tycznej</w>
Wie m</w>
części ą</w>
da nia</w>
fina ł</w>
ko rup
bram karz</w>
drz wi
Wojewódz kiego</w>
Wiel ka</w>
drze wa</w>
sp ę
Le cha</w>
2 3
wych owan
T rój
Toma sza</w>
jaki ch
teat ru</w>
rozpa trze
tor y</w>
jaki mś</w>
wia nie</w>
odci nku</w>
stop nia</w>
ł ości</w>
świad czy</w>
zł e</w>
pi ć</w>
s przy
Dru ga</w>
rod ów</w>
e wi
za kon
ce ń</w>
świą ty
gór ę</w>
z wło
człowie kiem</w>
Kolej ne</w>
twa rzy</w>
uzu pełni
tere m</w>
pomy śl
W er
I A</w>
ks Robak</w>
przedstawi ć</w>
tur ą</w>
rz utów</w>
re d</w>
ter na
mistrzo stwa</w>
po sto
Ele kt
regu ły</w>
jeste ś</w>
usta w
gie l</w>
at u</w>
Ś rod
nie wy
określ onych</w>
od biera
czy liśmy</w>
cz ko</w>
mery tory
Ja cka</w>
se tki</w>
k ówki</w>
c cy</w>
g r</w>
lip cu</w>
zna m</w>
artyku le</w>
związa ny</w>
listo pa
XV I</w>
otrzy mać</w>
kon to</w>
y god
komp lek
w prowadzenia</w>
Wiado mo</w>
ma s</w>
przygot owanie</w>
po sił
Z ał
D re
remon ty</w>
ta s</w>
Ra b
prokura tura</w>
t ór
mo l</w>
wiel ka</w>
poten cjal
PO KO
urzęd ników</w>
przy spie
gra nicę</w>
U ro
wza jem
ś mie</w>
Z ost
ze chce</w>
li zację</w>
st ek</w>
zna na</w>
kom er
Wię c</w>
hote lu</w>
god a</w>
Craco via</w>
S E
koń cem</w>
hand lu</w>
p ch
Me dy
śred nich</w>
Ku bi
Jedno cześnie</w>
tar y
h an
Kon kurs</w>
H olan
woje wody</w>
s chroni
przetar gu</w>
in żynie
zagra ł</w>
Ros ja</w>
ce lar
ju nio
o zd
p ędz
Au stra
inte ligen
por t
zaby tkow
prakty ce</w>
ń c
prowa dzeniu</w>
An ge
cz ąc</w>
sam ą</w>
tri um
jakie goś</w>
row skiego</w>
wyda ł</w>
szczegól ności</w>
u zgod
decyd uje</w>
w ce</w>
świe tnie</w>
stowarzy szenia</w>
Po nad</w>
py ta</w>
sk rę
nie my</w>
u b</w>
B łę
skut ki</w>
waż na</w>
Kon cer
wygra li</w>
s owi</w>
wsz ędzie</w>
su d
b aj
odpowiedzial ność</w>
potrzeb na</w>
eta pie</w>
r Azor</w>
Ogólno kształc
B ą
ży ły</w>
społe cznego</w>
ch an
Wystar czy</w>
współ pracę</w>
S ad
ź ć</w>
ran kin
Na sz</w>
hipo te
st rzę
dru ku</w>
mar cu</w>
głów ny</w>
Ko re
g ła
wy rok</w>
Na d</w>
ot wiera
Pro du
POKO J
głów nych</w>
sub stan
na de
cie l
G wia
ba sad
su r
okre śla</w>
do staw
wa my</w>
Le ś
momen tu</w>
Mieczy sław</w>
dy skut
podstaw owe</w>
log ia</w>
przyci sk</w>
u bo
ko ja
fan ta
ci u
sz o
utrzy mania</w>
rze ki</w>
dziesię cio
mia stach</w>
przy da
szkoleni owiec</w>
d ować</w>
jaką ś</w>
cie rp
re j</w>
kom pozy
wie rzyć</w>
fa ta
lar z</w>
waka cje</w>
ko t
P P</w>
owi a</w>
d łem</w>
przy rody</w>
do my</w>
mi kro
plan e
zagro żenie</w>
i na</w>
zarzu ty</w>
P AR
Pocz ątek</w>
tek stu</w>
Bart osz</w>
wy peł
u mo
tere nów</w>
sied miu</w>
Ś wią
zach wy
F A</w>
Arkadi usz</w>
bra ł</w>
nie ni</w>
za u
wi n</w>
muzy ka</w>
czo nej</w>
zało żenia</w>
j nej</w>
wy ło
szcz u
ostro ż
li mi
t kiem</w>
R R</w>
in ną</w>
ape l
efe kty</w>
Sz cza
Cza s</w>
ti s</w>
bliż ej</w>
Na g
miesiąc ach</w>
korzy ści</w>
no m</w>
Sz u
przestęp stwa</w>
Pola k</w>
tran sa
pił karz</w>
K R
V ol
maj ątkow
M P</w>
w skich</w>
wypo czy
wniosk odaw
dow y</w>
on tari
Na z
nia ka</w>
S kor
Zakład u</w>
ci ało</w>
u prawi
L w
D ni</w>
za akcep
gł owie</w>
naj prawdopodobniej</w>
Finans ów</w>
siat ki</w>
samochod em</w>
wal ka</w>
Bro ni
ka pe
dorosł ych</w>
oba j</w>
L an
t wy</w>
przekona ć</w>
pracow nika</w>
s formuł
warun kiem</w>
od nale
uważ ają</w>
kości ą</w>
dział am</w>
cu k
powró t</w>
si ód
ów kach</w>
fil m
ban ków</w>
B ob
tu s</w>
Mar ii</w>
Ty le</w>
z ję</w>
g rze</w>
miesię cznie</w>
Angli i</w>
C el
pot ę
OWI CE</w>
g owych</w>
wi ają</w>
artyku łu</w>
wa liśmy</w>
w on
uży tku</w>
ko p
na po
prze jm
kolej nym</w>
kolej ności</w>
li s</w>
S ku
Sie d
Mał y
ma niu</w>
do ży
przej ść</w>
prób ował</w>
S U
Che ł
bi ć</w>
trzeci m</w>
da jąc</w>
mie ści</w>
wąt pliwie</w>
za dzwo
WY TNI
źród ła</w>
oświat y</w>
zie mię</w>
Ry nek</w>
sty cznie</w>
usły sze
mili ar
me s</w>
Tek st</w>
cy f
pow stać</w>
ł ch
świe ż
znajd ą</w>
podstaw owej</w>
każd e</w>
służ b</w>
pozost ałe</w>
okolicz ności</w>
opera cji</w>
re ag
wa gi</w>
śmier tel
po dziel
o czach</w>
gwał tow
uch wal
pu ł
ś mi
proje ktem</w>
sz onych</w>
wyda rzenia</w>
S ar
lider a</w>
b e</w>
za czyna
t owana</w>
C K</w>
Mich al
sierp niu</w>
E konomi
u stro
doda tek</w>
g in
wspar cie</w>
m ego</w>
Gru n
Pił sud
Gaze ta</w>
prokura tor</w>
s owy</w>
W ówczas</w>
ob razy</w>
kradzie ży</w>
konie cznie</w>
tran sportu</w>
Biał ej</w>
zaby tków</w>
mo to
roz mai
fe de
ar ski</w>
Wój cik</w>
owan ymi</w>
paździer niku</w>
ę li</w>
wykony wania</w>
tym czas
pan owie</w>
og rze
O le
róż nic
re lacji</w>
K rze
n obrze
ł ego</w>
kro k</w>
przy to
cze niach</w>
NAT O</w>
Zako pane</w>
O N
nie podległ
Ru ch</w>
sk ak
wy budow
rowa na</w>
met r</w>
i r</w>
p ał
na si
mili ona</w>
Te l</w>
Ży cie</w>
A fry
zaj ąć</w>
sk ami</w>
kar wan</w>
określ one</w>
obowiąz ki</w>
eta p</w>
m nó
Jed na</w>
zakre s</w>
Wi dze
stos uje</w>
g any</w>
ja w
wy ci
El blą
zd em</w>
Szy mon</w>
C ol
upraw nienia</w>
gos ła
wie sz</w>
ś re
Praw do
telef onu</w>
A na
j o
ofi cer
ko ro
go le</w>
kategor iach</w>
Sz kol
sprzeda m</w>
Nau czycie
opty mi
le czenia</w>
ografi i</w>
klien ta</w>
szczy t</w>
t j</w>
re s</w>
G rzy
bran ży</w>
te ore
me czów</w>
przy szedł</w>
ja kość</w>
P un
ar ka</w>
z uje</w>
P sze
Gran d</w>
ni owo</w>
bu l
t owano</w>
Star t</w>
Pi ę
powie ści</w>
pi j
nau kę</w>
fe r</w>
wy stąpi</w>
pię ć
moni tor
R A</w>
kie ty</w>
zmar ł</w>
wój ta</w>
Towarzy stwo</w>
wykona ne</w>
F in
Bi ura</w>
G oście</w>
ofi ar</w>
Ko nie
przypad ek</w>
ta n</w>
lu stra
wła dz
try bie</w>
od por
jesie nią</w>
Z naj
oszczęd ności</w>
do mag
ka ł</w>
Pot rze
wy sł
dwa j</w>
Pa ństwo</w>
j czyk</w>
cz tero
my śli
Or kiest
ą za
finans owania</w>
ała bym</w>
po piera
studen ci</w>
B U
szpita l</w>
li wie</w>
Rado m
K M</w>
z ę
Ko le
powie m</w>
złoży ć</w>
Szcze pa
Tar g</w>
Gospoda rze</w>
t ko</w>
metod y</w>
Rzesz ów</w>
M ają</w>
chodzi li</w>
nie zwykł
wizy ty</w>
wej ść</w>
cie go</w>
kon cie</w>
na je
wiecz ór</w>
wi osen
ni ania</w>
Kon tro
W ał
So po
Do tych
wi dzów</w>
p ą</w>
dz ona</w>
przedsięwzię cia</w>
łoży ł</w>
związ ków</w>
do chodzi</w>
tor ia</w>
Ch mie
OW Y</w>
gospodar czych</w>
tu m</w>
mi k</w>
po rusz
sz kiewicz</w>
pamię tam</w>
Teat ru</w>
P ała
ar mii</w>
w czyk</w>
mieszka niu</w>
Sy tua
a war
Wojcie cha</w>
h or
emo cji</w>
stro na</w>
k cją</w>
doj ść</w>
efe ktyw
d le</w>
gro nie</w>
an t</w>
star szy</w>
za li
wi ński</w>
na tury</w>
szko łę</w>
bie g</w>
s che
bra t</w>
stro nach</w>
bior ą</w>
B re
Stwier dzam</w>
Wito ld</w>
f t</w>
ż ę</w>
Marszał ek</w>
Grze go
ob razu</w>
mi ot</w>
Rad osła
za ła
Usta wa</w>
to krzy
u ma
zatrzym ali</w>
pełno moc
dow a</w>
ci ami</w>
le ni</w>
medi ów</w>
le t</w>
wie dzę</w>
pa mi</w>
i mi
wiar ygod
ś rednio</w>
let nim</w>
i d
strz ał</w>
Ch ri
Co m
przed miotem</w>
ści any</w>
przygot ować</w>
Tu taj</w>
ując ymi</w>
p rowi
dzie cię
w prowadzić</w>
słu żyć</w>
li ca</w>
u t</w>
ru ją</w>
Po ja
pre sti
zdję ć</w>
mo no
miejsc owych</w>
ł gar
męż a</w>
z en
nic kiej</w>
kontra kt</w>
dan ego</w>
dziew czyn
pa pier
Za b
za cją</w>
publi czności</w>
g owe</w>
we cki</w>
zdrow ie</w>
dziewczy ny</w>
eki py</w>
tr wały</w>
cią gł
popar cie</w>
ol ku
Przy by
zmie rz
po stanowie
piosen ki</w>
ka ją</w>
POKOJ OWE</w>
s owa</w>
krakow skiego</w>
szcze b
v a
wie niem</w>
per a</w>
cz uje</w>
mie szcz
zdoby ła</w>
F o
wy nik
eli min
Sta li</w>
sy lwe
To mek</w>
wę gla</w>
i zo
konstytu cji</w>
nauczycie l</w>
kredy t</w>
ńst wem</w>
N T
Zdzi sław</w>
skład ki</w>
zeszł ym</w>
w raż
inwest orów</w>
wa gę</w>
2 2
kole dzy</w>
wer s
wy miany</w>
dochod y</w>
Ł KS</w>
pa sz
in t</w>
ł ym</w>
przy pomni
dzi my</w>
mie niem</w>
służ b
nie prawidłow
Bogu sław</w>
prze bieg
progra my</w>
mecha niz
za lud
N ak
jaka ś</w>
męż czyźni</w>
o mawi
wykorzy stał</w>
Są cza</w>
wa ń</w>
reży ser
czą t</w>
niezbęd ne</w>
met ra</w>
no mina
po grze
największ ym</w>
organiz uje</w>
dziesią tych</w>
i grzy
wzi ął</w>
Za nim</w>
0 8
let nią</w>
DZ IE
przy pomnieć</w>
śnie gu</w>
wpły wem</w>
o cenia</w>
Inwe sty
D A</w>
j ka</w>
woje woda</w>
dokumen t</w>
niepełnos praw
sło ne
in f
przetar g</w>
c on
szere g</w>
gęst ość</w>
przyjaci ół</w>
utrzy mać</w>
pe n</w>
Szy b
dyplo ma
P A</w>
die ce
lep szy</w>
świad czenie</w>
sk rom
części owo</w>
mia stem</w>
m karwan</w>
po kazuje</w>
kwiet niu</w>
uzna ć</w>
występ ują</w>
I sk
u krai
Za le
Nie które</w>
sen s</w>
ini cj
Tere sa</w>
Uczni owie</w>
większ ej</w>
stra t</w>
zawod u</w>
spo żyw
kry teri
Roz po
de biut
cu dz
ma ma</w>
miar y</w>
mó z
ber g</w>
Le p
dzi ński</w>
noś lą
zalud nienia</w>
funkcjonariu szy</w>
Przy ja
efe kcie</w>
W krótce</w>
wy szedł</w>
proce sie</w>
kla sz
niezależ nie</w>
rozpocz ąć</w>
o czywist
pla suje</w>
interne towej</w>
finans owej</w>
najwyż ej</w>
Ruch u</w>
Fe de
przebie g</w>
pie nię
dłu go
zarządz ania</w>
ar cy
w ałem</w>
h el
dysku sję</w>
wyso ki</w>
Re gu
to logi
kilku dziesięciu</w>
Prokura tura</w>
o ra
men tem</w>
roz są
Po zost
peł ną</w>
ż oną</w>
usz em</w>
i ść</w>
osie m
uz bro
sz czyk</w>
gra ją</w>
maga ć</w>
pla c</w>
satys fak
o 2</w>
kow anych</w>
chłop cy</w>
czy ków</w>
staw ki</w>
czy ńskiego</w>
Mat ki</w>
uka ra
sen su</w>
gnę ła</w>
z mę
właścicie lem</w>
strz ałem</w>
owi sko</w>
Psze mol</w>
ch ce
wan ym</w>
komendan ta</w>
lu bi</w>
os ą
ro śnie</w>
ga zu</w>
in tele
L U
at ra
wyja zd</w>
Musi my</w>
praw ej</w>
d ło</w>
dow ej</w>
Błę ki
F ab
Fun dacji</w>
na ra
niemie ckich</w>
konsekwen cji</w>
Ma li
prawdzi we</w>
kwad ra
krakow skich</w>
głów nej</w>
n ną</w>
ta nia</w>
gor y
p s</w>
wize ru
ty mczasem</w>
T S</w>
zada niem</w>
szu ki
A ut
re wan
aut ora</w>
ograni czenia</w>
wie rz
ro man
ko ma</w>
Bryta nii</w>
me dale</w>
c onych</w>
Za kład</w>
D wie</w>
prze sł
b em</w>
now otar
ciąg ów</w>
naj gor
i d</w>
rę ką</w>
zam ku</w>
po cie
zajm ują</w>
departa mencie</w>
przy wód
naz wą</w>
przyzna ć</w>
Rad omi
łą czy</w>
TV P</w>
Kowal ski</w>
i a
l owe</w>
do pi
szko l
m obi
doj dzie</w>
H y
Cho j
się g
tere ny</w>
SPA M</w>
M A</w>
bisku p</w>
G ali
wy nikiem</w>
ry sun
AW F</w>
Maz owie
Szko da</w>
tow ały</w>
osob ą</w>
fer y</w>
S uch
t pi</w>
sza nie</w>
ka mer
przy by
zainteres owania</w>
nie dawna</w>
mar ki</w>
mag ne
koali cji</w>
lu tym</w>
l ki</w>
odby wają</w>
oś miu</w>
promo cji</w>
pamię ć</w>
i ł</w>
og a</w>
dług ie</w>
Wyst ę
sam obój
o ży
Wy ch
lo pe
Na ta
ując o</w>
rodzin nych</w>
B AR
l ie
S zo
j ski</w>
we ni
za wiado
wykorzy stan
powi ąza
zadowol ony</w>
Re publi
impre za</w>
ka pli
Kró l</w>
bu dzi</w>
cza n</w>
Głów nym</w>
sen sie</w>
wa jących</w>
Pol ską</w>
Na sza</w>
gł od
pil n
ka len
an ów</w>
porozumie nie</w>
najważ niejszych</w>
wy koń
niemie ckiego</w>
pó r</w>
obej rzeć</w>
cyj no</w>
od wro
zasad ach</w>
sto i
łow i</w>
zabra ć</w>
za twier
Sy l
K owa
C oraz</w>
J ur
o poda
me ne
jas ne</w>
za mian</w>
p ki</w>
g owego</w>
Lewi cy</w>
O ko
mieszkań com</w>
czy ny</w>
dz ka</w>
re cep
S ty
Z im
usta lić</w>
ser ce</w>
go li</w>
owa niach</w>
Mistrz o
mnó stwo</w>
listopa dzie</w>
otrzy my
za prezen
chci ałem</w>
H ele
wiado mość</w>
M AT
obsza rze</w>
Lu ba
bł ędy</w>
sza nia</w>
har mo
zawar te</w>
sie ć</w>
nadz oru</w>
cj om</w>
w um</w>
d ował</w>
analiz y</w>
publi czne</w>
ń cu</w>
e ste
go l
1 30</w>
Ko szy
pojawi ają</w>
liz m</w>
Bart ło
la r</w>
sa nitar
l ności</w>
Da mian</w>
Pi w
do tacji</w>
unik nąć</w>
wi ru
fundu sze</w>
B en
cz ość</w>
za dłu
i ą</w>
Maj a</w>
P T
bez dom
fak tycznie</w>
grun tów</w>
C ały</w>
kolej ną</w>
prowadz ona</w>
s ceny</w>
wan ą</w>
sie wicz</w>
two rzą</w>
mie rz
C an
sz ałem</w>
miesiąc u</w>
za uf
Wi ce
wydaw ało</w>
u do
miesz kan
wpły wu</w>
bo ra
zwie dz
lo nego</w>
sze wskiego</w>
ener gi
li cy</w>
V e
wy wie
Komite tu</w>
an tów</w>
stan ął</w>
dotycz ą</w>
Prawdo podobnie</w>
może sz</w>
ni ły</w>
największ ą</w>
Ostate cznie</w>
Jan usza</w>
sprawo zdania</w>
sun ąć</w>
konstru kcji</w>
Spe cjal
artyku łów</w>
propozy cja</w>
an ymi</w>
st ry
b lu
row ym</w>
posie dzenia</w>
rad ę</w>
sposob u</w>
działa czy</w>
wiar y</w>
ż d
do sy
2 5
man n</w>
M ój</w>
kopal ni</w>
cór ka</w>
ha słem</w>
pośred nictwem</w>
Mich ała</w>
sklep ów</w>
C IE
ra r
ona ch</w>
szy my</w>
społe czności</w>
198 8</w>
są dzę</w>
Młodzie ży</w>
profe s
równ y
tow arów</w>
po go
ście ków</w>
kli ma
G al
dy ż
sty n</w>
in spi
so na</w>
ści sł
star y</w>
noweli zacji</w>
przedsiębior ców</w>
m ali</w>
ta ł</w>
on s</w>
Komu nika
XV III</w>
rzy ły</w>
gospodar stwa</w>
la nie</w>
c ono</w>
wszel kich</w>
waż nych</w>
mie j</w>
dziennika rzy</w>
au t</w>
wali ć</w>
u czyć</w>
ra cje</w>
Ro ki
Kowal czyk</w>
ka li
Ma tu
Mistrz ost
Komu na
ar czyk</w>
W reszcie</w>
pol sko</w>
ci łem</w>
M Y</w>
największ y</w>
owi ska</w>
opi nie</w>
głos owało</w>
De cy
strz ał
przedstawi ł</w>
Osob y</w>
zwró cił</w>
j ki</w>
Pra wa</w>
wy kon
PZ U</w>
by liśmy</w>
dow ód</w>
żad ne</w>
W łod
I za
spon den
szy ński</w>
pomiesz czenia</w>
zadow ole
są dem</w>
spad ek</w>
samo rząd</w>
Pan owie</w>
minu tach</w>
gospodar czego</w>
młod ego</w>
opła c
instytu cje</w>
O bie
pie nie</w>
unie możli
k wi</w>
zapyta ć</w>
roz ry
ter minu</w>
koncep cji</w>
wa ga</w>
osiągnię cia</w>
urzęd nicy</w>
organiza torzy</w>
s ę
Szczegól nie</w>
spotka niach</w>
plan ów</w>
li ceum</w>
fo te
A B
mił oś
mar y
od sło
D K</w>
ma cie
le niem</w>
s s
Le sz
Wyso kiej</w>
powiet rzu</w>
wła dzę</w>
Sta ra
w brew</w>
na stro
Ży dów</w>
dal sze</w>
Jolan ta</w>
fał szy
I le</w>
O głoszenia</w>
Au st
Iz bie</w>
marke t
kolej na</w>
nie śli</w>
ał eś</w>
ó t</w>
wan ge
ow skie</w>
kapitał u</w>
sk ów</w>
po stu
part ner
k nął</w>
tysi ąca</w>
P RA
le wicz</w>
ochro nie</w>
u cieka
Połu dni
Pół noc
sp rób
Bydgo szczy</w>
d ały</w>
bi o
N F
samorządow ych</w>
organ ów</w>
18 0</w>
uży tk
wspól ne</w>
st rzą
kow ców</w>
J ę
za mi</w>
pozwo li
występ y</w>
Ne w</w>
nicz nie</w>
wewnętrz nych</w>
wy ku
ografi a</w>
zna k</w>
ni nie</w>
wios ną</w>
prze kony
dowie dzieć</w>
o szac
przypo mina
E r
ta cy</w>
dan ym</w>
ni owa</w>
to le
dź wie
loka li</w>
Zbignie wa</w>
ben zy
po żegna
prze szedł</w>
naci snąć</w>
2 4
Obo k</w>
la tka</w>
fil mie</w>
met ry</w>
uchwał ę</w>
Hiszpa nii</w>
Ja wor
eksp ery
Pod karpa
róż no
przy jechał</w>
szla che
ce mu</w>
sie k</w>
wó z</w>
wstrzy mało</w>
Na sze</w>
Wikipe dii</w>
o z
osied lu</w>
Wło ch</w>
plan uje</w>
sprzeda ć</w>
bezpiecze ń</w>
p łu
W E
p sa</w>
T or
two rzyć</w>
Skar bu</w>
fil my</w>
zmieni ł</w>
Bę dziemy</w>
papie ża</w>
wol ą</w>
Ar mii</w>
G A</w>
I E</w>
19 80</w>
wyż szych</w>
niemie ckiej</w>
pro por
ni ał</w>
pięk ne</w>
należ ności</w>
naj szybciej</w>
cho dzenie</w>
przegra ł</w>
le cki</w>
G er
potrzeb ny</w>
Mo że
Eu geni
deli ka
I wona</w>
prze wie
stos owania</w>
pro si
Stu den
Wiel kiego</w>
t he
przypad ków</w>
ow uje</w>
wyj ścia</w>
Wiel ki</w>
to rze</w>
Ra tu
zgod ne</w>
był ych</w>
cia żby</w>
w nu
1 10</w>
pla ka
mał ej</w>
gospodar stw</w>
Wa cła
po chodzenia</w>
Cho ciaż</w>
owo c
dal szych</w>
kowi cz</w>
a sz</w>
o dzie
la su</w>
pie ra</w>
Męż czyzna</w>
j nego</w>
wa cji</w>
na pad
kt urę</w>
ta nio</w>
tow ało</w>
za rzą
powo dzeniem</w>
szk ód</w>
Pod e
da chu</w>
za pozna
pu szcza</w>
ka towi
od mien
pi śmie</w>
two rzenie</w>
tytu ł
ć wier
o pozycji</w>
dyre ktorem</w>
rozgryw kach</w>
dział ają</w>
trze cia</w>
Rz ąd</w>
nicz nym</w>
two rzy</w>
o kiem</w>
pojawi ła</w>
ty na</w>
kow ała</w>
kar a</w>
o ka</w>
upraw nień</w>
he kt
poda je</w>
s se
międzynarodow ych</w>
tera pii</w>
przemy słu</w>
t ość</w>
czter dzie
H el
pozba wienia</w>
ma ński</w>
cie bie</w>
nicz na</w>
doj rz
intele ktu
Każ da</w>
pojedy nku</w>
i mienia</w>
tłuma czył</w>
karie ry</w>
Ż ura
utru dni
j ny</w>
O p
zrozumie ć</w>
chi rur
to rami</w>
wyda nia</w>
H aj
u kra
z większ
Henry ka</w>
To m
poję cia</w>
Ar t</w>
m p</w>
poraż ki</w>
spra wia</w>
parlamen tu</w>
de mon
wia t</w>
Soju szu</w>
Powiat owej</w>
O R
da r</w>
wysta wa</w>
sytua cje</w>
Pocz ątkowo</w>
poda tek</w>
przy chodzi</w>
zawod owej</w>
ra s</w>
wyj ątkiem</w>
adre sem</w>
w cy</w>
pasażer ów</w>
kar nym</w>
di al
sie dem
Cze ch</w>
kształ t</w>
środowi sko</w>
Tarnow a</w>
K to
okrę gu</w>
k ujących</w>
od y</w>
szczę ś
niemie cki</w>
z za</w>
ta cją</w>
świat ło</w>
pi ński</w>
pozost ał
now ie</w>
ka r</w>
kolej nej</w>
daw nych</w>
Da vi
źród ło</w>
l ność</w>
Mich ał
dziew cząt</w>
ofer tę</w>
k ąd</w>
je mu</w>
jakiej ś</w>
cze ństwa</w>
trage dii</w>
par ti
wzię li</w>
sz ona</w>
wnio skiem</w>
dokona ć</w>
h ur
pro gno
ku n</w>
kt ow
o ka
pi ł</w>
m l</w>
moderni zacji</w>
l la</w>
spodzie wać</w>
S tre
interes ów</w>
wspar cia</w>
średni owie
g owa</w>
czyst ości</w>
łow a</w>
działa cze</w>
ty cy</w>
Wy sta
zaczę ło</w>
Wi sło
świat ła</w>
Pri x</w>
o kra
stawi a</w>
Kon rad</w>
prze sła
Rzesz owie</w>
Marci na</w>
kar ne</w>
chodzi ła</w>
ka ja
pow stały</w>
ó s
błęd ów</w>
poja zdu</w>
kre w</w>
Czy li</w>
W prawdzie</w>
ci liśmy</w>
hod ow
odwie dz
wol ontari
podat ków</w>
Woj sk
naj ąc</w>
agen cji</w>
prac ą</w>
u poważ
rzu tu</w>
st ale</w>
naczel nik</w>
Czeka my</w>
przyj dzie</w>
p rą
bro ń</w>
Cz u
Par ku</w>
toż samo
sz al
myśle ć</w>
stwier dza</w>
inter wencji</w>
s p</w>
row ą</w>
hi szpa
S prze
wy remon
fun dow
jeź dzić</w>
nicz ną</w>
zda je</w>
stwier dzić</w>
Skor o</w>
T V</w>
n owa
Gó ry</w>
po sa
te st
związ ki</w>
N owi
od dać</w>
środowi sku</w>
at le
G oł
legi sla
Cze sław</w>
ra na</w>
di agno
nę li</w>
dosy ć</w>
skład u</w>
Ro zu
In ne</w>
mistrzo stwo</w>
mod el</w>
rze tel
Zosta ł</w>
Jawo rz
gaze ty</w>
o la</w>
powiet rza</w>
po działu</w>
ła ł</w>
Wrocła wia</w>
przy szło</w>
S MS</w>
Ja s
tkow i
W s
spo kój</w>
sz ko</w>
na rodu</w>
se lek
26 3</w>
debat y</w>
Mie l
sił ę</w>
Gra żyna</w>
wy bud
dar mo</w>
Popraw ka</w>
pła ci</w>
zakoń czyła</w>
sytua cjach</w>
uni jnych</w>
O ni</w>
wa j</w>
H am
A Ł
dzie ło</w>
kwesti on
L au
P U
K uch
zmie ni</w>
Wy dział</w>
Wi sł
a bo
za bu
za kaz</w>
pię cio
połą czenia</w>
G I
przy rod
sza k</w>
ni j</w>
poło mi
okaza ła</w>
szko lnego</w>
sta nia</w>
dofinans owanie</w>
sie r
osią gnąć</w>
Ka czyński</w>
Wa w
wi d
następ ujące</w>
sukce sy</w>
prost e</w>
ra c
row ol
Oj ca</w>
ba zyli
za blo
Fundu sz</w>
następ uje</w>
ameryka ński</w>
usta wodaw
Za sad
okre ślić</w>
W WW</w>
Zofi a</w>
au to</w>
mini mum</w>
pew nej</w>
Sztu ki</w>
Ja nina</w>
podob nych</w>
przedstawi a</w>
Pre mie
wido k</w>
na pię
sztu k</w>
mod y
Bo że</w>
bie nie</w>
Fe stiwal</w>
ten den
naj mniej
O koło</w>
J ut
Ślą sk</w>
zakoń czyć</w>
wikipe dy
kate d
inwesty cja</w>
pun kt
F re
podkre ślić</w>
du jemy</w>
no żnej</w>
wy rob
S il
Pi ęk
w ne</w>
dob ro
n ko</w>
nię ta</w>
k tami</w>
Włady sława</w>
wspo mina
szko lnych</w>
um owa</w>
u rzędzie</w>
cz uwa
zach ować</w>
198 1</w>
siedzi bie</w>
bile tów</w>
mistrz ów</w>
sł owi
procedu ry</w>
An dry
C or
Po mor
zakład a</w>
cze wski</w>
le ty</w>
Tur niej</w>
Ś wie
chci ałby</w>
war st
liz mu</w>
stosun kowo</w>
pocz ątkowo</w>
re krea
Ka te
ś wiadomości</w>
A kcja</w>
roz kład
chow skiego</w>
kolej nego</w>
kwali fikow
ką pie
ZS RR</w>
wol ność</w>
Za miast</w>
dzien nego</w>
pa m</w>
z my
za siad
sto m</w>
rad ości</w>
Du naj
Ł y
frag ment</w>
dziw nego</w>
przedstawicie l</w>
prze niesi
do ra
ł ej</w>
Sz wajcar
wy mi</w>
am basad
par kie
dowie dzieliśmy</w>
4 21</w>
al terna
gra czy</w>
Pił karze</w>
je zi
fa ktu</w>
wyda nie</w>
Pracow nicy</w>
powszech nie</w>
Tat rza
rezy gna
t owa
fun dacji</w>
woj na</w>
Dan uta</w>
z ro
wy ru
polity kę</w>
przy wró
gi gan
Le wan
bo x</w>
kłopo tów</w>
so lidar
odszkod owania</w>
oświę cim
ce s</w>
be la</w>
chodzi ły</w>
ak ty
praw ę</w>
wy woła
za biera
tan e
M ów
for mą</w>
przypad ki</w>
zbi ór
Iz ba</w>
Lo ka
F C</w>
Organiza torzy</w>
podej rze
odby wać</w>
rz ci
zacz ąć</w>
kom pen
zdję cie</w>
podsta w</w>
u kaza
sk ór
trium f
S oł
V II</w>
dw u</w>
wyda ć</w>
l any</w>
wol ne</w>
za ple
kon ce
p g</w>
Craco vii</w>
po tra
rę kach</w>
kur su</w>
obsza r</w>
dostęp ne</w>
wej ście</w>
do min
sto ją</w>
Ag ata</w>
sk y</w>
cza ka</w>
zakład y</w>
tow ski</w>
mili ony</w>
pod trzy
rzu cić</w>
forma cji</w>
naz wie</w>
ubie gło
la cje</w>
gimnazj alnych</w>
wyści gu</w>
Gie r
pe dagogi
fa chow
ostat nia</w>
pla nie</w>
S an</w>
perso na
profi la
a spe
emo cje</w>
po zostanie</w>
ka wiar
o ta
s cen
min ów</w>
krzy ż
Z Y
wi dział</w>
obo zu</w>
chodz ąc</w>
gie j</w>
de a</w>
rozporzą dzenia</w>
oszcz ędz
powsta je</w>
ad woka
wy stawę</w>
proś bą</w>
za o
Z dro
konf ron
Wielko polski</w>
Zakopan ego</w>
włas ność</w>
poprzed nim</w>
A ż</w>
par ty
nad mier
wz boga
ku s</w>
cho ciażby</w>
S M</w>
in o</w>
kar e
inter weni
Mistrzo stwa</w>
00 00</w>
czę ta</w>
prze łoż
funk cje</w>
mian owicie</w>
kar dyna
demokra cji</w>
29 2</w>
Dzien nik</w>
R od
Be łch
samo rządów</w>
ła zie
szcze ń</w>
zna czne</w>
pi se
niez byt</w>
wyj ść</w>
bru tto</w>
ni owym</w>
3 50</w>
stre fy</w>
kom for
gospodar czą</w>
rozpocz ną</w>
wice prezes</w>
ch owi
techno logii</w>
tery na
sze ch</w>
Gar bar
D ą
koncer tu</w>
pojedy nek</w>
konta kty</w>
specjali stów</w>
ko dek
an kę</w>
nie od
jedno li
4 22</w>
v on</w>
Od powie
u lubi
wyjaś nić</w>
W ą
wska zy
fi ni
głos owanie</w>
przedmiot ów</w>
ni ając</w>
kil ogra
aj my</w>
pew ną</w>
nu jemy</w>
ch łod
nume rem</w>
Kar pa
pa s</w>
fika cja</w>
por tre
kt a</w>
wy powiad
straża ków</w>
rodzin ne</w>
te ns
poś ród</w>
Czer w
wykona ć</w>
D ow
E fe
rezer w
r tu
D Y
Fran cja</w>
cią g</w>
Ukrai ny</w>
od prawi
społecze ństwo</w>
bi ł</w>
P le
te d</w>
sukce su</w>
zosta wi
cie ń</w>
znale zie
końc ówce</w>
zy dium</w>
n ce</w>
l owi</w>
zd ro
1 60</w>
t kach</w>
przygot owany</w>
indywidu alnych</w>
Mło dzi</w>
m ny</w>
zda rza</w>
rząd em</w>
Czar ni</w>
restaura cji</w>
Ja strzę
pozytyw nie</w>
karie rę</w>
lan ka</w>
wsze dł</w>
dy st
9 00</w>
istnie ją</w>
za mon
pol scy</w>
bi scy
pły n
sposob em</w>
za powiedział</w>
ut worów</w>
Wło szech</w>
głoś no</w>
odpowied nich</w>
oś rodek</w>
wsze ch
zarejest r
A i
sty l</w>
an em</w>
do ce
S ol
funkcjonariu sze</w>
rozpo czyna</w>
otwar te</w>
róż nego</w>
ter mina
ban ki</w>
instal a
bi uro</w>
s os
następ nych</w>
cz ce</w>
nie ba
and ar
techno logi
an ką</w>
C O
Sie r
uczestni czyć</w>
V a
kar ki</w>
wy ko
Sz czu
tłuma czyć</w>
I rlan
de s</w>
B ali
D ona
w ców</w>
S par
li te
komen ta
R at
k owaniu</w>
do n</w>
G rodzi
poda ł</w>
pla y</w>
po maga</w>
li der</w>
przyczy ny</w>
Ol szty
tu jemy</w>
k ła</w>
y a
na wia</w>
nie korzyst
Li cz
D NI
Od kry
emery tury</w>
d ło
kom promi
Wi ktor</w>
budże towej</w>
mia st
przekaza ć</w>
po kazy
la cja</w>
ja po
twór czości</w>
wo j</w>
E dy
organiza cję</w>
kon centra
Bi uro</w>
ci ak</w>
D rze
za opa
sze ści
egze ku
T U
now ali</w>
przepisa mi</w>
Trybuna łu</w>
ele ment</w>
F ra
gimnaz ja
Słowa cji</w>
Fili p</w>
T rzy
po trakt
an u</w>
dal szej</w>
zako pia
powro cie</w>
pocz ątkow
za not
u sił
Kości uszki</w>
A nia</w>
P en
wy god
podob a</w>
tr wania</w>
po kaz</w>
budow lane</w>
Bra k</w>
wy t
Kro s
f fi
z by
p sów</w>
ri um</w>
gru pow
prywa tne</w>
poprzed niej</w>
i t</w>
książ kę</w>
Niem ców</w>
wyso kiej</w>
de fen
cy kli
instal acji</w>
ter u</w>
kraj owej</w>
kan ów</w>
budy nki</w>
dział ek</w>
wi śla
sz we
pi ę</w>
angiel skiego</w>
zachod niej</w>
Ju styna</w>
Boż ego</w>
m ba</w>
bi lan
Ka ra
Zespo le</w>
Sytua cja</w>
z orien
oś nie</w>
przygot owane</w>
dzie ścia</w>
cy na</w>
m ej</w>
osob owych</w>
pomiesz czeń</w>
brz mi</w>
Cza sem</w>
dyst rybu
ros n
na pisa
W spo
part ne
rozm owie</w>
po strze
19 44</w>
O t
ń sko</w>
p sy</w>
konkur sy</w>
Bru kse
CZ E
kandyda ta</w>
mog łaby</w>
równo cześnie</w>
88 59</w>
przekona ny</w>
odpowie dział</w>
żad na</w>
daw nej</w>
Kto ś</w>
Stro n
ha sło</w>
publi ka
wer sja</w>
u st
rodzi nę</w>
Wiel kie</w>
Ślą sku</w>
pły w</w>
Radosła w</w>
przedsta wienie</w>
Z wie
tera pe
D ie
ce niu</w>
cyk lope
a z
Europej skiego</w>
C D</w>
Ł U
ży ciem</w>
organiza cja</w>
na daw
uli ce</w>
Mów i</w>
otrzy mają</w>
sto pień</w>
po mimo</w>
le czenie</w>
Grzego rza</w>
niż sze</w>
pla nach</w>
głos ować</w>
pół nocy</w>
publi czność</w>
ni komu</w>
nie możliwe</w>
bezrobo cia</w>
Dębi cy</w>
Ra dzi
produ kty</w>
lan ych</w>
a tu
cyj nymi</w>
prezyden tem</w>
ci ś
m szy</w>
sza le
cmenta rzu</w>
kwali fi
prze są
Mo ja</w>
B K</w>
nadz wyczaj
mał żon
mieszkań ca</w>
twór ców</w>
okoli ce</w>
pun ktem</w>
ekstra klasy</w>
podmiot ów</w>
S pi
szko dy</w>
on ka</w>
U rzęd
Pozost ałe</w>
B ri
litera tury</w>
bu tel
v an</w>
zatrud nienie</w>
06 04</w>
re wi
praw nej</w>
f aj
in ę</w>
Kon stan
cze rp
b rzu
wa h
t ność</w>
elemen tem</w>
prawdzi wy</w>
l ob
sk łon
ada p
bo u
wystąpi ć</w>
poda nie</w>
Piłsud skiego</w>
nię ciu</w>
przy szły</w>
Ryszar da</w>
zaję li</w>
podsta wy</w>
we wnątrz</w>
nazy wa</w>
słu ży</w>
z ły</w>
żad nym</w>
wa kacji</w>
m ow
wy jeździe</w>
na raż
O trzy
znalaz ło</w>
Ci ęż
ni czek</w>
me czem</w>
pat rywa
ry b
kana lizacji</w>
trafi ć</w>
ty z
g ma
roz grywa
le n</w>
zi k</w>
Ba bi
oświad czenie</w>
now ie
not a</w>
e w
la tem</w>
świet le</w>
B IE
mu s</w>
żu ż
określe nie</w>
2 7
kr wi
ZO Z</w>
sze ś
ska wi
Du naje
peł nym</w>
Ró ż
wy roku</w>
trze ciego</w>
zdję ciu</w>
Gra cz</w>
mo grafi
zawod nika</w>
znale ziono</w>
ni zm</w>
ut wory</w>
mo rza</w>
chodzi my</w>
Aust rii</w>
zapropon ował</w>
An ny</w>
Mo im</w>
wspani ał
tery torium</w>
nego cj
bizne s
kre acji</w>
tor u</w>
ą cemu</w>
6 32</w>
f ur
d raż
kar ę</w>
Be d
c ego</w>
or ga
niz mu</w>
Teat r</w>
Ś wiad
staro stwa</w>
ga z</w>
wschod niej</w>
si s</w>
remi s</w>
N y
za k</w>
prze konuje</w>
Z I
We j
A p
prowadzi ły</w>
Ż a
wa jące</w>
nos pam</w>
doświad czeń</w>
sto ku</w>
od se
ostat nią</w>
sp al
cór ki</w>
ameryka ńskich</w>
sku p</w>
skład ek</w>
gwia zd
gatu nków</w>
6 33</w>
tak s
wó z
dzie ckiem</w>
s pis
mie my</w>
do chód</w>
obie kty</w>
nie wątpliwie</w>
ty ce</w>
siedzi by</w>
t rza
C elem</w>
jad ą</w>
rzecz nika</w>
Dzie dzi
Pra wie</w>
N O</w>
tysi ąc</w>
ryzy ko</w>
Samo rządow
stos owanie</w>
do puści
druży ną</w>
Jut ro</w>
o rem</w>
ju ry</w>
s przyja
nie gdy
w kład
odci nek</w>
spraw cy</w>
aut oryte
plu s</w>
Fe stiwalu</w>
g m</w>
T wier
ra dzie
roz wiązy
czyst e</w>
M c
ru ch
k ło</w>
kry mina
organiza cje</w>
gra nicach</w>
następ ne</w>
polity cy</w>
zł ego</w>
księ dza</w>
dostęp u</w>
po peł
wa rzy
skute cz
ła mach</w>
G aj
zaku pu</w>
Hali na</w>
W S
mu r
kwiat y</w>
O chot
O kazuje</w>
tow o</w>
do rob
zauwa żyć</w>
nie mu</w>
i sto
sąsie dz
l ow
psycho logi
bi n</w>
loka l</w>
dal szym</w>
M Ś</w>
stwo rzenie</w>
poja wi</w>
podob ny</w>
pa r</w>
cyk l</w>
an oni
1 40</w>
T K
wy chodzi</w>
należ ało</w>
ma liśmy</w>
Pie trzy
za cznie</w>
Du ż
za pisy</w>
f em</w>
europej skiej</w>
zauwa żył</w>
ści ł</w>
Kon gre
z je</w>
st ych</w>
tech nika</w>
wystąpie nia</w>
intere sy</w>
y s</w>
Ź ród
Mic kiewicza</w>
G od
ofer t</w>
z różnic
de o</w>
Sk ąd</w>
defi cy
spor e</w>
lek ko</w>
li ce
są dzie</w>
so łe
for um</w>
Gdy nia</w>
Cz łon
zwierzę ta</w>
najbliż szą</w>
producen tów</w>
er s</w>
zainteres owanych</w>
prze prowadzić</w>
interes uje</w>
jedy na</w>
m owej</w>
materi ał</w>
sekun d</w>
Mag da</w>
In te
T aj
Jęd rze
gra n
uśmie ch
oddział ów</w>
s ować</w>
tro poli
ja kiego</w>
trene rem</w>
d ują</w>
rob ót</w>
Stra ża
wol ę</w>
kole ż
Ku ź
star ego</w>
Mu szy
ta kimi</w>
póź no</w>
Macie k</w>
znajo mych</w>
4 29</w>
tran spor
najmłod szych</w>
obie t
u czy</w>
kie r</w>
nia ków</w>
wy obraż
S en
Polo nii</w>
Tra dy
Be ne
pow stało</w>
p su
za czynają</w>
pa sa</w>
Miej ski</w>
cze k
26 7</w>
par y</w>
oczeki wania</w>
wybra ny</w>
as fal
mogł em</w>
nic ka</w>
kontu zji</w>
zagra ją</w>
ta ć</w>
przy łą
si u</w>
ot y</w>
tkow ski</w>
kosz tować</w>
O zna
nie kiedy</w>
szu ka</w>
Naj częściej</w>
Pi l
P IE
obec nego</w>
b li</w>
Bi ała</w>
Bu łgar
zwięk szenie</w>
b od
kos me
niewiel kie</w>
podopie cznych</w>
po chodzą</w>
kie szeni</w>
Par k</w>
świad ków</w>
jedy ną</w>
licz ą</w>
Nie dawno</w>
najbliż szy</w>
trze cią</w>
podob no</w>
og ół</w>
otwar cia</w>
mie m</w>
Li bi
Pary żu</w>
Ra zem</w>
XV II</w>
na czy
kupi ł</w>
Ru mu
pa trzeć</w>
rad nego</w>
cią ży</w>
Pożar nej</w>
Ka wecki</w>
p w</w>
D W
czyta nia</w>
X II</w>
sal a</w>
g le
okaza ć</w>
mogł yby</w>
p se
z ą</w>
ga lerii</w>
następ nym</w>
ro da
za ka
ci ński</w>
pow strzy
pod ium</w>
wy li
nato rze</w>
maj ące</w>
kilka set</w>
s hi
l da</w>
fa nie</w>
Rz ą
do mach</w>
ato r</w>
rocz nicę</w>
Z oba
g owy</w>
auto ma
Z mar
wy ma
pracow ali</w>
komis ari
pełni ł</w>
bile ty</w>
zakoń czenia</w>
Z en
rywal a</w>
tech ni
2 8
198 6</w>
V III</w>
gry wa</w>
t ło
opie kę</w>
prowin cji</w>
ma cji</w>
agre syw
ofi ary</w>
Nie połomi
ro ba
cią ż
wy na
Dru gie</w>
ł bym</w>
będ ąc</w>
prze pis</w>
od niesieniu</w>
względ ów</w>
ry s</w>
komis je</w>
ro la</w>
związa na</w>
likwi da
od de
poniedział ku</w>
ek spozy
druży nę</w>
PA N</w>
Bartło miej</w>
nau kowych</w>
pan em</w>
T łu
po trwa</w>
kości o
b ój</w>
Przy kład
książ ka</w>
Nagro dy</w>
Boch ni</w>
mi ałam</w>
ral nej</w>
cj um</w>
Przewod nicz
bi ologi
pew na</w>
Bał ty
T y</w>
maj ących</w>
u szu</w>
oskar żenia</w>
li p</w>
nadzie i</w>
Za wi
Tu e</w>
ha sła</w>
S PO
pali wa</w>
ży czenia</w>
opar ciu</w>
właści wy</w>
zwro tu</w>
słu p
łó k
D al
T ri
e du</w>
sił ą</w>
sto n</w>
A ne
kon tekście</w>
Two ja</w>
Młodzie ż
N owo
prze chowy
złot y</w>
now e
o każe</w>
fa scy
In di
stop ni</w>
inicja tyw
stri a
gra ła</w>
wz ra
P KS</w>
głos owaniu</w>
rodzin nego</w>
należ ałoby</w>
ne y</w>
musi ały</w>
dow ym</w>
ar bi
Za czę
Agen cja</w>
po dział</w>
1 500</w>
de biu
szero ko</w>
przeło mie</w>
B lu
współ praca</w>
Pro fe
za instal
sobot y</w>
Mi ędzy
zabezpie czenia</w>
pre tens
row ska</w>
mi ne
prze ła
6 56</w>
różno rod
Kolej ny</w>
wa jący</w>
gl ob
głów ną</w>
zainteres owaniem</w>
gra nic</w>
Człowie k</w>
ki nie</w>
S ły
ch ą</w>
pokole nia</w>
pamię ta</w>
osią g
NO SPAM</w>
kro p
śle d
st ej</w>
wy ciąg
au stria
Si ko
je nia</w>
Ko z
T AR
bad aw
Karo la</w>
mi ja
zobowiąza ń</w>
Sta nach</w>
cza my</w>
kwest ie</w>
skó ry</w>
tre ść</w>
ut ę</w>
muzy kę</w>
ber ta</w>
lek ko
Li sta</w>
przedsta wienia</w>
marszał ku</w>
Komite t</w>
zanie czy
Le g
Koro na</w>
Wie sz</w>
ubiegło ro
mi ałby</w>
wi cach</w>
AU TO
rekor d</w>
nada je</w>
T K</w>
j skich</w>
pocz ąt
cen t
so ju
poprzed niego</w>
rozm owę</w>
M on</w>
ochro nę</w>
przej ścia</w>
bou kun</w>
Se natorze</w>
Grun wal
Pra ca</w>
Por tu
pa ź</w>
me dal
Re so
stos owane</w>
mężczyz ny</w>
mogł oby</w>
lek ce
Mo na
ńczy cy</w>
sze wska</w>
następ nego</w>
lide rem</w>
złot e</w>
ra ty</w>
Dodat kowo</w>
c ają</w>
pla s
en tu
Na ro
E li
głów ne</w>
we ź
v o</w>
powie działem</w>
ł ku</w>
polity ce</w>
S p
popraw ka</w>
pokaza ł</w>
ona l</w>
Chrystu sa</w>
Głów ny</w>
Pro sz
ar che
W or
ając ymi</w>
monta ż</w>
pla t
Al bo</w>
czwar tej</w>
Tar nobrze
przy szła</w>
kow skim</w>
Ge or
Stan ów</w>
Kacz mar
ra tu</w>
Pe ł
O twar
Gó rze</w>
drog owego</w>
pi ątku</w>
Jadwi ga</w>
cz nik</w>
ktu ra</w>
kur sy</w>
Dunaje c</w>
ga cji</w>
u sy
użytkow ników</w>
Kat owic</w>
korzy sta</w>
pod pisał</w>
kil koma</w>
t ta</w>
koncer ty</w>
cer tyfika
potrzeb uje</w>
s co</w>
Na cze
zgin ął</w>
ci na</w>
teri i</w>
sto le</w>
cza so
młod szych</w>
T P</w>
dyż ur
obro tu</w>
Rober ta</w>
Stu di
otrzym uje</w>
mał ym</w>
kolej ka</w>
ń cz
dotychczas owych</w>
tech nicznych</w>
H P</w>
poprawi ć</w>
miej skie</w>
mówi my</w>
po został</w>
po równy
powo dzi
serde cznie</w>
l ony</w>
przy zwo
przedszko la</w>
Ó W
Ro ku</w>
S ien
specjal ny</w>
D wo
Z ając</w>
Szwe cji</w>
St ę
g oś
Przeci w
MO SiR</w>
powiat owych</w>
T cze
cał ość</w>
wad owi
budowlan ych</w>
oświad czenia</w>
oku pa
mu ra
licz a</w>
ka mien
kra je</w>
przekaza ł</w>
M ą
MP K</w>
dokumen tu</w>
ź li</w>
ciep ła</w>
ści a
popraw ce</w>
u miesz
rady ka
ko liz
skład ać</w>
ral nych</w>
le sie</w>
si łow
mu ni
j ar
cy ta
a pli
198 7</w>
osą de
spo rządz
prasza my</w>
s finans
rozpoczę ły</w>
B y</w>
la nia</w>
obj ął</w>
okaz ja</w>
chwi lą</w>
poda ć</w>
fotografi i</w>
Miej sc
Wyż szej</w>
nię tych</w>
wycie czki</w>
O bie</w>
liw ego</w>
podkre ślił</w>
pod ręcz
eki pa</w>
wyso kim</w>
strono mi
wy stępow
pa k</w>
pod lega</w>
st ałych</w>
klu by</w>
ni by</w>
Mo je</w>
skra dzi
ap te
f on
11 22</w>
rozgry wki</w>
C ała</w>
przestęp stw</w>
powro tem</w>
bra li</w>
Ur szu
jede nast
funkcjon uje</w>
Ci ty</w>
ni ny</w>
peł nej</w>
spotka ł</w>
egza min</w>
dzi k</w>
gro m
rodzi ną</w>
tere nach</w>
w chodzą</w>
port fe
za powie
zgło sił</w>
radi o
inspe ktor</w>
tr wał</w>
pogot owia</w>
M S
Vic toria</w>
ku m</w>
zna kiem</w>
wyjaś nienia</w>
korzysta nia</w>
zamieszki wało</w>
mian ą</w>
ory z
powiet rze</w>
pracodaw cy</w>
du chow
opie ką</w>
re du
prac ach</w>
kompute ra</w>
Rol nictwa</w>
la bora
bior ąc</w>
ratu n
d li</w>
star t</w>
tra kta
l l
chce sz</w>
e ro
zi a</w>
lubi ę</w>
komp leks
ra k</w>
OW SKI</w>
le y</w>
parkin g</w>
A ni
og ie
bad anie</w>
aut orów</w>
okoli c</w>
z bud
mie śl
skut ków</w>
wojewódz two</w>
kilka krotnie</w>
bar ie
dysku sja</w>
Nad al</w>
kraj owych</w>
zam or
ka t</w>
zaba wa</w>
We d</w>
ob rę
W obec</w>
v o
mi ku</w>
ty n
technicz ne</w>
rol nicy</w>
cy ny</w>
dob ie
Zie liński</w>
pokona ć</w>
P ły
Wi śnie
Th u</w>
m ski</w>
zarzu t</w>
ru s</w>
prowadz onych</w>
O na</w>
ra dom
PZ PN</w>
korzy ść</w>
yta tyw
za pom
wprowadz a</w>
los y</w>
na du
skle p</w>
warszta ty</w>
par u</w>
o puszcz
rywa liz
t onu</w>
pół tora</w>
w łącz
Ener ge
W A</w>
przyjm uje</w>
a ktor</w>
bro nić</w>
praw nego</w>
z ma
w tor
Kiel cach</w>
obro na</w>
k ół
W raz</w>
zgło sić</w>
towarzy sz
mod lit
Pro mo
kon ta</w>
klu cz
trud nych</w>
198 2</w>
prze mocy</w>
j skiego</w>
Małopol sce</w>
An dre
me to
Mar che
v il
sklep ie</w>
m ują</w>
star ej</w>
Są de
gra cji</w>
czwar ty</w>
ra n</w>
parkin gu</w>
albu m</w>
sza mi</w>
Tu ż</w>
a u</w>
zna nego</w>
sła bo</w>
Sł owi
sz owa</w>
Wi t
mi nie</w>
wymag ają</w>
Minist rze</w>
ch rzan
otwar ty</w>
naj star
obc ych</w>
cz wór
wal u
obo ję
y o
z wraca</w>
198 5</w>
przej ści
imprez ie</w>
miej skiego</w>
Syst em</w>
Dzie l
posta wy</w>
spons orów</w>
wypła c
przy mu
przy chy
chor ób</w>
powiad omi
oba wy</w>
za si
dz eni</w>
syste mem</w>
śl ady</w>
r ski</w>
ba zy</w>
spo czy
wen cja</w>
obraz ów</w>
ze gar
sk ro
198 4</w>
OWA NIE</w>
A mi
regular nie</w>
K ad
Ń SKI</w>
emery turę</w>
z grup
ce chy</w>
ch cąc</w>
che r</w>
kró l</w>
G Ó
K wi
wpad ł</w>
stos ować</w>
ści śle</w>
to nie</w>
pie szych</w>
W P</w>
pomy słu</w>
szef em</w>
mówi łem</w>
kosz ul
m ro
Bu dy
b łon
kamie nicy</w>
poszczegól ne</w>
sk y
O w
Sz czę
czy mi</w>
speł na</w>
O g
celar ii</w>
mar i
twór cy</w>
o per
z dzi
dow ego</w>
napis ała</w>
zo rem</w>
K ÓW</w>
intere s</w>
rozpatrze nia</w>
s son</w>
Ż Y
D or
Si kor
mode lu</w>
rozwiąza niem</w>
M ły
dzie j
usta lenia</w>
s sa</w>
podzie m
o ff</w>
nau czania</w>
posiad a
za mieszkania</w>
świę t
H or
oddział y
frag menty</w>
st ałem</w>
zna ją</w>
Fun dacja</w>
skal ę</w>
za służ
ral ne</w>
Amery ki</w>
gwia zdy</w>
szpita li</w>
materiał u</w>
la ć</w>
st ii</w>
Joh n</w>
o cenie</w>
si ło</w>
państw owej</w>
Przy pomi
uro czy
w cześnie</w>
gmi nnych</w>
publi kacji</w>
Sprawied liwości</w>
ogrom ną</w>
Za gra
an s</w>
da wać</w>
mar a</w>
Rad ia</w>
za żą
26 6</w>
pra wia</w>
tytu łem</w>
pa ść</w>
god y</w>
l ni</w>
ŁA W</w>
podró ż</w>
krót kim</w>
podwyż ki</w>
połą czenie</w>
pokona li</w>
la ment</w>
podopie czni</w>
u sze</w>
łó ż
ko logi
pol box</w>
spa cer
zagra ć</w>
u porząd
korzysta ją</w>
wy grywa
załat wi
o pu
dwa dzieścia</w>
infra struktury</w>
Za bie
sz at
ni arz</w>
Japo nii</w>
I ni
By łem</w>
two rz
Wil li
statu s</w>
pozwo lić</w>
rzą dek</w>
Ozna cza</w>
Star y</w>
for te
on ki</w>
lew ska</w>
grup ą</w>
Dro ga</w>
hu mani
o w</w>
strz ale</w>
de b
P G
negocja cji</w>
Wi taj</w>
S kład
mor der
al u
nauczycie la</w>
organiz owane</w>
pracow ała</w>
R an
Gór nika</w>
d ośrod
3 3
Bur mistrz</w>
teor ii</w>
sprawied li
najlep szego</w>
owi anka</w>
k ówka</w>
pi na
Wielicz ka</w>
K uli
W O</w>
Oba j</w>
Ś wier
teat r</w>
Uniwersyte cie</w>
Ż e</w>
sz kę</w>
no ta
kontra ktu</w>
dy sko
Parlamentar nego</w>
zapew nił</w>
rad ość</w>
ma j</w>
politycz nego</w>
absolwen tów</w>
wykorzysta nia</w>
in i</w>
rol nych</w>
os i</w>
Kiel ce</w>
lot u</w>
dzi ękuję</w>
Chło p
Je sie
mo st</w>
odrzu cenie</w>
kontro lę</w>
po rę
wę gier
kształ cenia</w>
wie ra</w>
nor my</w>
L a</w>
Hu ta</w>
konta kt
li cki</w>
podję cia</w>
przeby wa</w>
M ro
ra fi
maj ątek</w>
Py tanie</w>
Euro pa</w>
roz woj
wiat r</w>
zabrak nie</w>
m ym</w>
05 09</w>
bisku pa</w>
sztu ka</w>
mo tyw
regu lacji</w>
atra kcji</w>
kie le
m owego</w>
x x
ży ją</w>
6 36</w>
glą da</w>
wy wia
an ce</w>
k su
wy kro
myśle nia</w>
wojewódz kiego</w>
na wiąz
nie raz</w>
Rze czywiście</w>
książ ce</w>
g wi
dzienni kar
Sz uka
Ka sia</w>
potwier dza</w>
dzi łem</w>
że r</w>
Rena ta</w>
za p
wo ły
we se
uli cę</w>
do stanie</w>
pro mieni
ubezpie czenie</w>
Ire ne
t ch
zaję ciach</w>
K ato
sz ąc</w>
mog liśmy</w>
Ira ku</w>
Su n</w>
P L
słu sznie</w>
Sza now
niegdy ś</w>
dziew czyna</w>
za pal
e x
pró ba</w>
ę ba</w>
mi ła</w>
B at
Pro pon
K O</w>
no t</w>
powi ęk
ryzy ka</w>
F ri</w>
wol nych</w>
uch y</w>
bru d
b ła
sprawo zdanie</w>
Bar to
l owych</w>
U M</w>
Z E
ma c
Mikoła ja</w>
po bo
sz ło
gospodar cze</w>
stos unek</w>
Do ty
artyku ły</w>
u dziel
w ani</w>
go m</w>
B ron
Stra ż
Oświęci m</w>
Mazu r</w>
zaba w</w>
od róż
zadowole ni</w>
sła wem</w>
ma tu
2 57</w>
s owym</w>
Kosz t</w>
wy le
mo stu</w>
Im pre
u zdrowi
od działy</w>
dyspon uje</w>
J A</w>
wybor czej</w>
zaku py</w>
kowi ak</w>
zamie rz
Inter net</w>
Bry tyj
rozwiąza ć</w>
t owicz</w>
na r</w>
de ko
na n
jąc ymi</w>
sę dzie
przygotow uje</w>
cz uję</w>
ch t</w>
autor stwa</w>
du cha</w>
prakty ki</w>
proto ko
Ludow ego</w>
wikipedy sty</w>
dokona ł</w>
międzynarodow ej</w>
T ę
odby wały</w>
Na f
postawi ć</w>
U E
znakomi cie</w>
ka bar
soli d
go n</w>
Fun k
świę to</w>
wy ła
potrafi ł</w>
h ie
wiecz or
o ziem
P sy
Ka sp
in wali
K S
sąsiad ów</w>
Jaku b
un ki</w>
Uczest nicy</w>
Szpita la</w>
zdoby cia</w>
Ostat ni</w>
na i
zdrowot nej</w>
i lu
Ali cja</w>
wy szła</w>
Adri an</w>
ba k
Isk ra</w>
siedzi bą</w>
posie dzenie</w>
Szy m
o rze</w>
Rodzi ce</w>
mi l</w>
cen i</w>
P ró
zwro t</w>
si ą</w>
Kobie ta</w>
V er
O K</w>
restruktury zacji</w>
zu jemy</w>
je nie</w>
postanowi li</w>
Star ego</w>
to ku</w>
stanowi sk</w>
pogod a</w>
C I</w>
wojsk owej</w>
m pla
nie długo</w>
so m</w>
woj ną</w>
w kę</w>
St os
P oto
stadi on</w>
w strzą
ne l</w>
ro da</w>
os a</w>
C óż</w>
pisa nie</w>
by łyby</w>
dę bi
A ni</w>
dokumen tacji</w>
pła cą</w>
G nie
zauf ania</w>
wych owania</w>
argu men
lek cji</w>
g ła</w>
Wy kona
ra l</w>
przykład em</w>
naj pięk
pisa liśmy</w>
klien ci</w>
Ja k
rekla my</w>
D wor
właści wego</w>
Trze bi
198 3</w>
ma le
For um</w>
oł ów</w>
pom nik</w>
w g</w>
publi cznie</w>
Prze praszam</w>
DA M</w>
ośrod ków</w>
liw ą</w>
konta ktu</w>
pacjen ta</w>
uro dził</w>
na bo
P RO
przekra cz
h ała
zł oś
zaj mie</w>
ele gan
li ńskiego</w>
s ją</w>
sta ran
Stra ż</w>
cie szą</w>
Wie ś</w>
s owie
l al
ó dz
auto rem</w>
S c
P W
Mo ra
Lo s</w>
prze słuch
re per
swo ist
ni ło</w>
la ł</w>
rankin gu</w>
wyso kich</w>
minist rem</w>
powiat ów</w>
presti ż
rozpa try
ni ową</w>
Sz la
opie ra
Le szka</w>
Ja c
mia nie</w>
gi ne
d ół</w>
gospodar ce</w>
ci ał</w>
rzu ca</w>
na prawi
Z właszcza</w>
a tak</w>
Mi ędzy</w>
bra ci</w>
Bo że
Są dzę</w>
ide i</w>
le ków</w>
sze mu</w>
sportow y</w>
4 13</w>
mał ą</w>
pi o
alkoho l</w>
Młodzie ż</w>
f e</w>
m tąd</w>
tran sport</w>
samo rządy</w>
nie nawi
li ka</w>
pose sji</w>
ró z</w>
pan uje</w>
kryzy s</w>
Plat formy</w>
kom or
Z A</w>
ka den
emo cjona
ś nięcie</w>
organiza torów</w>
cho dzę</w>
mi ł</w>
na pisać</w>
żyw ności</w>
gru b
bar wach</w>
przod u</w>
ci r
Bezpie czeństwa</w>
t owaniu</w>
ą ż
ćwier ć
Jed ną</w>
Ar gen
wie ni</w>
włas nością</w>
mani fe
gra tu
przy cią
awan su</w>
a spi
probo szcz</w>
dzi u
kowi cach</w>
asy sten
rozsą d
p ru
praw dą</w>
f ie
nię to</w>
B S</w>
zgło szenia</w>
O środku</w>
sz liśmy</w>
F lor
od być</w>
ty fikacji</w>
Ja ki</w>
pięk nie</w>
og ród
śledz two</w>
R en
ch ami</w>
W rze
r in
że ć</w>
O pi
pu char</w>
profes ora</w>
ło m</w>
osob ie</w>
do słow
ró b</w>
Bara n</w>
W Ł</w>
se niorów</w>
diece zji</w>
An der
Instytu t</w>
od em</w>
we teryna
Ra dzie</w>
krakow skim</w>
kom bi
d ka</w>
I gna
stawi ć</w>
St ry
woj sk</w>
ma wia</w>
ko sz</w>
I I
dow i</w>
fir mą</w>
Bad ania</w>
y y</w>
stąpi ł</w>
sen sa
By li</w>
opi ni
ta ńca</w>
w nych</w>
z maga
aktyw ności</w>
wyposa żenie</w>
zdol ności</w>
mężczyz nę</w>
zwol nienia</w>
g nia
o ko</w>
spraw ców</w>
Le ch
ograni czenie</w>
Pił ki</w>
integra cji</w>
s mo
za uważ
ple biscy
Nata lia</w>
st wach</w>
kole ga</w>
G war
do koń
charak teru</w>
mul ti
Sk y</w>
staro sty</w>
j na</w>
czy ńska</w>
Europej ska</w>
móz gu</w>
zatrzy mać</w>
w ość</w>
wi działem</w>
kie ł
ta niej</w>
R D</w>
o procen
zdo ł
u rządz
w nosi</w>
pe la
bra ta</w>
peł na</w>
bram ce</w>
obro ńcy</w>
sędzi ów</w>
zawod nikiem</w>
konty nen
pisa nia</w>
tra sę</w>
P K</w>
u n</w>
ok ru
bru ta
ni szcz
prze praszam</w>
za tytuł
stra ż</w>
przedsiębior cy</w>
Wie lo
Osta tnie</w>
kierow nika</w>
c ych</w>
to na</w>
obro ńców</w>
U W</w>
przy stąpie
Ko per
Koncer t</w>
komis ję</w>
nastąpi ło</w>
A M</w>
u licz
chodz ących</w>
róż nica</w>
ą wszy</w>
produ kcja</w>
SZ Y
w zy
pomy sły</w>
określe nia</w>
rowe rzy
har cer
przy zwycza
5 0
wy mu
za inwest
de nerw
zjawi ska</w>
men tarz</w>
utwo rzenia</w>
re zygn
pun kcie</w>
m owi</w>
Li ga</w>
urzęd ów</w>
za rzutów</w>
pro sto</w>
u ch</w>
prze szło</w>
Ga w
Telewi zji</w>
szko lnym</w>
konkre tne</w>
po w</w>
Dotych czas</w>
wszyst kimi</w>
Ire na</w>
S t</w>
pose l
wy łącz
gimnaz jów</w>
L ist
mi ęt
po może</w>
Ka szu
kli maty
F ar
czyta my</w>
zna ł</w>
ewentu alnie</w>
wspól nej</w>
tow ie</w>
jedno raz
obie ktyw
z or
cie lem</w>
Li tera
ki n</w>
rządow ych</w>
kom pa
Kró le
Sa m
do stali</w>
Mu szę</w>
konta któw</w>
po szedł</w>
se mina
Pomy sł</w>
pod wór
kalen da
T ru
rze kł</w>
de szczu</w>
r gi
zakoń czy</w>
głos em</w>
a niem</w>
istnie ć</w>
fundu sz</w>
Jor ku</w>
prób uje</w>
kompeten cji</w>
chod y</w>
T war
liw i</w>
strate gii</w>
K P</w>
fer a</w>
zda rzeń</w>
z robi</w>
strzel ców</w>
fa zie</w>
bli ź
Miej ska</w>
czeka ł</w>
u lo
h ale</w>
reli gii</w>
zi mą</w>
kre s</w>
łow y</w>
B ło
o pe
bo l
po żą
od poczy
spektak l</w>
lot y</w>
J er
źród łem</w>
hi per
row ni</w>
A f
a ka</w>
ak cen
jedno znacznie</w>
IN F</w>
po byt</w>
wi od
l nymi</w>
przyję ta</w>
Star ym</w>
Najważ niejsze</w>
łow e</w>
rezer wa
Holan dii</w>
budow ą</w>
powod em</w>
wnęt rza</w>
konkre tnych</w>
cza m</w>
wymieni ć</w>
przeci wie
mon t</w>
pojawi ą</w>
większ ego</w>
wypła ty</w>
szy ło</w>
uch wa
wyklu czone</w>
li cy
wy świet
lan dii</w>
efe ktow
szkole nie</w>
kar tka</w>
Bole sław</w>
char ytatyw
ucze n
Li t
wskaz ują</w>
Raci bo
a tem</w>
gnę li</w>
ży wo</w>
je mnie</w>
mo rze</w>
t rz
M ek
pieni ą
przewodnicz ącym</w>
Jezu sa</w>
kształ cie</w>
1 70</w>
Lu bo
opi nia</w>
zmieni ło</w>
S PRZE
określ ony</w>
Kla sa</w>
speł nia</w>
wy elimin
maz owie
po kar
spo ry</w>
fa ce
zakład ach</w>
uja w
prawo moc
jas no</w>
nie spodzie
Da j</w>
stosun ków</w>
k w
je zio
Nie podległ
zle cenie</w>
na tem</w>
cha rze</w>
Czytel ników</w>
dzie wią
powoła nia</w>
za projekt
niej si</w>
sze dłem</w>
daw nego</w>
zlikwi dow
pad ła</w>
Woź niak</w>
zorganiz ować</w>
S obie
przegra li</w>
t t</w>
pod porząd
sp ły
wysta wie</w>
Przypomi nam</w>
sukce sem</w>
pła t
komp let
Wysta wa</w>
g h</w>
trud nej</w>
egza minu</w>
g ałę
U J</w>
te st</w>
ow ską</w>
powiat owego</w>
ni s</w>
g oni</w>
maszy ny</w>
ch owy</w>
stwo rzenia</w>
Wybor czej</w>
u daje</w>
U dało</w>
wi dow
ow ce</w>
utwo rzenie</w>
4 23</w>
zjawi sko</w>
spowod uje</w>
przedmiot y</w>
star cie</w>
ogrom ny</w>
sła ł</w>
Radi o</w>
Z by
par k</w>
g ują</w>
wojsk owych</w>
o program
spoko ju</w>
za to
produk cję</w>
E uro</w>
wy su
ty kę</w>
Me di
nios ło</w>
Od działu</w>
i dą</w>
dz kim</w>
za cię
Mikoła j</w>
now ała</w>
ka s</w>
potwier dz
wsz czę
konsekwen cje</w>
parlamen tarzy
NF Z</w>
au dy
mo m</w>
dział kę</w>
Podhal a
ofer ta</w>
K ut
nic ami</w>
przy nosi</w>
ści ami</w>
X III</w>
popar cia</w>
poży czki</w>
pozwal ają</w>
li nia</w>
na cji</w>
wy raz</w>
me da
róż ni</w>
mi ęk
ł ość</w>
ci nie</w>
mło dzi
społe czną</w>
ucze ń</w>
Z groma
pły t</w>
wie dzieli</w>
trady cyjnie</w>
ś miesz
Wi dać</w>
skle pach</w>
j skiej</w>
got owy</w>
przysłu guje</w>
przy jechali</w>
sukce sów</w>
właści we</w>
Gaze cie</w>
bibliote ki</w>
u wol
minist rze</w>
szło ro
siedzi bę</w>
stro n
wice prezydent</w>
pró bę</w>
Z miany</w>
wró ciła</w>
pożar u</w>
to czy</w>
X V</w>
uzna nia</w>
s ho
zi ony</w>
głę bi
wali ł</w>
la m
pięk na</w>
no s</w>
Domi nik</w>
obec nym</w>
Boże na</w>
Syl wia</w>
e m
trud ny</w>
głębo ko</w>
ni ar
K oby
wi i</w>
K rę
i l</w>
Wil k</w>
O L
dzie ł</w>
mieszka niowych</w>
przestrze nnego</w>
ności ami</w>
ń cu
sposob y</w>
Dzie cka</w>
P ę
d owania</w>
pu ch
handl owych</w>
O pa
prze pły
rze niach</w>
minister stwa</w>
AN D
M ul
ad ą</w>
la tków</w>
Londy nie</w>
przeznacz ony</w>
przebie gu</w>
ja zdu</w>
okie n</w>
kow skich</w>
Au tor</w>
po ku
mu ze
Rozu miem</w>
sz tał
czy źnie</w>
ewi den
g lo
śni ak</w>
ne tto</w>
włos y</w>
197 6</w>
proś bę</w>
nie spełna</w>
telef onów</w>
rodzi ł</w>
ok no</w>
zajm ował</w>
kwar ta
pre sji</w>
u stęp
19 56</w>
wyso ką</w>
Wło chy</w>
wy ga
pi ot
ciep ło</w>
fizy cznych</w>
zapro szenie</w>
kobie tę</w>
Zagłę bie</w>
B oru
on omi
eksper tów</w>
nie trzeź
le ria</w>
wiej skich</w>
natych miast
Ś wiat</w>
czu ć</w>
u przej
sędzie go</w>
bu ty</w>
mu ry</w>
I m</w>
pie s</w>
naj niż
F eli
y n
bo ju</w>
Wisł ą</w>
Pos e
X IV</w>
k lo
odwoła nia</w>
wej ściu</w>
narodow ych</w>
kwiat ów</w>
gi li
be nia
stan ow
ga ra
kosz tem</w>
bie j</w>
O pera
prowadz ący</w>
kandyda t</w>
jedy ne</w>
słu gi</w>
A S</w>
wy mo
de l
Pew nie</w>
le ki</w>
Ż ad
rej on
en cyklope
poten cj
Legi on
gł ych</w>
się ga</w>
ste ro
żołnie rze</w>
sto py</w>
k owa
Małopol skiego</w>
zało gi</w>
m ową</w>
Gru py</w>
grun cie</w>
ni or
człon ka</w>
mu r</w>
Pi s
Spe cjali
rzy my</w>
gra nice</w>
Macie ja</w>
kow ymi</w>
daw niej</w>
wyrob ów</w>
sekre tarza</w>
medy cznych</w>
szko lnej</w>
UE FA</w>
śred nie</w>
po py
Ga lerii</w>
wy staw
bi ało</w>
syste mów</w>
ży łem</w>
egze mpla
U bezpieczeń</w>
osob owe</w>
g ur
ba t</w>
ste re
loka lnej</w>
Wan da</w>
Wo dzi
od noś
kar t</w>
len der
wzro sła</w>
Pauli na</w>
przyci sku</w>
po ka
ta r</w>
moderni zację</w>
Obro ny</w>
rozpoczę cia</w>
przeci wni
po zostało</w>
ż onych</w>
K l
młod ym</w>
Ję zy
wy mog
czytel ników</w>
Kon su
no szenia</w>
Ber nar
kryzy su</w>
cz ują</w>
Te m
OW SKA</w>
Po mimo</w>
pami ątkow
197 9</w>
Ci ę</w>
sa rza</w>
fo nii</w>
sz owie</w>
qu e</w>
l one</w>
to logii</w>
zasad a</w>
ska nie</w>
uczestni czyli</w>
tu tej
sły chać</w>
T wór
kr wa
br ie
przy chodzą</w>
kieru nek</w>
od o
ogło sił</w>
za kupi
O bra
Cz tery</w>
niemie ckie</w>
Tro chę</w>
mo tory
pół ro
oświad czył</w>
interne towych</w>
Pod kre
kan o
ob szer
R ut
or gan</w>
Eugeni usz</w>
bo k
maj ący</w>
Ś ród
Kierow ca</w>
przy jaz
zre mis
sy ła
Regu la
tysi ąc
za awans
ży ło</w>
Pia st</w>
Zar ówno</w>
alterna tyw
państ wie</w>
pri oryte
czwar te</w>
Interne tu</w>
zag waran
Du dek</w>
st ó
dział ających</w>
od dziel
mieszka ł</w>
ogie ń</w>
g ał</w>
zastos owanie</w>
fo r</w>
pse udo
ał u</w>
Ra dzie
przy k
Pra w</w>
kar nych</w>
Ch cie
c ał</w>
tor owie</w>
szko da</w>
przej ście</w>
za rzuc
wię źni
polo ni
spotka li</w>
kompu ter</w>
są sied
woj nę</w>
H it
rządow ej</w>
zna ki</w>
ko ron
Ba na
u grup
zo n</w>
liw ej</w>
skrzyż owaniu</w>
soł ty
imprez ę</w>
Fil m</w>
Pamię tam</w>
Z doby
w skie</w>
szcze niu</w>
t ry</w>
ga r</w>
tam tych</w>
wybor ców</w>
pier si</w>
c le
szczegól ne</w>
karie rze</w>
da ty</w>
moder niz
a ku
decyz ją</w>
dział ał</w>
cudz oziem
zaległ ości</w>
sa l</w>
trud na</w>
prac ujących</w>
że niami</w>
ż ny</w>
kon wen
Woj ska</w>
tek sty</w>
ty p</w>
kse lka</w>
komu ś</w>
au ten
dob rowol
su my</w>
o pozy
N u
pyta ł</w>
loka lne</w>
Budow a</w>
wy twarz
chę ci</w>
stra ch</w>
Potrze b
otwar ta</w>
za skak
F u
k lar
podstaw owym</w>
jech ało</w>
nierucho mos
tow ar
Na si</w>
or gany</w>
an e
zna czeniu</w>
Maj ch
łat we</w>
wspól noty</w>
występ ował</w>
K mi
kow ano</w>
gh t</w>
3 0
ow ni</w>
su ger
M U
sie dzi</w>
za kłó
ameryka ńskiej</w>
Ś mier
ku li
towarzy stwa</w>
wy szło</w>
bor u</w>
f m</w>
do trzeć</w>
Naj lepiej</w>
dysko te
D el
cen ty
Ko rzy
an kie
poszuki wania</w>
trenin gu</w>
c óż</w>
Zdro ju</w>
c am</w>
absolu tnie</w>
mili on</w>
ul t</w>
polity k</w>
Rodzi na</w>
ba zie</w>
Ś ci
r czak</w>
duż ego</w>
I n</w>
h t
kaz ują</w>
Impre za</w>
re akcji</w>
Su kce
Po stanowi
brze gu</w>
ce rze</w>
Poli techniki</w>
miar ów</w>
Ce na</w>
za pisu</w>
trud niej</w>
ńczy ków</w>
pro sić</w>
warsza wskiej</w>
bal u
ko ordy
mieszka ją</w>
wypo ży
wyja z
gwia zd</w>
w skutek</w>
ry b</w>
wy łu
ge l</w>
poe zji</w>
zobowiąza nia</w>
a liśmy</w>
lu ksu
Y o
nieu stan
kró tki</w>
stro ną</w>
arty ści</w>
Ale x
ob fi
Dru żyna</w>
żon ę</w>
południ owej</w>
wsz em</w>
służ bie</w>
waż ną</w>
O świat
przy wie
We wnętrz
gmi nach</w>
zi ar
u honor
Skar b
eksp re
Błęki tni</w>
isto cie</w>
cie szyć</w>
dotycz ącej</w>
zgła sz
meto d</w>
s owo</w>
Cza sami</w>
finans owego</w>
wynagro dzenie</w>
rze j</w>
napast nik</w>
e u</w>
pozost ali</w>
kredy ty</w>
cz ku</w>
si o
transa kcji</w>
by łam</w>
sz ach</w>
popraw y</w>
czyn ników</w>
wybor czych</w>
Siko ra</w>
okaza ły</w>
ka me
A z
politycz ną</w>
Zd ję
ty lu</w>
trafi a</w>
ając o</w>
A N</w>
uli ca</w>
ma ce
ma sy</w>
dre wna</w>
Bydgo szcz</w>
co nej</w>
c b
cha nie</w>
06 00</w>
bę dziesz</w>
klien t</w>
g g</w>
stadi onu</w>
roz czar
Cze ść</w>
rz ało</w>
zdo łał</w>
lu b
cu dow
kow iec</w>
mis ję</w>
j nym</w>
prezen tacji</w>
podatkow ych</w>
wpły wy</w>
B yst
prokura tora</w>
języ kiem</w>
służ bę</w>
Komis ję</w>
wyrazi ł</w>
pi ątkow
zbrod ni</w>
społe cznym</w>
za wdzię
Powi at</w>
zna ni</w>
b ał
argu menty</w>
perspekty wy</w>
za par
ra por
Mog ą</w>
propa g
za deklar
teat rze</w>
og nia</w>
Decy zja</w>
Szcze gó
kra kowski</w>
prze raż
za potrzeb
fre k
F la
dyda k
osie r
skie rował</w>
Ty god
dowod ów</w>
wi cki</w>
Kla sy
posiad ają</w>
B aj
lan o</w>
powro tu</w>
wyż sza</w>
spad ku</w>
cz kach</w>
mał ego</w>
bo ku</w>
roz mów
im pon
try b</w>
z będ
197 8</w>
wystąpi ą</w>
okolicz nych</w>
za mek</w>
so cj
gra jący</w>
rocz nicy</w>
należ ał</w>
prze prowadzenia</w>
wi zji</w>
kapita n</w>
Ga brie
przeważ nie</w>
pracow ni</w>
Bra zy
Wyst ą
ła god
At lan
Miej skim</w>
rz owie</w>
przekona nie</w>
Stefa na</w>
go l</w>
wyobra zić</w>
B ory
wyja zdu</w>
m ni
ja n</w>
forte pi
politycz ny</w>
tra ci</w>
go r</w>
got owe</w>
Ce zar
Usta wodaw
praw ny</w>
rowi cz</w>
po rządek</w>
wy kre
x e</w>
prowadz ony</w>
wy konuje</w>
ludz kiej</w>
loka torów</w>
wró ci</w>
dow s</w>
O ra
k cyjne</w>
Wa żne</w>
d t</w>
S Ł
Po rozumie
l s</w>
dob ę</w>
dyrektor ka</w>
angiel ski</w>
macie rzy
U nią</w>
kieru n
g la
Nie dźwie
Mal bor
inwesty cję</w>
pokona ła</w>
Przemy ś
specjali z
Licz ba</w>
o por
log ów</w>
wybra nych</w>
me tra
od rzuc
przedstawicie lami</w>
ko lum
tek stów</w>
si n</w>
dzi wić</w>
ró t</w>
skute czność</w>
ren ci
inwesty cyjnych</w>
nau czyć</w>
f oto
stó p</w>
najlep szą</w>
li ńska</w>
19 68</w>
Si at
si n
kie rował</w>
zapro ponow
Za interes
a cie</w>
gru pach</w>
ę ksz
ż o
pomy śle
miejsc owego</w>
Brukse li</w>
inte g
puszcza ć</w>
Sy lwe
wido czne</w>
ta na</w>
st ym</w>
po su
rośli ny</w>
reży ser</w>
3 5
Sz kole
Mały sz</w>
gor li
a b</w>
cz onym</w>
B ul
wymia r</w>
sześ ć
3 7
nau ka</w>
sz czak</w>
Sło ńce</w>
małopol skiego</w>
ve n</w>
wojewódz kich</w>
Urszu la</w>
D ali
iz by</w>
ran nych</w>
serwi s</w>
funkcjon owanie</w>
Opie ki</w>
cz kowski</w>
t ując</w>
ro c
przychod ni</w>
poz or
przewo ź
u fundow
nieba wem</w>
promi la</w>
3 6
Ost row
u p
ks wa
4 25</w>
ren ty</w>
przekona niu</w>
B un
Ku p
pod niesienie</w>
odpowiedzial ny</w>
od er
upad ku</w>
resz ta</w>
wykształ cenie</w>
tz n</w>
mi ra</w>
pracow nikom</w>
edy cja</w>
Toru ń</w>
hi tle
prezent uje</w>
dotycz ący</w>
rza my</w>
han del</w>
A te
sa dz
języ ków</w>
Za raz</w>
Re sz
Pre zydium</w>
kieru je</w>
śledz twa</w>
O F
K I
rezer wy</w>
pił ce</w>
Narodow y</w>
o ch
kró lew
libe ra
Za wody</w>
rzeczywist ość</w>
P SP</w>
pły wa
se ktora</w>
Micha l</w>
bły skawi
sportow ego</w>
R ud
og ór
Ślą skiej</w>
Co ś</w>
M ot
regiona lnych</w>
u czę
s b</w>
Stra ty</w>
komis arz</w>
ż nych</w>
ra ka</w>
połącz one</w>
c owe</w>
krę gu</w>
lubi ą</w>
d ba
loka liz
Pow szech
odrzu cił</w>
umożli wia</w>
o nem</w>
finans ową</w>
Strze l
S la
war te</w>
C le
czyta nie</w>
J arek</w>
bro nią</w>
wymieni onych</w>
komen dy</w>
pręd kości</w>
chłopa k</w>
w ęż
4 50</w>
wyda niu</w>
Olimpi a</w>
E L
part ia</w>
woje nnego</w>
h en
zasad ę</w>
pra sy</w>
ludz kie</w>
pew ności</w>
komuna lnych</w>
l skiej</w>
towa r</w>
ał ka</w>
ab sur
podejm uje</w>
wyso ka</w>
s ferze</w>
pie śni</w>
Pro ko
śnie g</w>
staro ży
si lnie</w>
pozy cje</w>
min ął</w>
powo ły
Sa int</w>
zachod nich</w>
par a</w>
rz owi</w>
za miar</w>
M G</w>
konfli ktu</w>
fak tem</w>
ró wie
Mek sy
egze kw
e wolu
pi na</w>
zi my</w>
star si</w>
do ciera
4 11</w>
ży ny</w>
SK IE
Regiona lnego</w>
G ot
najlep sza</w>
gu bi
Podob no</w>
w le
Brze zi
O de
ty łu</w>
samodziel nie</w>
miej ski</w>
ek s
Portu ga
ow e
wiel bi
funk cjonari
Warsza wskiego</w>
zapewni ają</w>
z wi
cie ple
Przedstawi ciele</w>
by le</w>
Bo ha
jas na</w>
Ameryka nie</w>
ko t</w>
telef ony</w>
K ą
log a</w>
nie ba</w>
spraw ca</w>
dow ą</w>
ro s</w>
nastąpi ć</w>
obro ńca</w>
uczest nicz
niemie ckim</w>
cięż kie</w>
K rzesz
dom owych</w>
ch owicz</w>
Cie bie</w>
przej ął</w>
M E</w>
siost ry</w>
wy jechał</w>
R T</w>
sprawo zda
budow nictwa</w>
wy my
czę sto
znaj ąc</w>
specjal nej</w>
po gar
G E
opowie ści</w>
reprezen ta
os ad
wol nym</w>
U kra
powo dzi</w>
fe stiwal</w>
Ba sia</w>
le b
zi ę
nie win
Pat ro
blo ków</w>
woje nnych</w>
gwaran cji</w>
szczy ński</w>
j cie</w>
nie typow
Marci n
za kładzie</w>
zgodzi ł</w>
Fi zy
popraw ę</w>
w ście
WYTNI J
Administra cji</w>
pali w</w>
dzisiej szym</w>
kan dy
wymaga nia</w>
wi c</w>
M I</w>
b loka
nia my</w>
wi dz
re kru
narko tyków</w>
ra do
da my</w>
wysy ła
ba ra
Pa le
maszy n</w>
mist rzy
oczyszcz alni</w>
decyd ują</w>
pozwo lenie</w>
Ko mor
li nię</w>
w no</w>
jednost ka</w>
se g
poda tki</w>
dy ch
na pę
pój dzie</w>
spo rzą
tury styki</w>
Rzesz owa</w>
nie bezpieczeństwo</w>
od dal
wybu chu</w>
C al
wy twór
od dziale</w>
narodow ego</w>
nawierzch ni</w>
S S</w>
Rad ę</w>
młod si</w>
Kal war
śmier cią</w>
zrealiz ować</w>
bo r</w>
nieprawidłow ości</w>
vi ć</w>
krót kie</w>
st kę</w>
to grafi
ologi czne</w>
her bat
pew ność</w>
A ma
ń skiemu</w>
Ty tu
ka m</w>
pad ły</w>
Ma rze
przy glą
pla sti
ja ć</w>
interes ującym</w>
Spor towego</w>
stara ć</w>
eta pu</w>
G łu
wz ór</w>
sy p
Minister stwie</w>
dział ka</w>
ma niem</w>
pracodaw ców</w>
ka pła
uzna nie</w>
po ra</w>
uli cą</w>
sal ę</w>
p ęk
M nie</w>
za kup
nie k</w>
ności owe</w>
sta cja</w>
row ała</w>
h um
Spor t</w>
3 4
uroczyst ość</w>
og ar
jesie ni</w>
nie daleko</w>
pięk ny</w>
Chci ałem</w>
zare ag
wysy pi
Mil ler</w>
e s
I kselka</w>
ro so
Samo obrony</w>
bo m
wyjaśni ł</w>
znajo mość</w>
te li
z bad
z ją</w>
kto rze</w>
nios ek</w>
niebezpie czne</w>
Libi ą
ga raż
przeciw nie</w>
m ane</w>
Pos łowie</w>
pój ść</w>
zmniej szenie</w>
dziewię ć</w>
Pose ł</w>
Ko ło</w>
k sa</w>
ON Z</w>
elimina cji</w>
li trów</w>
ludz kich</w>
bi ński</w>
I PN</w>
m any</w>
st r
młod e</w>
zy g
DO M</w>
wiel kość</w>
za stanowić</w>
zatrzym any</w>
bi ałe</w>
tema tem</w>
ru m</w>
Pro f</w>
ut r
tury stycznych</w>
uch ów</w>
normal nie</w>
gro na</w>
olog ia</w>
g ri
ń ka</w>
lot ów</w>
gatu nku</w>
rach unek</w>
u działów</w>
ności owych</w>
pięt rze</w>
re por
P aj
1 25</w>
Fry d
lo j
konfli kt</w>
chęt niej</w>
u lega</w>
T ho
Spółdziel ni</w>
u ciąż
D S</w>
zgo dzić</w>
b ki</w>
Oświęci mia</w>
na l</w>
ul gi</w>
Ra z</w>
tegoro cznych</w>
man ew
weź mie</w>
auto matycznie</w>
róż nice</w>
archi wum</w>
Dąb rowski</w>
Prokura tury</w>
Pietrzy kowski</w>
obrę bie</w>
rodzin nym</w>
powiet rz
cza j</w>
księ cia</w>
Ist nieje</w>
De c</w>
zazna cza</w>
przeznacz onych</w>
ry by</w>
naci śnięcie</w>
cze niami</w>
Kry nicy</w>
ż ną</w>
Ab so
c owych</w>
Po le
za pisów</w>
Sza ro
piłkar skiej</w>
arty sta</w>
są dów</w>
pa kie
otrzym ały</w>
Informa cje</w>
P G</w>
zapyta ł</w>
B ol
now ymi</w>
tole ran
pre feren
Za by
1 11</w>
Mo ż
zaję cie</w>
psychi at
prezen tacja</w>
mini ony</w>
C KA</w>
u moc
Marche wka</w>
przeciw nika</w>
przekra cza</w>
bro nił</w>
traf ie
Kacz marek</w>
si lne</w>
od nieść</w>
si lny</w>
środowi sk</w>
słow em</w>
wystąpi ła</w>
plan owane</w>
v ol
proble mami</w>
manda t</w>
sześci o
Europej ską</w>
Świę ty</w>
odpowied niej</w>
osob ami</w>
państw owe</w>
magistra tu</w>
Głos owało</w>
dozna ł</w>
publi cy
rozu mie</w>
Z AT
to re
stosun ki</w>
Mi ałem</w>
ge o
od ro
aresz cie</w>
ku lar
IS O</w>
rachun ku</w>
ucz ą</w>
jakich ś</w>
obchod ów</w>
mal a
ri s</w>
nios ą</w>
O fer
wojewódz tw</w>
gó rach</w>
korzyst ne</w>
sz tan
Wi śle</w>
Ro mana</w>
z musi
t ony</w>
Pol skim</w>
ha n</w>
tema tu</w>
konkur sów</w>
kin o</w>
do póki</w>
pow ód</w>
f on</w>
oczywist e</w>
po st</w>
W niosek</w>
ie ra</w>
ona mi</w>
wy rzu
towarzy stwie</w>
wyja śnie
mówi ono</w>
rz ach</w>
ren t</w>
z bli
kana liza
szczegó ły</w>
gospodar czy</w>
M Z
i ny</w>
ne lu</w>
lek cje</w>
gł ad
j ąd
sygna ł</w>
pa trzy</w>
SZ E
Wikipe dy
part ie</w>
ra li</w>
Doty czy</w>
k li</w>
na f
zainteres owani</w>
złoż one</w>
medi ach</w>
pi sto
sytua cją</w>
trze ma</w>
zawod owego</w>
ty fi
P ad
prze kład
sp u
Pu charze</w>
szko lny</w>
o czu</w>
wor u</w>
Bo che
Kato li
a ktorów</w>
M en
sz t
Wie rz
C KI</w>
gó ral
o cenę</w>
załat wić</w>
pod karpa
Mog ę</w>
Wystę p
o fen
legi um</w>
st ego</w>
dru go
wa ku
pozy ski
dzi liśmy</w>
bó l</w>
o pracow
ż ach</w>
1 01</w>
połu dnia</w>
Ślą skiego</w>
zatrudni onych</w>
Za rządz
Mat ka</w>
patro natem</w>
son da
poję cie</w>
utrzy muje</w>
ogło szenia</w>
Ro man
Naz wa</w>
z wany</w>
Wy nik</w>
powi ększ
przyjaci ół
6 38</w>
19 70</w>
Mie liśmy</w>
Ko ła</w>
na pa
produ kt</w>
poglą dy</w>
u bog
kie rować</w>
wia liśmy</w>
po czekać</w>
zda rzają</w>
najbliż szej</w>
Tu cho
SPRZE DAM</w>
przeprowadz ono</w>
stre fie</w>
h o</w>
lu t</w>
kole gi
k el
dłuż szy</w>
uczestni czył</w>
cb net</w>
mun d</w>
s ową</w>
ośrod ku</w>
produ ktu</w>
wprowadz ono</w>
pała cu</w>
zoba czymy</w>
i da</w>
trakt ować</w>
re we
kolo r</w>
R ot
dziennika rze</w>
rodzi cami</w>
Od dział</w>
złoży li</w>
szko lne</w>
Wi at
Ba y
bł ę
obo zie</w>
trzy mać</w>
0 7
prze prowadzenie</w>
indywidu alne</w>
czerw one</w>
wy gląd</w>
jaki mi</w>
Kami ński</w>
dosta te
bin i</w>
06 06</w>
Ka p
Stron nictwa</w>
kli mat</w>
Pre zen
Cie szę</w>
ba wić</w>
ty k
przyję ła</w>
FO T</w>
ca l</w>
W si</w>
W ciąż</w>
cz ących</w>
poinform owała</w>
V il
B lo
S re
podstaw ą</w>
Lewan dowski</w>
po magać</w>
do stała</w>
ór ka</w>
sposob ów</w>
s nął</w>
boha terów</w>
dz ając</w>
czyn ne</w>
nia na</w>
me tropoli
sł odaw
ST A
syste matycznie</w>
l ów</w>
os y</w>
odwoła nie</w>
d ra</w>
un d</w>
metod ą</w>
minist rowi</w>
atmosfer a</w>
Fab ry
tożsamo ści</w>
ce ni
a ro
poe ty
lekko atle
bile t</w>
ości ami</w>
szczeb lu</w>
chłop ca</w>
P rób
wer sję</w>
grun tu</w>
lig owych</w>
zezwo lenia</w>
prze bo
cjonariu sze</w>
no n</w>
Za koń
pozosta ją</w>
Mosk wie</w>
usy tu
pod da
dal szy</w>
pier wsi</w>
trafi ły</w>
Kodek su</w>
05 04</w>
producen t</w>
mi ć</w>
1 05</w>
n kę</w>
No żnej</w>
wi rtu
met ry
skład ania</w>
mi ński</w>
przeprowadz one</w>
ni zacji</w>
be ton
nie jako</w>
prób owali</w>
fabry ki</w>
ost ro</w>
Może my</w>
progra mem</w>
S B</w>
poja zd</w>
zapew nienia</w>
u sprawiedli
Ko zie
siad a</w>
zabra ł</w>
o ro
O wszem</w>
rozu mi
ni cz</w>
S P
Szpita l</w>
liw ością</w>
ra dzie</w>
lin g</w>
nadzie je</w>
l owy</w>
prze szła</w>
archite kto
wy rzuc
bezrobo cie</w>
lar y</w>
Z D
nau kowe</w>
Rze cz</w>
znajo mości</w>
opoda tk
k si
resor tu</w>
v an
ob óz</w>
U T
kad rze</w>
Białoru si</w>
rz ały</w>
szyb kie</w>
głę b
przewidzi ano</w>
licz bie</w>
rewolu cji</w>
ma sa</w>
rela cje</w>
Sa t</w>
m roz
Obywatel skiej</w>
G ości
sad y</w>
a cz</w>
ukoń czył</w>
przeciwie ństwie</w>
Wy bra
e misji</w>
z mem</w>
posiad ania</w>
podję cie</w>
najbliż sze</w>
Głos owanie</w>
ban dy
st ką</w>
wier nych</w>
lo c
197 4</w>
stwier dzono</w>
Star e</w>
d on
W łók
komór ki</w>
robi li</w>
dial og
rozpoczę li</w>
Irene usz</w>
pi ąt
r ka</w>
zasił ku</w>
arty sty</w>
Hon or
Społe cznych</w>
u pamięt
opowiad ał</w>
m s</w>
do l</w>
Człon kowie</w>
ce ch</w>
rad nym</w>
cz ków</w>
Publi cznych</w>
ra ł</w>
Wacła w</w>
od nowi
ri on</w>
Za pew
tajem nicy</w>
sze s
świąty ni</w>
mle ka</w>
inten cji</w>
stał ego</w>
potwier dził</w>
właści wości</w>
Kla u
kuch en
Wie sława</w>
spon so
bizne su</w>
fa ch
row ali</w>
aresz tu</w>
Progra mu</w>
wal ne</w>
zach or
Jed na
e la
Gro c
choro ba</w>
wy miaru</w>
wie dza</w>
1 26
mo ne
Gorli ce</w>
0 18</w>
towarzy szy</w>
nazwi sk</w>
Amery ce</w>
zgła szać</w>
Woj tek</w>
prze słucha
Trybuna ł</w>
F ak
197 3</w>
usta leń</w>
mieszkań cami</w>
do ktor</w>
Pan u</w>
pise m
łow ego</w>
tre nerów</w>
Part ii</w>
potrafi li</w>
wy bie
korzy stanie</w>
cza niu</w>
O skar
Ś w</w>
pi wa</w>
wiecz oru</w>
SK IE</w>
la sów</w>
Bed nar
ro dze
wi ą</w>
dyre ktorów</w>
seri alu</w>
zach ow
prowa dzeniem</w>
Pierwsz ą</w>
1 02</w>
O N</w>
roz patrywa
wyra źniej</w>
Mistrzost w</w>
Wojewódz ki</w>
spa m</w>
pozwo lenia</w>
bli ska</w>
trafi ają</w>
kwali fikacji</w>
uj my</w>
ochro na</w>
od par
KO N
Pow o
go 2</w>
zmieni ła</w>
po krzyw
og ła
specjal nym</w>
nie sam
spe r</w>
k le</w>
szk lan
F al
H au
ref lek
konsu men
E pi
ekonomi cznych</w>
praw nym</w>
poprze czkę</w>
zamiesz k
Wi os
zajm ować</w>
sad a</w>
śre dnia</w>
terytori alnego</w>
zamie szcz
L E</w>
Informa cji</w>
Pod la
legi ty
dosłow nie</w>
państ wu</w>
kole gami</w>
przy pom
Wad owicach</w>
Ju rek</w>
proce sów</w>
T he
wzię ła</w>
ar d</w>
pi ja
Mistrz ów</w>
inwest ora</w>
róż nymi</w>
z ka</w>
rozmawi ał</w>
an om</w>
oł ek</w>
Rozmawi ał</w>
spo za</w>
gi tar
obro nił</w>
u plas
efe ktem</w>
ma ty</w>
kła m
rządow i</w>
odse tek</w>
Bi l
Bi r
mie ści
bezpła tne</w>
ameryka ńskiego</w>
ist nienie</w>
posłu gi
po no
Je zi
aktu alnie</w>
ul ot
pły tę</w>
stara nia</w>
realiz ować</w>
możli wa</w>
L am
wy gło
f u</w>
s cho
Pił ka</w>
Zaj ęcia</w>
v al
zy sk</w>
ry s
wygra nej</w>
Duż o</w>
G ri
E we
L PR</w>
tr wało</w>
zer w
De cyz
G RO
za wód</w>
pad ło</w>
wypowie dź</w>
wysił ku</w>
ser ia</w>
autobu sy</w>
zasta nawia</w>
f ru
dobr o</w>
2 20</w>
z jaz
M W</w>
regula mi
S h
Za ch
k ę
sk owej</w>
par lament</w>
istniej ących</w>
u pro
z jedno
S ę
Uni ver
zło żenia</w>
D U
wyż szej</w>
przygot owali</w>
ur ą</w>
Ter min</w>
za ciąg
Le gia</w>
Podhal a</w>
rz ut
drze wo</w>
substan cji</w>
me li
ka s
W AR
ry tu
u la</w>
Teat rze</w>
nastąpi ł</w>
Ko lo
organiz mu</w>
w ską</w>
Mo ni
w ul
sty ny</w>
skrzyż owania</w>
wła dza</w>
ko ł
łon i</w>
d na</w>
pa sa
zach owań</w>
musi ało</w>
sk raj
Sta lowej</w>
zagra li</w>
D wu
Ń SKA</w>
sta mtąd</w>
3 9
oce nić</w>
a c
wie rzy</w>
skoń czył</w>
drog owych</w>
4 12</w>
P rą
Interne cie</w>
atrak cyjne</w>
ekstra klasie</w>
Ko ł
197 2</w>
rze niami</w>
dow ci
stara ł</w>
po zostały</w>
na stawi
Miro sława</w>
now osąde
wyróż nienie</w>
nosz ąc</w>
6 44</w>
wie rzę</w>
przyszł ych</w>
ro st</w>
prze nieść</w>
Za ba
wier sze</w>
Hu ty</w>
kon ując</w>
czeka my</w>
nię ciem</w>
de szcz</w>
By to
powoła nie</w>
je cie</w>
ma k</w>
odpowied niego</w>
tę sk
rozwija ć</w>
u s
za rząd
przypad kiem</w>
E g
ni gdzie</w>
po bu
szu k
będ ących</w>
zu ży
1 200</w>
szan sy</w>
Kobie ty</w>
obszar u</w>
wykształ cenia</w>
Gło s</w>
siost ra</w>
działa niu</w>
dziesią tki</w>
przyzna no</w>
Franci szka</w>
wy dzie
ku la
do mem</w>
mo i</w>
opi sy
C am
wios nę</w>
Właści ciel</w>
Nie zależ
Kami la</w>
V I
nowe liz
Często chowa</w>
tra sa</w>
Pe ter
rę ka
Staro gar
siad ł</w>
szy ńskiego</w>
przeciw ników</w>
szczegól ną</w>
papie ż</w>
ho mo
prote st</w>
prawdzi wa</w>
rod em</w>
ofe ruje</w>
kul turze</w>
dorob ku</w>
4 30</w>
ńst w</w>
kar tę</w>
pła c</w>
po ci
n s</w>
now ot
wy zwo
Kre dy
V al
nie źle</w>
ka nie</w>
Ś WI
funkcjon ować</w>
obwod nicy</w>
U P</w>
od niósł</w>
od czy
spół ce</w>
Słowa ckiego</w>
roz powszech
za robić</w>
p s
pras owej</w>
brąz owy</w>
czar ne</w>
otrzym ują</w>
że l</w>
rejest ru</w>
Kon feren
osob owy</w>
B on
politycz na</w>
kos mi
spektak lu</w>
CY J
dochod u</w>
epo ki</w>
dowod y</w>
spo dob
rozegra ny</w>
bi na</w>
Ja si
Ć wi
ma cie</w>
rela cjon
z łu
potrzeb ę</w>
podkreśla ją</w>
g ała</w>
hiper marke
ow cem</w>
kwesti ę</w>
Sta n</w>
me bl
gieł dzie</w>
zbior ów</w>
no cą</w>
zapew nienie</w>
dz ący</w>
pro sił</w>
star tu</w>
na rusz
szcze rze</w>
ogó lnej</w>
dwudzie stu</w>
Kwiat kowski</w>
C zo
Krakow ska</w>
im por
arty styczne</w>
Pamię ci</w>
od e</w>
wy lą
Premie r</w>
apara t</w>
Za sta
specjal ną</w>
auto rzy</w>
Z decyd
powró cił</w>
autobu sów</w>
PK O</w>
Mi st
in dziej</w>
er ów</w>
le wskiego</w>
S pośród</w>
Bog u</w>
reprezen tacja</w>
naj cieka
ustal ono</w>
wiad u
komple t</w>
Ch wi
Wy brze
narzę dzia</w>
197 7</w>
Po ro
wy słuch
s owski</w>
za przyja
Sze f</w>
rów ki</w>
głos i</w>
mog liby</w>
roz budow
Olku szu</w>
propa gan
H anna</w>
prawdzi wego</w>
Anto niego</w>
łoż one</w>
Wojewódz kiej</w>
zrezygn ował</w>
przedstawicie la</w>
natural ne</w>
przezna czyć</w>
rzy ński</w>
dłuż szego</w>
inter na
zmieni ać</w>
Rosja nie</w>
sy nem</w>
stru kturę</w>
Hut nik</w>
d ó
u j</w>
B ran
wcześ niejszych</w>
Toru niu</w>
po r</w>
re ktor</w>
złot a</w>
bo ją</w>
trenin gi</w>
L en
uczest nictwa</w>
da wał</w>
mis ja</w>
na ród</w>
wpły wa</w>
fi li
uni jne</w>
ta kt
do god
M ur
j pg</w>
b ski</w>
pre cyz
Wy dziale</w>
zie mią</w>
Kwaśnie wski</w>
kompen sa
dzi ęk
lekce wa
ucz nia</w>
ża l</w>
kon o
fotogra f
en tin</w>
fał sz
szczy cie</w>
Trze bini</w>
Sande cja</w>
s ny</w>
u le
rozpoczę to</w>
kodek su</w>
konkur sach</w>
dy żu
pił ka
zar y
wymia na</w>
mię sa</w>
czo m</w>
Kontro li</w>
la ka</w>
Kl ien
materi i</w>
słu chi
pomy słów</w>
Po ko
urzą dzenie</w>
kompu terów</w>
książ ę</w>
osobist e</w>
M K</w>
oskarż onych</w>
d in
Wy j
Ko rze
ut rud
siat kar
działal nością</w>
pi wo</w>
czy sto</w>
C Y</w>
m sza</w>
charaktery z
M ało</w>
h am</w>
i s
bro ni
wybra ł</w>
wery fi
zasob ów</w>
ho lender
Sta lowa</w>
stop niowo</w>
zdecydow ali</w>
gra f</w>
M el
rozpoczę ciem</w>
do prowadz
francu ski</w>
stan ąć</w>
Hele na</w>
Straża cy</w>
ob ą</w>
uży te
komite tu</w>
y m
nie dziela</w>
jech ały</w>
Wró bel</w>
D er
Mie lec</w>
pacjen ci</w>
Zwycię z
trud em</w>
cen ne</w>
me ble</w>
Mieszka niowej</w>
3 8
ba se
występ ów</w>
sobot a</w>
spowod ować</w>
parkie cie</w>
go kolwiek</w>
tech nik</w>
fa kty</w>
rz ała</w>
pra sie</w>
trans fer
dojrz ał
zie mia</w>
posiad anie</w>
star ym</w>
gor sze</w>
wy dane</w>
Szcze cin</w>
Chi ca
wy mie
bo che
Powiat owy</w>
że laz
F ol
tem pie</w>
mo ścią</w>
cz uj
pogot owie</w>
cie n
ba sen
małże ństwa</w>
bież ąco</w>
zawod niczki</w>
miej skim</w>
prowadz onej</w>
w prowadził</w>
kul turę</w>
h os
an te
Ki bi
j na
Woj ty
nic kim</w>
e u
z lokaliz
wyda wać</w>
k l</w>
ką tem</w>
Wałę sa</w>
Kwi dzy
za budowy</w>
Kolej na</w>
miejsc owi</w>
bu d</w>
zbi ór</w>
koncer tów</w>
st ia</w>
i k</w>
y z
opieku ń
Świę ta</w>
Jedna kże</w>
chow ska</w>
P RZY
Z miana</w>
nie potrzeb
Świę tokrzy
O gro
zrobi ła</w>
Ch ęt
pocią g</w>
Paw lak</w>
ari um</w>
Dzi ała
peł en</w>
strze le
każde mu</w>
sky pe</w>
prze jeżdż
przypomni ał</w>
2 70</w>
wal k</w>
współczes nej</w>
terape u
S ur
odpowie dni</w>
wypad kach</w>
sty kę</w>
fry zje
pta ków</w>
le ri
A ra
N AR
Q rczak</w>
negocja cje</w>
czy nie</w>
u stanowi
wz ru
d ry</w>
u sunąć</w>
nie jedno
P on
zau fanie</w>
Ist ot
b ka</w>
29 4</w>
po gor
plac ówka</w>
jakich kolwiek</w>
chle b</w>
autobu s</w>
P el
so li</w>
spa ć</w>
ws pina
Kros no</w>
G ra</w>
Praw dzi
zasłu guje</w>
Konstytu cyjnego</w>
uli cami</w>
dwor ca</w>
przygot ował</w>
Hist ory
pan cer
cier pi
symbo licz
harmo nii</w>
Pode j
l ada</w>
sły sze
fizy cznej</w>
okolicz nościach</w>
PZ PR</w>
sejm owej</w>
BO T</w>
dowi ad
Kra wczyk</w>
skład ają</w>
Radomi u</w>
biu rze</w>
ź wi
za śpie
Pierwsz ym</w>
odległ ość</w>
Ju n</w>
Jed no</w>
dziew częta</w>
p ęt
wy mianę</w>
zy sku</w>
poczu cia</w>
G on
u prze
finans owanie</w>
największ ej</w>
na prawy</w>
wynagro dzeń</w>
je cha
scenari usz</w>
ży wio
rozpoczę cie</w>
prze prowadził</w>
wrac ać</w>
d ie</w>
Przy ję
kapli cy</w>
to ale
F lo
spad ła</w>
lotni ska</w>
Bu kow
li ły</w>
I s
okaz ją</w>
muzy czne</w>
W ali
T rzci
li t</w>
zagra nicy</w>
Ksią dz</w>
S z</w>
za kaz
zwycię żył</w>
specjali ści</w>
do prowadził</w>
Jan kowski</w>
Przewodnicz ący</w>
twa rza
Nie pełnos
W l
mini onym</w>
wios ny</w>
powie ść</w>
Ko niec</w>
Naj większe</w>
uzysk i
dosta je</w>
genera ła</w>
po rze</w>
C O</w>
Ku ra
ga w
pieni ędz
wykorzy stanie</w>
Chica go</w>
przekaza nie</w>
n uje</w>
ni sa
Wojewódz twa</w>
wi cy</w>
przyj ść</w>
wę gl
od y
maksymal nie</w>
pis arz</w>
A l</w>
co nego</w>
zatrzy mał</w>
b m</w>
poszu kuje</w>
szy na</w>
wal czył</w>
Zab rze</w>
dz ał</w>
ce rzy</w>
Al wer
kawał ek</w>
4 4
general ny</w>
kory ta
w rz</w>
tempera tury</w>
6 55</w>
następ ny</w>
podejm ować</w>
I naczej</w>
przyję ty</w>
uch wała</w>
Domi nika</w>
O ne</w>
Komunika cji</w>
filozofi i</w>
pisa na</w>
podzie lić</w>
c kie
wyż szy</w>
sła wy</w>
licz ąc</w>
Chrzan owie</w>
zatrudni ę</w>
bezpie cznie</w>
ofi cer</w>
osobist ych</w>
klub em</w>
narko ty
Iza bela</w>
N OWY</w>
a mi
Sa ma</w>
za gi
zu ł
ow emu</w>
spraw dzi
ochro ną</w>
miejsc owej</w>
politycz nym</w>
struktu r</w>
zawar tych</w>
sko czył</w>
czyst ość</w>
robi my</w>
Boż ej</w>
Do kumen
za krę
prze jazd</w>
bad anych</w>
technicz ny</w>
konsul tacji</w>
zorganiz owano</w>
cywi lnego</w>
J M
D z</w>
zastrze żeń</w>
dyscypli nar
Od ra</w>
muzy ką</w>
z no
Lubli n</w>
O ba</w>
Rob ak
powierzch nię</w>
elimina cjach</w>
dwo je</w>
No v</w>
osob owa</w>
Pi osen
mu la
dziw ne</w>
jeź dzi</w>
s we
doświad czeniem</w>
Łuka sza</w>
poto m
m ru
ota cz
za moż
ro dzi</w>
zrobi li</w>
ologi cznych</w>
osied le</w>
stra cili</w>
Często chowie</w>
Wy róż
Broni sław</w>
postanowi ła</w>
Te goro
py tam</w>
Roki ta</w>
otrzym ało</w>
ple ne
Ś mi
czy taj</w>
Za tem</w>
za dać</w>
ma sa
wywal czył</w>
ste ru
Jezu s</w>
mó wienia</w>
ne o
Bene dy
wi ki</w>
mo k
zna nym</w>
ra port</w>
gor ąco</w>
ce re
ż owej</w>
C er
spół kę</w>
t owanego</w>
S pa
Zawod nicy</w>
po żar</w>
Głów nego</w>
ślu b
I l
sz t</w>
ow nie</w>
K G
ludz kiego</w>
Su ł
re komen
realiz owane</w>
Rat ow
gra liśmy</w>
podję li</w>
d wie
6 37</w>
da k</w>
specjal nego</w>
r ki</w>
zna ków</w>
po rozmawiać</w>
ło dzi
pro sta</w>
Brze sko</w>
u mar
przy niósł</w>
Robak ks</w>
zre zyg
Inter na
Miej sce</w>
gos pody
zy ski</w>
po ciągu</w>
decyd ować</w>
przestrze ń</w>
prowadzi ło</w>
M ę
mag e</w>
Sta di
ws chód</w>
Rzecz nik</w>
hur tow
bi twy</w>
ła ś</w>
Na szym</w>
chle ba</w>
u p</w>
rodzin ny</w>
g ali</w>
rę ku</w>
Człowie ka</w>
Ś re
od miany</w>
Kro śnie</w>
w kład</w>
opi s</w>
pow al
niej szymi</w>
odci nka</w>
wy prac
zi ł</w>
zwycię stwie</w>
c kimi</w>
przy szli</w>
gó rza</w>
ń cem</w>
star sze</w>
Le piej</w>
radi o</w>
kin g</w>
zga dza</w>
U bezpie
na pły
za ata
ły ż
przy niosła</w>
ST O
ka cje</w>
05 03</w>
wi deo</w>
not ari
nio rzy</w>
2 012</w>
ty to
organiza torem</w>
największ a</w>
e waku
społe czny</w>
resz tę</w>
Ko sza
pły ta</w>
nie niami</w>
wynika jące</w>
po bra
dzisiej szego</w>
G RA
konfron tacji</w>
pat rz
si wa</w>
mniej sza</w>
kabar e
re alne</w>
oprac owania</w>
Jawor ski</w>
bo les
Bra m
uleg ł</w>
19 18</w>
Bi bli
istot ny</w>
pre para
wygra ną</w>
twór ca</w>
rzy na</w>
l ową</w>
za pyt
i r
koliz ji</w>
tema ty</w>
ros ną</w>
zdoby cie</w>
Ob owią
przegra ła</w>
pol sku</w>
podję ła</w>
ko v
prawdzi wą</w>
z rzesz
Pa bia
pom nika</w>
wpły wów</w>
loka tę</w>
du szy</w>
podej mie</w>
19 46</w>
Mari ana</w>
sie dział</w>
za decydow
archite ktury</w>
Jaro sława</w>
Wał brzy
Podob ne</w>
bi ur
Gł owa
p ęd
rod ą</w>
skute czne</w>
zrozumie nia</w>
sło ńce</w>
powiat owy</w>
k ując</w>
E gip
zdrow ie
szyb kiego</w>
najlep si</w>
bi u</w>
gie go</w>
de go</w>
pogo dzić</w>
Su per
pu char
4 15</w>
Pod hale</w>
prze chodzi</w>
tre n</w>
Gorli cach</w>
przewodnicz ąca</w>
zer a</w>
Sosnow iec</w>
R Ó
zatrzym ała</w>
A zji</w>
przyję te</w>
stara ją</w>
tu re
wal czy</w>
tań sze</w>
stra chu</w>
Do mini
roz oli
nor m</w>
Ł at
Ber linie</w>
mi ja</w>
Mod er
Mi li
ka wa
prz ód</w>
ra dzi</w>
wystąpie nie</w>
po daw
Te am</w>
rozpo czyna
energi ę</w>
aj a</w>
stwier dziła</w>
Publi cznej</w>
Swo je</w>
jubile usz
naz wać</w>
ze j
pojawi ć</w>
utra ty</w>
le wo</w>
In tere
Mu si</w>
uży wane</w>
sy pi
budże towych</w>
tury styczne</w>
po chy
Wszyst kich</w>
oce na</w>
Waw rzy
zwyk ły</w>
M oto
zach owy
nie wski</w>
ser cu</w>
przygot owań</w>
tygod niach</w>
f ę</w>
Staro stwo</w>
założy ł</w>
history cznych</w>
wyposa żenia</w>
obszar ów</w>
wy czerp
p to
przeciw u</w>
spra wami</w>
Wod a</w>
Ja bło
tabli cy</w>
społe czna</w>
Au to</w>
m no
wo ź
muzy cznych</w>
kan oc
Ra ch
pró b</w>
u miar
ko ni</w>
ka nia</w>
ar y
papiero sów</w>
prze szkód</w>
Win dows</w>
pr ąd</w>
19 40</w>
za szczyt</w>
poko je</w>
komen tuje</w>
konsu mp
Ro mu
c owej</w>
l nik</w>
wi dzą</w>
stwier dzenie</w>
prze ra
cy den
a ktu</w>
19 20</w>
kom bat
ż ej</w>
Ki j
obowiąz ujących</w>
Wój t</w>
świa tem</w>
spad ł</w>
zwięk szenia</w>
Ini cja
po gląd</w>
ka p
sen sow
kontrower syj
ze m
studi ach</w>
skoń czyć</w>
kos mo
za k
Ta m
za pytania</w>
robi ę</w>
Kin ga</w>
ide a</w>
chot y</w>
sp ędzi
pora dzić</w>
ości owych</w>
sma k</w>
2 85</w>
Ka me
jezi ora</w>
dzie le</w>
wy prawy</w>
Przy zna
lep sza</w>
Wę gier</w>
uzasad nione</w>
spowod owane</w>
d ałem</w>
Kró lew
Chor wa
p ali</w>
Prezyden ta</w>
W aj
wspo mi
prze czytać</w>
Ze m
człon ko
Pola ka</w>
poda nia</w>
Z ato
Czer wo
at e</w>
remon cie</w>
we so
O stro
R Z</w>
co kolwiek</w>
P rywa
szuka ją</w>
tyw nie</w>
Jo an
sk or
środ kami</w>
re a
publi czną</w>
sklep y</w>
me lod
Dębi ca</w>
u spo
an ę</w>
bezpoś redni
pogod y</w>
dow ie</w>
Ja z
T R</w>
RU DNI
nadz ór</w>
patri o
uzyska nie</w>
śla d</w>
konsu mentów</w>
kla sę</w>
chow skiej</w>
w cie
obowiązy wać</w>
pły cie</w>
history czne</w>
Me cha
poważ ny</w>
zde nerw
od prowadz
zamknię te</w>
obec ne</w>
ubezpie czycie
obserwa cji</w>
plane to
le żą</w>
Wi do
Bi ały</w>
zakoń czyły</w>
ge ografi
pił ką</w>
Wol bro
współczes nych</w>
i c
sil nik</w>
straż nicy</w>
Pi ątek</w>
zrezygn ować</w>
mniej szych</w>
ekra nie</w>
dekla racji</w>
kie p
miej ska</w>
studen t</w>
północ nej</w>
ali z
kapita ł</w>
Ukrai nie</w>
Austri a</w>
kamer y</w>
osob owości</w>
prze mawi
nauczycie lka</w>
zwolen ników</w>
za powiedzi
bram ką</w>
le ci</w>
szczegółow e</w>
kontynu ować</w>
szy ng
demon stra
wystąpi li</w>
prze chod
uzysk ała</w>
hie rar
got rw
telewi zja</w>
pieniędz mi</w>
wizeru nek</w>
Wej her
lewi cy</w>
dal szego</w>
za ra
pozosta ć</w>
bło gosła
fa l</w>
Wy da
odnoś nie</w>
ci o</w>
Po e
zda mi</w>
Ja błon
roz dzie
F an
Le cz</w>
męż em</w>
me mu</w>
od dał</w>
oficjal ne</w>
5 01</w>
g ość</w>
pro gu</w>
Qu entin</w>
od nosi</w>
Ś nie
oj cem</w>
cywi lnej</w>
c mentarz</w>
Z du
posta wa</w>
G M</w>
prywa tnej</w>
wa p
schroni ska</w>
li ne</w>
f ery
organiza tor</w>
pię tro</w>
ograni czyć</w>
1 26</w>
cu s</w>
Wschod niej</w>
puł kow
Me t
S obo
międzynarodow e</w>
za łącz
m ły
nie sz</w>
skaza ny</w>
ama tor
r ym</w>
dziewię ciu</w>
d owanie</w>
bu s</w>
Pe dagogi
wez mą</w>
u świado
wyda ją</w>
dowod em</w>
gra ni
Uniwersyte t</w>
za czną</w>
Bibliote ki</w>
regula minu</w>
prą du</w>
S py
Le gii</w>
je wskiego</w>
poważ nych</w>
ni skie</w>
do staną</w>
bra kiem</w>
ra portu</w>
eksper ty
czu ł</w>
wybo rami</w>
założy ć</w>
sią ść</w>
poglą dów</w>
cz ące</w>
inwesto r</w>
t ie
Kraj owego</w>
Przyja ci
będ ący</w>
DW U
Słow e
ose nek</w>
Tak ą</w>
w spó
ład nie</w>
za pomnieć</w>
st wu</w>
we szła</w>
kole k
pody kt
najwyż szym</w>
ści an</w>
publi cznym</w>
poch walić</w>
Rozpo czę
zwięk szyć</w>
X XI</w>
Wielko pol
kupi ę</w>
wypowie dzi
Micha el</w>
ci ty</w>
wymog ów</w>
U l
in du
wynik ało</w>
przepisa ch</w>
pi szą</w>
dru k</w>
rządow ym</w>
naj popular
nin g</w>
Re kreacji</w>
i sla
czy łam</w>
dzisiej szej</w>
no via</w>
pi lnie</w>
bi bli
gnę ły</w>
oto czenia</w>
u se</w>
nie zgod
N BA</w>
A ktu
SZ U
mal owanie</w>
Ros sa</w>
pad ek</w>
e d</w>
dokona nia</w>
Hiszpa nia</w>
zna cznej</w>
wa g
we l
nia ki</w>
spo ży
pono ć</w>
S owa</w>
od wró
ry ba
g lu
wy biera</w>
Le karze</w>
Przedsiębior stwo</w>
po trą
cu kier
ci m</w>
wari an
Izra ela</w>
Mona chi
dź wi
Mari usza</w>
uwa g</w>
pen sji</w>
wspom nienia</w>
lo dzy</w>
war t</w>
wybra no</w>
kontro la</w>
ch ta</w>
ło żenie</w>
cieka wy</w>
powsta ją</w>
zebra ć</w>
bie c</w>
e wange
z wane</w>
Ja ka</w>
po czyna
pł k</w>
wyobra źni</w>
odwro tnie</w>
za wartość</w>
peł nić</w>
p łod
kry teria</w>
nagro da</w>
t uję</w>
drzwi ach</w>
nowoczes ne</w>
fa u
fede racji</w>
kie wi
zapowiad ają</w>
wielo ma</w>
kto rat</w>
czyta ł</w>
4 31</w>
i ro
obra żeń</w>
bi ały</w>
pokaz y</w>
u wierzyć</w>
pro sty</w>
w nie</w>
spó r</w>
tele komunika
L on
przekaza ne</w>
budowlan ego</w>
Ż ołnie
rozm owach</w>
praw ną</w>
położ one</w>
le na</w>
ch ał</w>
S kow
sztu ce</w>
wypad a</w>
Ma gi
zio ł</w>
przerw ę</w>
k p</w>
znajd ujących</w>
wojewódz ki</w>
zastąpi ć</w>
2 40</w>
występ ować</w>
got owa</w>
Ko zi
jech ałem</w>
opuści ć</w>
kro ki</w>
zrobi ło</w>
przeby wał</w>
Oświat y</w>
prze ze</w>
ró sł</w>
tempera tura</w>
ogrom na</w>
praw ą</w>
rosyj skiej</w>
Pot wier
f in
Świę to</w>
Szyb ko</w>
struktu ra</w>
Ludwi ka</w>
zaopa trze
wykony wać</w>
nie wielu</w>
Elekt ro
pła tności</w>
ba z
wy niesie</w>
mieszkan ka</w>
pras owego</w>
odpowiedni m</w>
pu sty
minister stwo</w>
Ma u
bra ła</w>
Nie rucho
wypoczy nku</w>
Cz ym</w>
Ni ko
szczegól nym</w>
Podstaw owa</w>
Południ owej</w>
sp y
tr wa
rozegra no</w>
Cz war
pi osenek</w>
myśl ałem</w>
podej ście</w>
pen sjona
gos łu
wywiad u</w>
trafi ło</w>
zwło ki</w>
skut ku</w>
tyw ne</w>
in fla
co m
ja ją</w>
de ks</w>
cuk ru</w>
dług ość</w>
s przeci
warszta tów</w>
6 31</w>
zł ym</w>
Ś pie
ga te
Mich ali
Ka c
wej ściem</w>
ćwi czenia</w>
pią ty</w>
postęp owaniu</w>
do jeżdż
sa k</w>
odpowiad ać</w>
sy nów</w>
Okręg owego</w>
G en
spo strze
stra ciła</w>
grze ch</w>
chod ź
bud owania</w>
Za mo
sz czyzny</w>
za kazu</w>
ak ce
A wan
poś pie
b ra</w>
ba l</w>
na jem
ni sta</w>
sztu kę</w>
ti c
N BP</w>
Spół ka</w>
kry je</w>
al ski</w>
wy r
ter mo
każ ą</w>
dług im</w>
rozwi ja</w>
os o
uży ciu</w>
plac ówce</w>
defen sy
Budy nek</w>
sprób ować</w>
świę tego</w>
teni si
rzeź by</w>
że bym</w>
minist rów</w>
policjan t</w>
U n
Ja ni
Roz dział</w>
Za wa
Rzy mie</w>
V o
j ną</w>
gor ą
głos ował</w>
Ane ta</w>
Ma r</w>
przeciw ny</w>
se sja</w>
mó wienie</w>
ZAT RUDNI
wskaź nik</w>
ra ci
podzięk ować</w>
interpre tacji</w>
sz ała</w>
gaze t</w>
stwo rzył</w>
śmie je</w>
wyposaż one</w>
ba sen</w>
l owego</w>
poszuki waniu</w>
obiec ał</w>
Patry k</w>
do tacje</w>
zare zerw
kryteri um</w>
ogrom nym</w>
Mic roso
ta ra
oprac owanie</w>
nastąpi ła</w>
de ka
pomag ają</w>
Po m
sa kra
stra cić</w>
liz uje</w>
cel owo</w>
manda tu</w>
stał ej</w>
roz mowa</w>
ro py</w>
otrzy maliśmy</w>
koncep cja</w>
społe czno</w>
szczegó łów</w>
h e</w>
wy czer
społecze ństwie</w>
Wa len
pra sa</w>
ofiar ą</w>
rze ni</w>
syste my</w>
Trzebi nia</w>
wyrazi ć</w>
dotycz ącą</w>
Cze chy</w>
ma rzenia</w>
zagra niczne</w>
Wie cz
kowi c</w>
n nie</w>
trakt uje</w>
cj oni
stra da</w>
stanowi ły</w>
lan dia</w>
dó br</w>
man ów</w>
kul tura</w>
U waga</w>
tem po</w>
promo cja</w>
bo i</w>
se ł</w>
odbior ców</w>
ści anie</w>
gabine tu</w>
sa sel
Geor ge</w>
dzienni karz</w>
czy ce</w>
Za chodzie</w>
mniej szy</w>
A s
gru powa
C ari
a tacji</w>
M ER
de ba
f li
znajd ował</w>
b ri
teni sa</w>
udowod nić</w>
pręd kość</w>
ade n</w>
wz mac
samolot ów</w>
posł anek</w>
ho tel</w>
eg zy
przystan ku</w>
al nia</w>
mistrz owie</w>
odpowiedni ą</w>
a a
C re
O lej
g ru</w>
re cen
G ał
ch ó
di ą</w>
trenin g</w>
niewiel ki</w>
staw i</w>
Bie r
cieka wych</w>
specjali sta</w>
w kro
czy sta</w>
łow ska</w>
ktu arium</w>
szy by</w>
zamie rzają</w>
nie koniecznie</w>
Monachi um</w>
sk owe</w>
sportow ców</w>
le wa</w>
spowod owało</w>
do gad
prze pisu</w>
ura tować</w>
CH O
samolot u</w>
re fe
bur g</w>
wol nej</w>
gro szy</w>
za uważa</w>
za ro
H il
przewa gi</w>
now skiego</w>
zabezpie czenie</w>
wy niósł</w>
ra le</w>
łow ych</w>
Bo T</w>
Ś li
Pod gór
zni sz
cięż kiej</w>
Ś lu
19 43</w>
kwarta le</w>
ńst wu</w>
rodz aj
pozysk ać</w>
uczy nić</w>
matu rzy
rę ko
mieszka niowe</w>
Bełch atów</w>
mo rzu</w>
W nio
wykaza ć</w>
zna ku</w>
U ch
wy gry
s ca</w>
ekonomi czne</w>
na szymi</w>
prze bi
stu lecia</w>
otwo rzyć</w>
blo k</w>
odrzu ceniem</w>
ow ol
fina łów</w>
chcie liby</w>
ży wo
działa cz</w>
grun tow
uży wa</w>
Mad ry
Liman owej</w>
no szę</w>
stowarzy szenie</w>
regi on</w>
za poznać</w>
kar tkę</w>
wy dłu
Fryd ery
zwycię stw</w>
po jechał</w>
06 03</w>
rosyj skiego</w>
re mis
Wikipe dia</w>
h ot
k roku</w>
ne ss</w>
wod nych</w>
wspól nym</w>
Sy m
poraż ka</w>
Chłop cy</w>
si or</w>
wybo rze</w>
fan ów</w>
zna my</w>
7 50</w>
j ska</w>
m skiego</w>
hitle row
E mili
u dział
krę gosłu
skier owane</w>
i li</w>
czyn na</w>
ne n</w>
S kan
w dro
możli wy</w>
pozytyw ne</w>
Iz bę</w>
fi a</w>
2 60</w>
tury ści</w>
owo ce</w>
sygna ły</w>
c tw</w>
rze ka</w>
Nie mniej</w>
reali zacja</w>
rejestra cji</w>
świę tokrzy
s cenę</w>
trzy krotnie</w>
Akade mia</w>
kwad ran
ro dzie</w>
iz ra
ob chodzi</w>
pi wni
ty się
cze ść</w>
tle n</w>
ro ka</w>
lo tem</w>
będ ące</w>
świą t</w>
K F</w>
sze p
spę dził</w>
su nek</w>
sta l</w>
dziedzi ny</w>
s mar
prowadz ących</w>
bram ka</w>
Ludwi k</w>
T en
zadłu żenia</w>
pra wach</w>
przekaza nia</w>
Organi zacji</w>
z ny</w>
ba na
oby czaj
S ul
eg zo
dyscypli ny</w>
Wi śni
boha ter
o g</w>
ni ała</w>
Bą k</w>
cz kami</w>
uzna li</w>
Pow sta
dz kich</w>
Dzi ad
rodzin nej</w>
Zachod niej</w>
niezbęd nych</w>
bu jemy</w>
Kan dyda
Ka mie
wyglą dać</w>
odebra ć</w>
telewizyj nych</w>
uczni om</w>
służ ą</w>
był ym</w>
G C</w>
opi x</w>
Wę grzy
A c
Kło po
opowie ść</w>
dyre kcji</w>
ba ro
czeka li</w>
urlo p</w>
za cią
wszel ką</w>
by dgo
kow anego</w>
zdol ność</w>
za pi
wybor cze</w>
przedmiot u</w>
M Y
poe ta</w>
1 15</w>
ś ród
wier cie
przedstawi one</w>
05 08</w>
przy bli
zarządz anie</w>
ne uro
me dea</w>
Rów no
ba raż
najlep szej</w>
G il
gł ego</w>
we szli</w>
ga m</w>
kolej no</w>
zgin ęło</w>
władz ami</w>
ckie go
sk ot
I wa
ta l
wspól nych</w>
W stęp</w>
n ąłem</w>
sekre ta
prote stu</w>
S IE
Ch u
T an
w sta
pu sty</w>
obra dy</w>
lu bel
rzu cie</w>
szta fe
S mu
A kcji</w>
F ur
fizy czne</w>
su mę</w>
nog ę</w>
rozegra ne</w>
obec na</w>
pe ty
he r</w>
bar wy</w>
wy licza</w>
Zie lon
for d</w>
producen ta</w>
Papie ż</w>
usłysze ć</w>
propon ują</w>
po chod
rze czą</w>
autostra dy</w>
za spoko
właści wym</w>
Kazi mie
poja zdy</w>
kole kcji</w>
k owań</w>
zi o</w>
ni ały</w>
A R</w>
sa mi
kon ują</w>
podstaw ę</w>
pis m</w>
czyn ny</w>
bie r
powo dzenia</w>
mieszka ć</w>
oficjal nych</w>
opuści ł</w>
o sto
przyję li</w>
zwol nienie</w>
powo jen
plac ówkach</w>
zamor dow
koń czył</w>
C zaj
ste in</w>
bezpie czne</w>
sk owych</w>
przej ściu</w>
fe sty
u sa</w>
świado mie</w>
moty wa
podmiot y</w>
wy pły
dłu gotrw
łódz kiego</w>
dale ka</w>
wizy ta</w>
z in
ni onego</w>
t rze</w>
użytk owania</w>
wen ty
u spraw
Li ber
Powiat owe</w>
obywatel skich</w>
Tr wa</w>
pe l
mówi ło</w>
R Y</w>
bra cia</w>
mene dż
dol noślą
cmenta rza</w>
pomor skim</w>
ułat wi
czer wo
ga stronomi
wpły nęło</w>
handl owego</w>
1 12</w>
roz dziel
przyzna nie</w>
ckiego 12</w>
K tó
serwi su</w>
balu ckiego12</w>
Będ ę</w>
nie cki</w>
piłkar skich</w>
Biel sko</w>
m ob
19 48</w>
pracow nikami</w>
ksią że
k wia
pod pisy
powod y</w>
obchod y</w>
Cze ch
Pamię ta
WYTNIJ TO</w>
poświę cone</w>
cyj ności</w>
Tur cji</w>
general nie</w>
rzu ty</w>
ra ć</w>
budy nkach</w>
kraj owego</w>
Hi sz
Ri char
wy produ
Ko ło
dotychczas owe</w>
4 0
party zan
mo na</w>
ST Y
ćwi czeń</w>
ab c</w>
ń sku</w>
hy dro
T ę</w>
samo lot</w>
os ł
two rzeniu</w>
su fi
kilku set</w>
prowadz ono</w>
log u</w>
rachun ki</w>
t ujących</w>
li ło</w>
Mi ss</w>
O S</w>
K en
Pod opie
ście ż
bież ącego</w>
dyplo my</w>
D osta
19 69</w>
postawi ł</w>
wykonaw ców</w>
zasię gu</w>
kra jem</w>
t ała</w>
mod el
ba s</w>
atmosfer ę</w>
zagro żeń</w>
zmar t
si ó
rza dziej</w>
przygot owana</w>
JM Ę</w>
prze żyć</w>
Wa si
benia min
m owym</w>
kon tr
ru cha
k ki</w>
trady cyjne</w>
atmos ferze</w>
Przyjaci ół</w>
fizy cznego</w>
ni ane</w>
odnale źć</w>
PR OWA
ni ów</w>
bie gł</w>
ograni czeń</w>
Pro ces</w>
ra dia</w>
dze niach</w>
Spor towy</w>
kobie r
licen cji</w>
przy jechała</w>
kontu zj
u warun
komó rek</w>
bó lu</w>
og i</w>
Stani slaw</w>
mi ałaby</w>
wykona ł</w>
in cyden
rzy n</w>
wie działem</w>
h ut
Olku sz</w>
pi on
pozna ńskiego</w>
PI T</w>
zesta w</w>
wal czyli</w>
funk cjona
wynika jących</w>
u x</w>
zach ód</w>
S ki
genera ł</w>
PO D
Wło cła
prawdopodob ne</w>
potrzeb ują</w>
Tu sk</w>
finans owo</w>
urlo pu</w>
wy jechać</w>
rywa lem</w>
powie dzenia</w>
Ch od
Cho rzów</w>
Zdję cia</w>
pro si</w>
stara my</w>
przedsięwzię cie</w>
za bieg
zdecydow ała</w>
Adam czyk</w>
obsłu gi
i so</w>
publi czna</w>
dan ce</w>
Dol na</w>
stwa rza</w>
godzi na</w>
inicjatyw ę</w>
za r</w>
kore sponden
Afry ki</w>
6 50</w>
st ół</w>
ma ch
propozy cją</w>
zastrze żenia</w>
Je l
G waran
sło ńca</w>
przy nieść</w>
u spoko
Ty si
Mar tin</w>
S D
roz wa
wy brze
sun ął</w>
oczeki wanie</w>
hekt arów</w>
podkre śl
niesam owi
Ko p
ek spon
kt ry
opty mal
lu s</w>
De parta
zda ch</w>
O strze
Ci ąg
i ła</w>
wpad ła</w>
re zo
owo ców</w>
2 80</w>
myśla ł</w>
K y
usta lił</w>
wy co
jeżdż ą</w>
PROWA DZ
uży wać</w>
patrzy ł</w>
Cen y</w>
pierwsz e
ru szył</w>
miejsc owym</w>
S mi
Edy ta</w>
Rad om</w>
przywi lej
f r</w>
O n
ja s</w>
ut wór</w>
pa uz
gra nicz
Zat rzym
sta wek</w>
złoż ony</w>
ne san
organ u</w>
gra tka</w>
zagra ż
general nego</w>
Bar tek</w>
19 0</w>
Psy cho
parlamentar nych</w>
In ni</w>
general nej</w>
ó zł</w>
syn te
odz wiercie
jesie nnej</w>
Koper nika</w>
od mówił</w>
zamknię ty</w>
przy god
odpowiad ał</w>
6 34</w>
z mianą</w>
Funk cjonariusze</w>
V D</w>
19 41</w>
wrac ają</w>
zdą żył</w>
tam tej</w>
zezna nia</w>
tytu ły</w>
F ot
francu skiego</w>
a nin</w>
ob co
elektry cznej</w>
prawidłow o</w>
kar ski</w>
C la
man u
należ ących</w>
z wa
młod a</w>
bezdom nych</w>
chor y</w>
na sta
dzie jów</w>
przyzwo i
uczu cia</w>
Ma ra
przyję to</w>
pożar nej</w>
Wawe l</w>
ół ek</w>
WYTNI J</w>
ru chem</w>
dystan s</w>
me d</w>
księ gar
przy wo
doro bek</w>
Do kład
We ne
S Y
Mog il
nabo że
ły śmy</w>
B rak
y śmy</w>
chwi la</w>
O sób</w>
tycz nymi</w>
konkre tnie</w>
finans owy</w>
ł ko</w>
Fina ł</w>
reda ktor</w>
P ry
Re i
dy spo
rezulta cie</w>
zainteres owany</w>
Maz ow
sa teli
Kie ł
czyst ej</w>
chodz ące</w>
człon kami</w>
nau k</w>
nie wicz</w>
skute czności</w>
Słu żby</w>
rodz aje</w>
szko dę</w>
T I
Szy mański</w>
sław owi</w>
gospodar stwo</w>
samo chodzie</w>
zi one</w>
wy niosła</w>
tek stem</w>
Gre cji</w>
prze ślad
słu pek</w>
Pe ter</w>
G AR
super marke
bezpła tnie</w>
a któw</w>
sz wajcar
K Ę</w>
ra m</w>
Po goni</w>
zapła ci</w>
u stosun
Kon op
formal ności</w>
t owani</w>
warsza wskim</w>
wier szy</w>
cie szę</w>
przeja zdu</w>
nie bo</w>
obni żenie</w>
e cki</w>
li stu</w>
trzy ma</w>
sti ana</w>
ban kru
okupa cji</w>
przypad a</w>
Ch ro
Przed szko
profila kty
owi anie</w>
Y or
kon te
aktyw ność</w>
a gro
pojawi ło</w>
wal czą</w>
ni ające</w>
t kan
Okręg owej</w>
prze grywa
wykony wane</w>
po została</w>
przed miot</w>
sj on
skon takt
wyjaś nienie</w>
przy cze
miejscow ościach</w>
czyn szu</w>
czerw oną</w>
efe któw</w>
tłu m</w>
skut kiem</w>
Rzecz pospoli
sły szę</w>
s prost
wykorzy stali</w>
Piot rowski</w>
J os
śle nie</w>
Dob ra</w>
DWU POKOJOWE</w>
ow ałam</w>
czyta niu</w>
soli dnie</w>
kwadra towych</w>
podzi wiać</w>
Ka czyńskiego</w>
oskar żony</w>
Koro ny</w>
R ę
orze czenia</w>
Re y
Ko ź
powod ują</w>
N SZ
la rze</w>
and ry
przyja ciel</w>
NI CA</w>
pow tór
para li
dz onego</w>
J O
2 30</w>
ka na</w>
du ch</w>
Raf ała</w>
O ct</w>
kup ować</w>
Widze w</w>
KU PI
Wie my</w>
pi o</w>
sp yta
rządow ego</w>
sia ka</w>
młodzie żą</w>
Si dor</w>
p lot
sportow ym</w>
ra cją</w>
c al
M DK</w>
wie ży</w>
po g
mi os
wykonaw cy</w>
s ale</w>
ziel one</w>
Pała cu</w>
He t
bada niach</w>
no żna</w>
st rój</w>
ład un
izra el
Ka pi
Po got
inf lacji</w>
ow ników</w>
dłu gu</w>
ral na</w>
Wa szyng
ole ju</w>
sz en
Sande cji</w>
t wach</w>
dy skry
rehabili tacji</w>
Zi ob
cór kę</w>
nie powtarz
wczoraj szej</w>
inicjaty wa</w>
W en
okreś lonej</w>
parlamen cie</w>
ofi a
adre s
ty zm</w>
sko k</w>
M O</w>
5 5
naj trud
a ń</w>
prze cią
Zygmun ta</w>
gospodar ka</w>
Ofi cjal
za atak
Chrzan ów</w>
Boch nia</w>
loka le</w>
przykład y</w>
te sty</w>
ogó lne</w>
ty ny</w>
wykona no</w>
ry wale</w>
drob nych</w>
do konuje</w>
w lek
wyda rzenie</w>
woje nnym</w>
Muzy ka</w>
cho in
zdrowot nych</w>
zagad nienia</w>
sasel lo</w>
pi sz</w>
skoń czy</w>
cz nika</w>
indywidu alnie</w>
u kształ
odszkod owanie</w>
Ż ar
handl owe</w>
ST WO</w>
miłoś ników</w>
ła ska
nie uczci
prze kaz
siedzi ba</w>
Staro stwa</w>
ponie si
197 1</w>
więzie niu</w>
z o</w>
wyro by</w>
Marze na</w>
ko nie</w>
Or kan</w>
Gmin nego</w>
Bud że
ot wiera</w>
Austra lii</w>
je ść</w>
rzą dzenie</w>
czo rek</w>
spowod ował</w>
Słu ż
der u</w>
trady cyjnych</w>
przypomi naj
dzie m</w>
koni un
in stan
dystan su</w>
pły nie</w>
G roz
formal nie</w>
f ri
fa bu
1 23</w>
x x</w>
najwyż sze</w>
bud uje</w>
od a</w>
vil le</w>
konstru kcja</w>
Davi d</w>
eksplo atacji</w>
zach ował</w>
podob nym</w>
kapi tu
Inicja ty
dokona no</w>
T ło
San o
poświę cony</w>
ni anka</w>
B ły
Fun da
sze wicz</w>
Mie chowie</w>
trafi ą</w>
ry cer
Myśle nice</w>
rze mieśl
og o
urzę dy</w>
zda rzyło</w>
oby dwu</w>
Uni ted</w>
Wy sp
tegoro cznej</w>
Ś mie
zgło szeń</w>
uzasad nienia</w>
Kró tko</w>
Plat forma</w>
łą czyć</w>
um owie</w>
dotar ł</w>
dyre ktorzy</w>
B B
Dari usza</w>
A I
Bal cer
dz ania</w>
pro sto
der a</w>
1 06</w>
ti onal</w>
Po pra
l ska</w>
Se p</w>
ie r
la wi
nau ce</w>
następ nej</w>
szczegól ny</w>
pracodaw ca</w>
rz ać</w>
ce rami
medy cyny</w>
prowadzi my</w>
fi sk
dy ry
kieru nkiem</w>
part nerów</w>
u sta</w>
tur nie
obi ad</w>
dol by</w>
złoży ła</w>
Musi ał</w>
P arty
z większa</w>
se mi
Hist or
tra s</w>
da ta</w>
Ko ninie</w>
wil got
la to</w>
wej ści
z jad
ustro ju</w>
centra lnego</w>
f ów</w>
Wo ło
chro nić</w>
sp re
Au s
za kwalifikow
o ne
dy kt
studi um</w>
Sena cie</w>
prac ujący</w>
sty ce</w>
szczy tu</w>
Wydaw nictwo</w>
a ńskiego</w>
Archi te
Sta ty
Przedsiębior stwa</w>
wi ał</w>
zorganiz ował</w>
obserw ować</w>
sąsiedz twie</w>
l skim</w>
ro czne</w>
zd ob
O sied
organiz owanych</w>
proce sy</w>
interne tu</w>
si on</w>
ni onym</w>
pe dag
zmar n
C lub</w>
ze r</w>
przyj mie</w>
Szwajcar ii</w>
06 08</w>
zrozu mi
arty stycznych</w>
twier dził</w>
NSZ Z</w>
symbo lem</w>
u szcze
funda menta
nie dzieli</w>
Du da</w>
zasad ami</w>
emery tów</w>
Rodzi n</w>
usz owi</w>
E N
sie ń</w>
an ci</w>
Nau k</w>
po rad
dob i
kur sów</w>
Sre br
Gra nicznej</w>
pielęgni arki</w>
przy szłoro
Dzie r
dotycz ąca</w>
Narodow ym</w>
su s</w>
Dąb rowskiego</w>
do gry
kwo cie</w>
zezna ń</w>
Romu al
tow aru</w>
był ej</w>
rzy k</w>
Międzynarodow ego</w>
na przeciw</w>
młod szy</w>
przyzna ją</w>
ozna czać</w>
u talen
zaangaż owanie</w>
c ó
OF E</w>
tor owi</w>
cho rego</w>
pa try
K rz
więźni ów</w>
B ada
wad y</w>
G an
do leg
Prze pisy</w>
be j
wej dzie</w>
istot nych</w>
Z mieni
i sta</w>
Lubli nie</w>
Re kor
skoń czyło</w>
U zna
roz um
Mił oś
19 42</w>
niespodzie wanie</w>
dz w
chło piec</w>
na cki</w>
dzie cia
bieg nie</w>
E ri
pi li</w>
rosyj skich</w>
semina rium</w>
Di a
pły wal
obję te</w>
przyto m
Za cz
ucie kł</w>
z ba
za kaza
tr ąc
instytu cja</w>
Ukrai na</w>
D Y</w>
na cjona
19 47</w>
Ju trze
przedsiębior stwo</w>
w prowadzeniu</w>
R OW
kie li
zad b
pokaz ują</w>
sprzy ja</w>
wro c</w>
S K</w>
pomyśle ć</w>
y ka
wyż szym</w>
szczegółow o</w>
kow anym</w>
możliw ych</w>
Mal a
Pawe l</w>
ek spo
K ła
histor ią</w>
PRZE PROWADZ
ja zd
gwaran tuje</w>
na krę
pro po
t nymi</w>
dz my</w>
wspól ny</w>
u ze
R S</w>
pun ktach</w>
wąt pienia</w>
przedłu ż
Cie sie
ak cją</w>
organiz m</w>
1 04</w>
CJ E</w>
de ta
Ma ch
kur s
komp letnie</w>
x 3</w>
Bi zne
O polu</w>
Po przed
M niej</w>
uwa ga</w>
t rzę
europej skie</w>
zag roz
An ty
skon stru
pielę gna
e go
ho o</w>
sprzed a</w>
srebr ny</w>
daw ało</w>
sły szałem</w>
sły n
nadzor czej</w>
sch e</w>
zmar łego</w>
ści ąg
słowa mi</w>
na wo
Man che
ko ordyna
ubezpiecze niowych</w>
podpisa nia</w>
ugrup owania</w>
g owym</w>
wspani ałe</w>
dy kta
koncer cie</w>
Prą d
now ska</w>
rozstrzygnię cia</w>
m skiej</w>
St wo
K wie
D r</w>
nie niach</w>
Budow lan
s ną</w>
stawi ać</w>
ga na</w>
Wró ble
row o</w>
tarnow skiego</w>
Sta ch
że niach</w>
Wiel kim</w>
H ura
ru g
GA Z</w>
d łoni</w>
Ze bra
odej ść</w>
pa trz</w>
szowi anka</w>
dzisiej szych</w>
Ni xe</w>
podat ników</w>
Ka sprzy
Naj święt
przy kry
t owanym</w>
łą czenie</w>
Sza n
A sasello</w>
Tra fi
Kry stian</w>
zastęp cy</w>
kamie ń</w>
czyn niki</w>
Ta kich</w>
cz ący</w>
Ro na
budow lana</w>
po ciąg
sty k</w>
jedna kże</w>
c owy</w>
dystan sie</w>
Szczeci nie</w>
przewa ga</w>
dz kie</w>
19 67</w>
francu skiej</w>
stosow ne</w>
Je rozoli
obowiąz ują</w>
uro dzenia</w>
li cznie</w>
dziel nic
ma tką</w>
Oko cim
kandyda ci</w>
Niem cami</w>
19 57</w>
przebie ga</w>
słod y
p p</w>
vi ą</w>
gos z</w>
rezulta t</w>
czy naj
pis ała</w>
stro je</w>
młod ości</w>
G IE
Bi lety</w>
Dol nej</w>
Wiśnie wski</w>
zabój stwa</w>
prze niósł</w>
ro gu</w>
samorządow e</w>
ła wce</w>
05 05</w>
G ę
w draż
ś ka</w>
wy ba
daw ne</w>
War tość</w>
staro stwo</w>
do le</w>
Ma y</w>
os u</w>
we dle</w>
P in
su ma</w>
kieł ba
prze budowy</w>
ustro j
zakup ów</w>
t ości</w>
Naro dzenia</w>
prze stał</w>
Komis je</w>
Najlep szy</w>
futbo lu</w>
M ała</w>
Rodzi ny</w>
dy skre
mier nie</w>
rządow e</w>
bi k</w>
ra my</w>
C A
j skim</w>
na ślad
zależ ało</w>
ti c</w>
numer y</w>
po szła</w>
owi sku</w>
di ę</w>
t wój</w>
wie ków</w>
wy budować</w>
istni ała</w>
kon wencji</w>
popular ność</w>
Ko ch
g war
R I
ud any</w>
god ności</w>
częst ot
Bie la
pan slavista</w>
powoł any</w>
otwo rzył</w>
Plu s</w>
po ła
wy dano</w>
Rzy mu</w>
Po moc</w>
Sz ta
abo na
pocz ątkiem</w>
K row
przy tu
g nie</w>
przygot owała</w>
poinform ować</w>
wewnętrz ne</w>
kontynu a
kow ały</w>
interne cie</w>
Muzy cznej</w>
ter miny</w>
Sz ar
for tu
zawod niczek</w>
Ne w
mod y</w>
sen ty
k nie</w>
do ktora</w>
ta trza
po nosi</w>
E s
me dali</w>
moderni zacja</w>
małże ństwo</w>
spo tyka</w>
zabie gi</w>
pocz ty</w>
wra żenia</w>
spad a</w>
uzbro j
G la
gra cze</w>
Dona ld</w>
kow anej</w>
orkiest ry</w>
par y
Da nii</w>
pacjen t</w>
wstęp nych</w>
T ry
czyn u</w>
z rze
la ją</w>
la tar
kwalifika cje</w>
W zi
standar dów</w>
6 66</w>
Powiat owym</w>
Sa ra
P ta
Biel sku</w>
K r
05 00</w>
Fe b</w>
a st
budow any</w>
pis ane</w>
hi gie
Sie ra
me na</w>
obro nę</w>
rocz nik</w>
sła wiu</w>
dzi wi</w>
czy ta</w>
le dwie</w>
per ium</w>
są dy</w>
ukry wa</w>
popular ne</w>
przy się
Brze sku</w>
wal ory
oficer ów</w>
pat rząc</w>
metod a</w>
warsza wskiego</w>
szy nie</w>
19 50</w>
ow em</w>
by wają</w>
trady cja</w>
ma rzeń</w>
igrzy sk</w>
dowód ca</w>
Od ry</w>
odzysk ać</w>
mi ach</w>
intere sie</w>
z budować</w>
podob nej</w>
cz ał
do jazd</w>
od u</w>
regi onów</w>
19 60</w>
jako by</w>
gimna stycznej</w>
u koch
men tach</w>
ch c
łoż ony</w>
Ty chy</w>
chwi tz</w>
ha b</w>
dyre kty
zarob ki</w>
ka li</w>
stara ń</w>
CI E</w>
pokole ń</w>
ku pow
zmniej szyć</w>
tram waj
bazyli 4</w>
za wartości</w>
Kli m
bi i</w>
stypen dium</w>
tor u
obro ń
Samo chód</w>
dowie dział</w>
jak że</w>
dzie cku</w>
spraw nie</w>
wspom nieć</w>
od szedł</w>
stara li</w>
zorganiz owany</w>
Ca sper</w>
przy niosły</w>
Spotka nia</w>
rozporzą dzenie</w>
przeszka dza</w>
Pię ć</w>
czar ny</w>
wi try
bec k</w>
wykorzysty wane</w>
remi su</w>
uczestni czyło</w>
Kierow cy</w>
po czę
najwyż szy</w>
F akt</w>
zapa ch</w>
Mosk wy</w>
FI R
ren owa
re zyden
wymia rze</w>
łą cznej</w>
osied li</w>
Cezar y</w>
mu zuł
s pro
AN A</w>
dostęp ny</w>
osią gnął</w>
speł nić</w>
u kazał</w>
użytkow nika</w>
klasz toru</w>
Ku ba</w>
poś redni
nosi ła</w>
szczęśli wy</w>
zorganiz owane</w>
1 07</w>
t ing</w>
Tłu ma
Ju gosła
wi dząc</w>
zoba czył</w>
w łó
przyjm owane</w>
sędzi owie</w>
wyso kiego</w>
precyzyj nie</w>
ut ka</w>
bo le
śmie t
wz nowi
premie rem</w>
puści ł</w>
t ęt
Mi ała</w>
ode z
zaczę to</w>
organiza cyjnych</w>
Han s</w>
ad u</w>
Dyre kcja</w>
N ÓW</w>
bo m</w>
na sy
satysfak cjon
dow ódz
skoń czyła</w>
musi ałem</w>
u pra
rozry w
Po pie
rów ka</w>
wybra li</w>
rosyj ski</w>
Fede racji</w>
widzi my</w>
chorob ą</w>
re dni</w>
robot ników</w>
europej skiego</w>
autobu su</w>
wykorzystan e</w>
Pol sa
Da w
wymieni one</w>
szczy źnie</w>
c twem</w>
ma ń</w>
ja bł
ma tury</w>
uśmie chem</w>
O pen</w>
waż niejsze</w>
określ onym</w>
Ty dzień</w>
dy sk
1 35</w>
przewi dzieć</w>
znie chę
Często chowy</w>
f ali</w>
łódz kim</w>
dz ej</w>
Zen on</w>
zło tego</w>
cz owi</w>
we ł
bezpie cz
urodzi n</w>
or ka</w>
to rom</w>
chwi le</w>
Szwe cja</w>
los u</w>
M SZ</w>
li wym</w>
19 66</w>
ubie gać</w>
Ży dzi</w>
wy dany</w>
zosta wić</w>
wi dzieć</w>
dział ające</w>
d ri
róż nym</w>
Małopol ska</w>
Sztu k</w>
litera turze</w>
sej miku</w>
Kar tu
peł nego</w>
dzie cie</w>
g li</w>
ko per
rozumie ć</w>
wy żek</w>
Głów nej</w>
O ce
Le śniak</w>
ż eni</w>
musie liśmy</w>
ogrze wania</w>
Z J
syste ma
wskaza ć</w>
Ł ot
zainteres owane</w>
tegoro cznego</w>
od mian</w>
szan są</w>
kto ratu</w>
Wawe lu</w>
oj czyzny</w>
ośrod ki</w>
pojawi li</w>
kwa te
aut onomi
społe cznie</w>
zastos owania</w>
czwar tym</w>
ra mienia</w>
su we
muzy ce</w>
e stra
przej rzy
Wil hel
Jadwi gi</w>
normal ne</w>
kot łow
ht ml</w>
zatrzy my
g on
o kład
Parlamentar ny</w>
ogó lnie</w>
wyści g</w>
da ż</w>
przestęp stwo</w>
soł tys</w>
jecha liśmy</w>
z dziwi
rehabili ta
6 6
Dob ry</w>
słu żył</w>
świad czą</w>
loka lizacji</w>
Przy czy
Wl kp</w>
zaba wę</w>
S Ą
ła ci
śla ł</w>
rozegra ł</w>
ape l</w>
du m
sko ku</w>
su jemy</w>
porozumie niu</w>
A k
ku po
Ma ty
woj sko</w>
min utę</w>
ob lig
ogranicz a</w>
Bel gii</w>
się gają</w>
Wy nika</w>
War ta</w>
m owie</w>
socjal nych</w>
poprzed nio</w>
ko nia</w>
ści ach</w>
szacun ku</w>
od dali</w>
nie prze
cz ała</w>
przygot owano</w>
noc leg
odebra ł</w>
przy ciąg
wojewódz kiej</w>
łó żka</w>
drog ie</w>
E LE
bizne s</w>
SK O</w>
g ady</w>
og le</w>
hal a</w>
szko łą</w>
urodzi ny</w>
ob sa
nie rów
g owie</w>
czyt ałem</w>
popro sił</w>
Bi or
Mał e</w>
do k
in ą</w>
dotychczas owy</w>
sezo nem</w>
c ke
pół noc</w>
niejedno krotnie</w>
Bar ce
łat wiej
zysk ał</w>
Por ę
bram karzem</w>
zamknię ta</w>
pa ro
ży wi
un g</w>
za mel
ne cki</w>
a parta
ró że</w>
popraw ką</w>
li cze
Wewnętrz nych</w>
przy stęp
Profe sor</w>
stwier dzili</w>
Społe cznego</w>
Krzy ża</w>
O lek
Bra zyli
śpie wa
złodzie je</w>
E wange
k ły</w>
se cie</w>
Wiat r</w>
K U</w>
mon ogra
stan em</w>
doty czyć</w>
li ber
L y
zabie gów</w>
zało żeń</w>
Republi ki</w>
mo nar
c owa</w>
Gą sie
d ym</w>
napis ane</w>
numer u</w>
do mi
przyja ciela</w>
zło to</w>
zosta ją</w>
N I</w>
matema tyki</w>
skar gi</w>
dziewczyn ki</w>
4 5
op cji</w>
AT A</w>
podejrz anych</w>
egzy sten
P CK</w>
wy razy</w>
far mace
emeryta lnych</w>
zorganiz owanej</w>
4 26</w>
ch ii</w>
po stawę</w>
b l</w>
sto łu</w>
możliw ością</w>
manda tów</w>
Orkiest ry</w>
re cki</w>
połu dniem</w>
Mi rek</w>
We so
wn ę
standar d</w>
ścia nach</w>
D VD</w>
za ofer
Mi ę
K we
U dział</w>
de szcz
zaję ły</w>
Kodek s</w>
za zdro
zapo mina
piw nicy</w>
drzwi ami</w>
posta cią</w>
poraż kę</w>
dłu ga</w>
jubile usz</w>
prawdzi wym</w>
oryz on
06 05</w>
wie kowych</w>
Aus chwitz</w>
ni sz
rabi a</w>
jaz z
Nau ki</w>
staw u</w>
szyb ki</w>
medal u</w>
ewentu alne</w>
L ę
u i
trady cją</w>
bi ur</w>
kon gre
bu rz
dzie lić</w>
kierow cę</w>
przerw ą</w>
Ma sz</w>
przy jezd
Pla n</w>
ku ren
ha t</w>
Radi o
Lesz no</w>
ch ór
plan em</w>
przy byli</w>
Arty ku
że byśmy</w>
cięż ki</w>
talen t</w>
soju sz
D wó
a nio
Da lej</w>
muzy ków</w>
Sze wczyk</w>
krzy ż</w>
kompeten cje</w>
Cieka we</w>
wodo ciąg
skrzy dła</w>
Je zio
L ak
tru je</w>
wypo czyn
gatu nki</w>
mor i
Księ ży
s fery</w>
be ski
szcz ą</w>
zaprezent ował</w>
a ktorzy</w>
świet licy</w>
ci szy</w>
ą b</w>
si ng
dotar ła</w>
mecha nizm</w>
rekla m
stał ym</w>
ci cho</w>
grzy wny</w>
1 03</w>
prywa tnym</w>
Z gło
Zd rój</w>
ra ny</w>
zdoby wając</w>
informa cją</w>
napi sa</w>
4 18</w>
O ffi
wa dze</w>
lu ź
dwó j
a pro
prze sta
technicz nego</w>
Wad owice</w>
uważ ał</w>
musi sz</w>
trafi li</w>
zasłu gi</w>
wykorzyst ując</w>
arty styczny</w>
potrafi ę</w>
w stęp</w>
War szta
poś le
trybu ny</w>
zie leni</w>
du szpa
nie ją</w>
got owi</w>
4 7
róż nie</w>
market ingu</w>
znacz na</w>
Komen dan
podatkow e</w>
po pisał</w>
dopła ty</w>
dow skiego</w>
Wojcie chowski</w>
M ode
dług ich</w>
wi gili
H U
od mawi
ki mś</w>
wy mienia</w>
19 38</w>
Ku ja
nau kowców</w>
two rzy
chodz ący</w>
potencjal nych</w>
że gl
łow ej</w>
kole j</w>
le ckiego</w>
ba n</w>
przyjem ność</w>
re publi
entu zjaz
re kompensa
pozna ńskiej</w>
Toru nia</w>
gmi nne</w>
re form</w>
pią tej</w>
history k</w>
nicz anka</w>
natural nego</w>
05 06</w>
przypad kowo</w>
czar no</w>
gwałtow nie</w>
mo r</w>
Zał o
papier ów</w>
szuka ł</w>
ewi dencji</w>
nie znany</w>
mia stu</w>
sty lem</w>
Nie wiele</w>
ce sar
E mery
US D</w>
W ron
re spe
aktor ka</w>
za koch
Maz ur
ja jąc</w>
papier u</w>
konie czna</w>
Wielkopol sce</w>
ślą skiego</w>
je dziemy</w>
si my</w>
so rem</w>
PK B</w>
ra j</w>
ci ch
Ko ni
ho ł
przy niesie</w>
tam tego</w>
pew ny</w>
za i
zgod a</w>
Edwar da</w>
koncep cję</w>
niepodległ ości</w>
Ewe lina</w>
wiosen nej</w>
umiejęt ność</w>
Poja wi
wy szli</w>
bli skich</w>
X i
k ujący</w>
a bor
Wę gry</w>
Nag le</w>
uzna no</w>
pa ch
Za pro
międzynarodow ym</w>
grz bie
Koz łowski</w>
człowie kowi</w>
k łos
Jaku ba</w>
pod pisać</w>
Re al</w>
ni my</w>
el blą
za skar
Ch in</w>
la sach</w>
przy jedzie</w>
sto łe
opie ra</w>
mo cą</w>
wstrzy m
c kiemu</w>
przygot owaw
wer sal
Z HP</w>
pisa rza</w>
G niez
ocze kuje</w>
A nio
sil nika</w>
la sy</w>
ST AR
medy cznej</w>
W RO
Ba zy
dyre kcja</w>
zaprezen towali</w>
a rab
czoł ówce</w>
Stra te
sta tku</w>
popraw kami</w>
19 49</w>
s przeciwu</w>
daw ali</w>
ponad gimnazjalnych</w>
podkreśla ł</w>
TV N</w>
szcza nie</w>
popular nością</w>
Ma jewski</w>
trzydzie ści</w>
by cia</w>
6 47</w>
ak cy
lad y
5 000</w>
Pi le</w>
l no</w>
pochodz ących</w>
ń czy</w>
j ał
ologi cznej</w>
ja j
do radz
er y</w>
boha ter</w>
Koło dziej</w>
my mi</w>
sto r</w>
kieru nków</w>
angiel skim</w>
koszy kar
koali cja</w>
Ja m
Ar ka</w>
tycz no</w>
zyj nej</w>
położ ony</w>
ry sunek</w>
po piera</w>
sie dz
uro kra
spowod owały</w>
laure atów</w>
skar b</w>
Orkiest ra</w>
pole mi
Wła s
Racibo rzu</w>
pojem ności</w>
p taki</w>
największ ego</w>
yo u</w>
ko lar
19 19</w>
O pole</w>
er i
zamk nąć</w>
Właści wie</w>
podob ną</w>
cz wo
we r</w>
wró cili</w>
nie szczę
pole cenie</w>
wi sz
z gra
g ową</w>
gór ników</w>
c ol
ul ski</w>
podleg ają</w>
Prze mek</w>
grafi ki</w>
nie li</w>
la j
technicz nej</w>
okaza li</w>
ti na</w>
uleg ła</w>
ał ą</w>
ra p
rze ko
miliar dów</w>
Czar ny</w>
Pat ri
apara tu</w>
fotogra fie</w>
row er</w>
nie wol
ka cja</w>
Gie ł
Promo cji</w>
prze mian</w>
dy r</w>
D ane</w>
kola na</w>
ie ństwo</w>
19 64</w>
za wodzie</w>
zasad niczej</w>
strzela ł</w>
cz kolwiek</w>
c owi</w>
Trze ch</w>
zda rzyć</w>
pi ra
oce n</w>
znaj dziemy</w>
D ud
sza cu
P oś
cir c</w>
stra sznie</w>
okrę gowej</w>
Swo ją</w>
Cz ego</w>
zgło siło</w>
wykorzyst uje</w>
pu la
bo k</w>
jakie kolwiek</w>
kwi t
rz owa</w>
Pra g
inwesto rzy</w>
przygotow ują</w>
natural nych</w>
udziela nia</w>
przeznacz ona</w>
Zachod u</w>
wy pa
Niepodległ ości</w>
ta niec</w>
cyj ność</w>
wyklu cza</w>
li czył</w>
Gli wice</w>
st łu
wyj ście</w>
poz wolą</w>
odpowiad ają</w>
two rząc</w>
u grupowa
li liśmy</w>
go łę
c an
chod nika</w>
brz mieniu</w>
Sien kiewicza</w>
skrzy p
za gry
telewi z
zda ją</w>
gospodar kę</w>
ła ńc
te t</w>
uważ ać</w>
znacz nym</w>
pół finale</w>
Rejon owego</w>
T al
oświad czeń</w>
hum oru</w>
Brak uje</w>
szla k</w>
łos i</w>
Zost ała</w>
su ch
Do skona
powiat owe</w>
Tat rach</w>
rozpoczę ło</w>
malar stwa</w>
wer nisa
trady cje</w>
prywa tnego</w>
Irlan dii</w>
ser ię</w>
J od
zawiera ją</w>
złodzie i</w>
prze le
sa memu</w>
L e</w>
dzi ony</w>
Współ czes
Samo obrona</w>
ście żki</w>
udzie lenie</w>
rewe la
Ka zach
RU M</w>
junio rzy</w>
wyż sz
kradzie ż</w>
sta cje</w>
sekun dy</w>
e ty
K SZ
tor skie</w>
qu e
regula min</w>
rówie ś
inwesty cyjne</w>
pił karza</w>
Univer si
ru jący</w>
sprzeda je</w>
procedu r</w>
potwier dzenie</w>
przeję cia</w>
S prawo
śmi gł
pie kar
katastro fy</w>
rezygna cji</w>
publi cznością</w>
ń skimi</w>
zdrowot ne</w>
wy szuki
ce de
oszac owano</w>
cywi lizacji</w>
Ju bile
czwar ta</w>
zastąpi ł</w>
P C</w>
Spar ta</w>
chci ałabym</w>
Nadz or
bi s</w>
Le sznie</w>
Nak le</w>
gar ni
kro tny</w>
zmia nami</w>
popełni ł</w>
wy ży
6 54</w>
po tycz
fascy n
ma ta
księ ży
konkuren cja</w>
SKIE GO</w>
dow ska</w>
wybiera ć</w>
kar di
muzy czny</w>
przeciw nym</w>
że la
reda k
Pa cjen
n ności</w>
fina n
Katarzy ny</w>
ama torów</w>
re porta
od czuwa
wspól not
Ryb nik</w>
bli ski</w>
lep szym</w>
Ch cą</w>
Za bra
ba tali
o czywi
rz onych</w>
part nera</w>
mię so</w>
stos owany</w>
mniej szym</w>
zatrzy mania</w>
zna czny</w>
gospodar czym</w>
wywia d</w>
ra kie
świę tej</w>
U O
in nowa
słu pka</w>
sk la
P hi
s arz</w>
je wska</w>
loka lnego</w>
26 2</w>
S cho
pier si
profila k
si ńskiego</w>
działa niach</w>
kampa nię</w>
mina cji</w>
J ose
deklar uje</w>
ni onej</w>
ar yst
przygot owani</w>
wizy tę</w>
Spor o</w>
z ki</w>
stąpi ć</w>
dom owe</w>
ryn kowej</w>
lotni sku</w>
Ma sti
robi ła</w>
per ku
A posto
iden tyfika
dzisiej szy</w>
nieod pła
Re da
tajem nicą</w>
p łon
tar nej</w>
finans owa</w>
Cha rak
j skie</w>
u rucha
osła bi
SPO RT</w>
powie dzieli</w>
konsekwen tnie</w>
zapra szają</w>
pu s</w>
H od
ró ż</w>
samorządow cy</w>
niewiel ka</w>
staran nie</w>
ran gi</w>
unie waż
do szedł</w>
chorob ę</w>
k uję</w>
pa le
uzna ła</w>
zatrzym ano</w>
pokry cie</w>
szef owa</w>
Mosk wa</w>
ozd ob
ver po
si o</w>
patro na</w>
podob na</w>
re cy
czerw onych</w>
głę bi</w>
CH E
m owę</w>
c tion</w>
ka sie</w>
ma ńska</w>
wyglą dają</w>
mie ni</w>
Włod arczyk</w>
Wikipedy sta</w>
łow skiego</w>
poprze dz
zmie rza</w>
komisari atu</w>
towarzy stwo</w>
Ma ksy
sz łam</w>
międzynarodow ego</w>
ekra n</w>
sze reg
spons or
nor we
ne utra
ko n</w>
leg le</w>
sk ło
najwyż szej</w>
fa któw</w>
stanow czo</w>
okrą ż
wysp ie</w>
gimnazja listów</w>
d ing</w>
wy cię
Prze łę
wystąpie niu</w>
w cze</w>
ży my</w>
Przy po
zagra nicznej</w>
Organiza torem</w>
wy dała</w>
kow ości</w>
wzra sta</w>
sprze czne</w>
Masti Bot</w>
cie szył</w>
kieru nki</w>
ekonomi cznej</w>
argu mentów</w>
ne t
Mil lera</w>
wy noszą</w>
o lej
ude rzenie</w>
zmia nach</w>
wyróż nienia</w>
k nąć</w>
u da
n ografi
San do
Pary ża</w>
Ko nin</w>
uzasad nieniu</w>
ukoń czeniu</w>
6 0
ś rody</w>
m g</w>
zawod nikami</w>
boha tera</w>
rozma wia</w>
klimaty zacja</w>
usłysze liśmy</w>
6 58</w>
Sta l
Ł A</w>
le ka
ana logi
Za chód</w>
A D
spraw dza</w>
du sz
chci ało</w>
nakład ów</w>
pa nia</w>
Wielicz ce</w>
i lu</w>
pi or
6 9
pan e
wi nie</w>
do maga</w>
og rod
wyja zdy</w>
przyzna ła</w>
Trze ci</w>
ma py</w>
suwe ren
Kan celarii</w>
E sto
Sło m
Chor ych</w>
środ kiem</w>
4 8
ochro nia
6 48</w>
finans owym</w>
przychod ów</w>
Nadz oru</w>
ga s</w>
poszkodow anych</w>
dzien nik</w>
ź nie
nie licznych</w>
zapis ane</w>
dzi ą
sza m
resor t</w>
prag nę</w>
Pie t
koncer nu</w>
resz ty</w>
al nymi</w>
In na</w>
Re mi
prób ują</w>
pomy słodaw
organiza cją</w>
nowoczes ny</w>
zost ałem</w>
ma sz
zł ej</w>
koń czą</w>
miar em</w>
Dziel nicy</w>
la rzy</w>
Ka pita
Rzecz pospolitej</w>
za kwalifi
B oś
przemy sł</w>
kierow nictwo</w>
ty zmu</w>
spor u</w>
me x</w>
stara m</w>
Kali sz</w>
przy p</w>
pokole nie</w>
wymaga ń</w>
Północ nej</w>
pracow nikiem</w>
pogrze b
te go
la ta
Re mont</w>
Czar n
awar ii</w>
ka sz</w>
U słu
Au g</w>
wspo mag
kontro lą</w>
dzieci ństwa</w>
ta le
wyjaśnie ń</w>
j ności</w>
19 65</w>
zjawi sk</w>
zebra nie</w>
statu su</w>
obco kraj
wy prowadz
arty stycznej</w>
obywa tel</w>
c anie</w>
Za pewne</w>
Li verpo
zdecyd uje</w>
Kibi ce</w>
26 9</w>
obywate le</w>
niż sza</w>
symbo l</w>
ata ków</w>
polo ne
no logi
tra mp
licz bą</w>
ogło szenie</w>
bilan s</w>
19 62</w>
Star a</w>
dyskut ować</w>
napię cia</w>
Zagłę bia</w>
integ r
N p</w>
pe re
głos owali</w>
czyz nę</w>
zapotrzeb owanie</w>
Dwó ch</w>
Sędzi a</w>
wz niesi
zało żenie</w>
Zie mia</w>
Śmier ć</w>
B row
fi zj
to pe
O pła
usta lenie</w>
sportow ą</w>
Ksią żka</w>
znacz ną</w>
Pow odem</w>
rezer w</w>
Międzynarodow y</w>
g ał
łoży ła</w>
Bibliote ka</w>
uch wy
prowadzi liśmy</w>
po mara
otwar to</w>
samo rządzie</w>
ek spor
ru chy</w>
pod łoż
Se kre
Cze chach</w>
u wi
In form
my k</w>
urucho mienie</w>
księ gi</w>
cze kol
klub ach</w>
ko cha
przej ąć</w>
obli gacji</w>
b ała
zł ą</w>
Ko zioł</w>
v el
w tór
mieszka lnych</w>
C h</w>
fi ne
w kra
tar nowi
sympa ti
twór czość</w>
dłu giej</w>
przy wiąza
x a</w>
ow nik</w>
cz aje</w>
ro le</w>
Komuna lnej</w>
u kładzie</w>
taks ów
cze wskiego</w>
tytu łów</w>
argu ment</w>
Two je</w>
wod ne</w>
kie l</w>
czyn nik</w>
puści ć</w>
pomoc nik</w>
L ZS</w>
S ami</w>
a stero
li nę</w>
ga my</w>
zawie szeniu</w>
Gda ńskiej</w>
Wi ki</w>
bra my</w>
bi ałych</w>
zi ma</w>
przesłuch ania</w>
Po moc
ameryka ńskie</w>
żo łą
no żem</w>
dodat kowy</w>
pasz por
kape lu
pó l</w>
po kład
lep szą</w>
dźwię k</w>
zbior y</w>
kompu tery</w>
usły szał</w>
San ok</w>
ter min
Dro gi</w>
fe l
szat ni</w>
Osob a</w>
kosz tował</w>
osob owej</w>
państw owego</w>
wykaza ły</w>
p le</w>
zabra li</w>
Kości o
ca r</w>
realiz uje</w>
1 28</w>
budow ane</w>
Jedy nie</w>
X q
ro szczeń</w>
po słem</w>
loka ty</w>
ńczy ka</w>
Ogólnokształc ącego</w>
I grzy
dłu gów</w>
ci om</w>
do jechać</w>
podejm owania</w>
prezen t</w>
planeto ida</w>
We ro
cór ką</w>
Ol szewski</w>
tegoro cznym</w>
si na</w>
za cze
sz onym</w>
ja ś
zga dzam</w>
stał ą</w>
pla styczne</w>
pł ci</w>
PT TK</w>
u dziale</w>
2 10</w>
szkole ń</w>
straj ku</w>
kolor owe</w>
la tki</w>
A Ł</w>
intere su</w>
kandyda tem</w>
Xq bot</w>
Czar na</w>
Kiel c</w>
o ma
szac uje</w>
b alko
ły mi</w>
przy bywa</w>
sportow a</w>
rzeź bi
kró le
spła ty</w>
legen dar
J en
at ka</w>
Ost rów</w>
tarnow skiej</w>
z moderniz
19 52</w>
pamięta ją</w>
wart ością</w>
nó g</w>
wzię ły</w>
wykona ny</w>
Wspól noty</w>
Ta jem
I de
postawi ono</w>
T ER
atrak cją</w>
Gór ski</w>
G K</w>
opoda l</w>
We i
mer a</w>
r pi
u to
staw ka</w>
mo ściami</w>
stan ęła</w>
Po zy
i ca</w>
zewnętrz nych</w>
przyja ciele</w>
rozumie niu</w>
wprowadz one</w>
log ie</w>
E m
u dokumen
ba k</w>
kro kiem</w>
mie c</w>
istot nie</w>
przeszł ość</w>
prokura turze</w>
zebra nych</w>
pi n</w>
D P</w>
naci sk</w>
Z nale
myś liw
okreś lonego</w>
debiut ował</w>
Ch rześcija
a f
H L</w>
za cie
K LI
samorządow ców</w>
porówna nia</w>
d ien
Jor dan
Kolej nym</w>
B Y
wybi t
uroczy ście</w>
dzi a
Re g
o czami</w>
Ka wa
usu nięcia</w>
Z łodzie
dar owi
reprezentan t</w>
zajm ujących</w>
Ostat nia</w>
k su</w>
wysła ć</w>
Pun kty</w>
1 08</w>
U K</w>
szero kości</w>
pełnomoc nik</w>
wygrywa jąc</w>
Ta ńca</w>
S ŁAW</w>
Szy man
h au
Such ej</w>
da go
Af gani
05 07</w>
kondy gna
li sko</w>
leż ał</w>
Inwesty cja</w>
D ele
ur ba
g rą</w>
eki pie</w>
D e</w>
Tra m
dopuści ć</w>
Rejon owy</w>
reprezentan ci</w>
Świą te
c oną</w>
Li der</w>
parti ę</w>
S kład</w>
a ran
wygra na</w>
ka sz
cięż kich</w>
sk ał</w>
kieru jący</w>
B KS</w>
na pis</w>
mi ło</w>
wnioskodaw cy</w>
po mógł</w>
li ce</w>
Ho len
DZI AŁ
Klasy fikacja</w>
du chu</w>
sho w</w>
obcią ż
4 9
narzę dzi</w>
rodzaj ów</w>
gra m</w>
wi nien</w>
upraw nionych</w>
R zu
sportow o</w>
wy odręb
gra ły</w>
pyta ją</w>
od twarza
kwesti ą</w>
se ta</w>
kup ują</w>
Ś Ć</w>
c la
alu mini
Ko łodzie
większ ością</w>
Im prez
spor ą</w>
Wie czorek</w>
W ęd
me ce
Tur nieju</w>
u życia</w>
za ży
przewidzi ane</w>
przy był</w>
Co dziennie</w>
ciep łow
polity ką</w>
dzi sz</w>
ku ła</w>
dziewię ć
równowa gi</w>
kryteri ów</w>
Nierucho mości</w>
de gra
Po l</w>
La sk
K s</w>
SK A
oczeki wań</w>
list ą</w>
ki o
wy ce
dostęp nych</w>
udzie lić</w>
rol nik</w>
poprzed ni</w>
przedszko li</w>
M r</w>
M T</w>
pod pi
Wal ka</w>
Dąb rowa</w>
swo jemu</w>
pielgrzy m
Inspe kcji</w>
Wych owaw
og ów</w>
sprzą ta
za liczyć</w>
m c
da ch
Grab owski</w>
To r</w>
czyn sz</w>
wstęp ie</w>
po konując</w>
J U
multi medi
Se wery
porta lu</w>
bi t</w>
Kosz ty</w>
bi ny</w>
H O
sty n
zainteres owań</w>
Go sty
wy nosił</w>
chod nik</w>
wiar ę</w>
wycie czkę</w>
Papie ża</w>
Haj du
miejs cy</w>
oczeki wać</w>
sąsie dzi</w>
Za mek</w>
Kon kuren
H ej</w>
T BS</w>
wyraż a</w>
By tom</w>
zmieni ają</w>
ra tować</w>
naz w</w>
realiz owany</w>
proble mach</w>
zawiera ć</w>
przedsięwzię ć</w>
skla sy
o znaj
y er</w>
znajdow ały</w>
Na past
księ ży</w>
uczestni czy</w>
wynaj m
kur sie</w>
słusz ne</w>
I mage</w>
ma ka
poło żenie</w>
tłu my</w>
przekona nia</w>
stwier dzenia</w>
kondy cji</w>
za wa
ni ających</w>
zysk ów</w>
Hu cie</w>
Nie mal</w>
now ały</w>
ła bym</w>
za sy
sze wi
T RA
g im</w>
trzy mał</w>
kan cle
kobie tą</w>
za znacz
AND RZE
re no
de leg
B N</w>
Wie li
pow ol
cen ą</w>
wyda na</w>
Austra li
L AR
uniemożli wi
drog owe</w>
zwol nień</w>
papiero sy</w>
uzasad nienie</w>
je dzenie</w>
południ owych</w>
ty kan
t owanej</w>
sta cję</w>
wice minister</w>
organiz ować</w>
Hu bert</w>
Ros yj
rzecz niczka</w>
l ady</w>
Ż aden</w>
opła ca</w>
Wor ld</w>
wą tro
drewni ane</w>
Jedy nym</w>
zapobie c</w>
Je an</w>
czy kiem</w>
narodow e</w>
Interna tional</w>
zna nej</w>
ru szy</w>
a taki</w>
Dzie cko</w>
Czer wona</w>
cię żar</w>
powierzch nia</w>
Ek stra
zwło k</w>
T ych</w>
się gnąć</w>
Wyso ką</w>
szla ku</w>
de termina
men u</w>
defini cji</w>
rz anie</w>
stan ę</w>
j owi</w>
kie dy
wysp y</w>
s jach</w>
tt le</w>
nieruchomos ci</w>
zapła ty</w>
syj ne</w>
2 78</w>
pa cz</w>
perspekty wie</w>
pomor skiego</w>
Pow in
da j</w>
udzie la</w>
hot mail</w>
złoży ło</w>
producen ci</w>
K PP</w>
na mawi
spad kobier
Ex pre
Ros ją</w>
do ktry
Przy j
Słup sku</w>
koleż anki</w>
decyd ował</w>
im pul
B RA
pielęgni arek</w>
mobi liz
sza ch
napis em</w>
B r
ży wn
god ne</w>
Ange les</w>
mili on
d no</w>
opieku n</w>
te z</w>
telefo nicznie</w>
pi ó
Gdy bym</w>
deb ata</w>
ko na</w>
psychi cznie</w>
Ap r</w>
wy tłumaczyć</w>
1 09</w>
o o</w>
no szenie</w>
otwar tych</w>
połą czeń</w>
biał oru
wewnętrz nej</w>
wcześ niejsze</w>
piłkar ski</w>
rodzi com</w>
le je</w>
religi jnych</w>
Rad ny</w>
gwi zd
Mist rz</w>
śmie ch</w>
uzysk ali</w>
N OW
k lej
S pój
muzy cznej</w>
D uch
sto ł
ta ta</w>
die ty</w>
zdrowi u</w>
siat kówki</w>
wymo gi</w>
Wie czorem</w>
n kami</w>
z jeżdż
oto czeniu</w>
skier owany</w>
egzempla rzy</w>
L or
mo tor
Pro ce
zawod owym</w>
loka torzy</w>
pozna nia</w>
Konstytu cji</w>
K im</w>
oświat owych</w>
FIR MA</w>
Garbar nia</w>
grun t</w>
k łu
cze kała</w>
rze li</w>
Bo skiej</w>
kosz towała</w>
Ko lum
organiza cyjne</w>
wice burmistrz</w>
Lw owie</w>
gó rzu</w>
technicz nym</w>
średni ą</w>
szcze m</w>
gra my</w>
sły szał</w>
a fry
s chro
p róż
nowoczes nych</w>
W at
Wę gl
zda ń</w>
Poko ju</w>
wi no</w>
gó r</w>
obywate la</w>
ó dł</w>
deba cie</w>
są dzi</w>
niewiel ką</w>
pa liw
wyobra ź
Ana li
pun ktami</w>
Francu zi</w>
Dzi u
oblicz u</w>
wydaw nictwa</w>
Bor owski</w>
tor skich</w>
obie ktach</w>
run da</w>
aktyw nie</w>
staw ały</w>
Nie co</w>
nar ki</w>
ofer cie</w>
pi k
E wy</w>
ob da
mene d
z wanej</w>
ch uli
europej skim</w>
prag nie</w>
likwida cję</w>
od li
samolot y</w>
P ut
Ma teri
gatu nek</w>
li ska</w>
świa te
Kry zy
peł nienia</w>
osobist y</w>
przesy ła
f ą</w>
A tra
poli s</w>
sz owi</w>
atmosfer y</w>
chcie liśmy</w>
Odpowie dź</w>
st ce</w>
patro l</w>
ob chodz
ż owe</w>
wa r</w>
doro śli</w>
inter net</w>
spowod owała</w>
spa cer</w>
fina ły</w>
obie kty
lig owym</w>
inspe ktora</w>
K E</w>
sza na</w>
olimpij skich</w>
Dłu go
N ot
zabezpie cz
sprawozdaw cy</w>
wio ski</w>
osł owa
cz kiem</w>
sta ż</w>
pu ste</w>
ul o</w>
St ało</w>
19 58</w>
dosta ją</w>
by cie</w>
konie cznością</w>
Wiel ką</w>
ral ny</w>
Reso via</w>
ł kę</w>
1 00
kar to
Bie szcz
kov Bot</w>
wykony wanie</w>
Cho pina</w>
atrak cje</w>
b la</w>
zę by</w>
Ciąg le</w>
ma x</w>
kup uje</w>
D I
ob ar
zgło szenie</w>
Vol kovBot</w>
wi dzieli</w>
wspól ną</w>
zwycięz ców</w>
oba w</w>
Beski d</w>
d bać</w>
rzu cili</w>
instru mentów</w>
wykona na</w>
F N</w>
pod wyżek</w>
współ pracuje</w>
lider ów</w>
Ż ab
tur niej
Pa ul</w>
śni ad
policjan ta</w>
po radni</w>
od woły
Zwy kle</w>
per i
emery tur</w>
in dek
naj sil
k er
zawar cia</w>
dz onym</w>
sko men
ona r
kilogra mów</w>
sze l
nowo cześ
fachow ców</w>
szacu nek</w>
cho le
Austri a
samo rzą
kole żan
nume rze</w>
śle nia</w>
rę cznie</w>
epi de
naj szyb
ba gaż
vi c</w>
tam tym</w>
nu s</w>
żyw ność</w>
u dał</w>
mi ona</w>
zapro szenia</w>
komór kowy</w>
od ob
kie rowania</w>
b ór
Bernar d</w>
Męż czyźni</w>
p rze</w>
Dro gowego</w>
sko ja
ż er
ru szyć</w>
19 54</w>
sk rad
występ u</w>
pięk ną</w>
błęd u</w>
par terze</w>
pocz ąwszy</w>
mą dro
negatyw nie</w>
U SZ</w>
pią te</w>
wiz ję</w>
Tytu ł</w>
najważ niejszy</w>
gor sza</w>
Flor i
19 59</w>
g mail</w>
wrę czył</w>
do cie
Ar tura</w>
N GC</w>
ne ws
jubile uszu</w>
bież ącym</w>
C C</w>
k ujące</w>
GO K</w>
ci os
l owym</w>
oko ła</w>
AW A</w>
cha n</w>
spoj rzeć</w>
aj cie</w>
3 000</w>
nia niu</w>
nauczycie l
Pi sa
CE NT
Bełch at
Ek sper
c owego</w>
obszar y</w>
wy dru
li tur
M róz</w>
miaste czka</w>
h i</w>
jazd ę</w>
W brew</w>
spo tka</w>
Mie szka</w>
przypomi nają</w>
tk wi</w>
kłopo t</w>
zeszł ego</w>
Patry cja</w>
me te
daw nym</w>
Ja nik</w>
bo li</w>
Czy żby</w>
papie ry</w>
1 75</w>
dostar cz
wy dział</w>
ZATRUDNI Ę</w>
okrąż ająca</w>
ra nem</w>
mod li
słucha czy</w>
Cze sława</w>
dokumen tację</w>
uzna je</w>
M ały</w>
J ul</w>
19 36</w>
czyst ego</w>
ju trze
i di
ma tkę</w>
cha l</w>
Bu kowi
powiat owej</w>
człon kowskich</w>
u powszech
zadowo lenia</w>
prosi my</w>
da tę</w>
Part ia</w>
je dzenia</w>
dzie łem</w>
Tury styki</w>
spo ra</w>
min ęło</w>
obie kcie</w>
M B</w>
za dłuż
rol ne</w>
hodow li</w>
ąt ków</w>
Re habili
czołow ych</w>
budy nkiem</w>
w stawi
po jedzie</w>
bie ga
Ga leria</w>
f i</w>
zwycię żyła</w>
ó l</w>
Ś wiet
v ie
nog ami</w>
wywo ły
pocz ąć</w>
łod a
row iec</w>
Se nator</w>
t ałem</w>
Wojewódz kim</w>
spi sy
Świ d
Nowi cki</w>
ni sko</w>
da pe
Ka sper
socjal ne</w>
wy kupi
ma tem</w>
ży liśmy</w>
spotka ją</w>
Łą cznie</w>
gdy bym</w>
handl owy</w>
gma chu</w>
z ło</w>
cz ością</w>
dokumen tach</w>
astero id</w>
S p</w>
19 63</w>
ości owej</w>
loka lnym</w>
zakoń czyło</w>
MAT Y
3 20</w>
kla si
sła wia</w>
nada nia</w>
u mie</w>
afry ka
czar na</w>
Leg nicy</w>
ch ór</w>
posiad ać</w>
dru kar
aktu alne</w>
Jaro sz</w>
przeprowadz onych</w>
raci bor
sh i</w>
Piosen ki</w>
fi lii</w>
kontro le</w>
niemie cka</w>
dzie jach</w>
odwie dził</w>
by najmniej</w>
obie cy
niebezpie cznych</w>
ro w</w>
przyję ciu</w>
natural ny</w>
na kaz
Niepełnos prawnych</w>
naru szenie</w>
rol niczych</w>
o rach</w>
ż ona
mi le</w>
konserwa tor</w>
k ówce</w>
Staro sta</w>
ni ska</w>
zdecyd ować</w>
Chci ałabym</w>
Zd row
Wielko polskiego</w>
wo la</w>
Lep per</w>
ta rze</w>
ka ja</w>
czerw ony</w>
tech nice</w>
uroczyst e</w>
groź ne</w>
zazna czyć</w>
me bli</w>
nog ł
dziu ry</w>
war unek</w>
który ś</w>
Bo j
len u</w>
D en
pie czę
agre sji</w>
kon t</w>
skró cie</w>
D OW
E i
Jo a
po szło</w>
na rodów</w>
niewiel kim</w>
p sze
at lan
opła ta</w>
kontra kty</w>
S au
róż nicy</w>
p ery
Każ de</w>
pięk nym</w>
mie ścić</w>
star sza</w>
Urzęd nicy</w>
zasił ek</w>
Sędzi owali</w>
tre ner
pod pisów</w>
uważ nie</w>
do łącz
u chodź
cen t</w>
znajd ujące</w>
kry tyki</w>
wał am</w>
s ne</w>
Instytu cie</w>
kompute rowych</w>
zna w
czwar tą</w>
Z nów</w>
By liśmy</w>
si ńska</w>
remon tów</w>
cz anka</w>
wybor czego</w>
sztu cznych</w>
A do
ła t</w>
opracow y
fen o
ko pi
se l</w>
narciar skich</w>
mi ano</w>
de mo
nio r</w>
Archi wum</w>
dy k</w>
Je ste
re t</w>
po pra
spełni ać</w>
szyb kim</w>
medy czne</w>
zbudow any</w>
D wór</w>
opi nią</w>
ameryka ńska</w>
połą czyć</w>
rekla m</w>
fe stiwal
wojsk owe</w>
Ja gieł
trady cję</w>
dowód cy</w>
kształ cenie</w>
dwu pokojowe</w>
czy nią</w>
przekony wał</w>
N KI</w>
O k
pod pa
południ owo</w>
ko sza</w>
ogro dzie</w>
che l</w>
przyja źni</w>
nie wi
pozwo lił</w>
S on
jąc o</w>
opar te</w>
doty czyły</w>
Bogu sława</w>
Je le
AW I
Kwaśnie wskiego</w>
wyj dzie</w>
impre zach</w>
Słow a</w>
wa t</w>
napast nika</w>
La to</w>
obec ni</w>
po ran
ato rem</w>
de dy
Pała c</w>
Prze glą
procedu ra</w>
myśl nie</w>
szere gu</w>
[...]
