{"<s>":0,"<pad>":1,"</s>":2,"<unk>":3,"<mask>":4,"!":5,"\"":6,"#":7,"$":8,"%":9,"&":10,"'":11,"(":12,")":13,"*":14,"+":15,",":16,"-":17,".":18,"/":19,"0":20,"1":21,"2":22,"3":23,"4":24,"5":25,"6":26,"7":27,"8":28,"9":29,":":30,";":31,"<":32,"=":33,">":34,"?":35,"@":36,"A":37,"B":38,"C":39,"D":40,"E":41,"F":42,"G":43,"H":44,"I":45,"J":46,"K":47,"L":48,"M":49,"N":50,"O":51,"P":52,"Q":53,"R":54,"S":55,"T":56,"U":57,"V":58,"W":59,"X":60,"Y":61,"Z":62,"[":63,"\\":64,"]":65,"^":66,"_":67,"`":68,"a":69,"b":70,"c":71,"d":72,"e":73,"f":74,"g":75,"h":76,"i":77,"j":78,"k":79,"l":80,"m":81,"n":82,"o":83,"p":84,"q":85,"r":86,"s":87,"t":88,"u":89,"v":90,"w":91,"x":92,"y":93,"z":94,"{":95,"|":96,"}":97,"~":98,"¡":99,"£":100,"¤":101,"¦":102,"§":103,"¨":104,"©":105,"«":106,"¬":107,"®":108,"¯":109,"°":110,"±":111,"²":112,"³":113,"´":114,"µ":115,"¶":116,"·":117,"¸":118,"¹":119,"º":120,"»":121,"¼":122,"½":123,"¾":124,"¿":125,"À":126,"Á":127,"Â":128,"Ä":129,"Å":130,"Æ":131,"Ç":132,"È":133,"É":134,"Ê":135,"Ë":136,"Í":137,"Î":138,"Ð":139,"Ñ":140,"Ò":141,"Ó":142,"Ô":143,"Õ":144,"Ö":145,"×":146,"Ø":147,"Ù":148,"Ú":149,"Ü":150,"Ý":151,"Þ":152,"ß":153,"à":154,"á":155,"â":156,"ã":157,"ä":158,"å":159,"æ":160,"ç":161,"è":162,"é":163,"ê":164,"ë":165,"ì":166,"í":167,"î":168,"ï":169,"ð":170,"ñ":171,"ò":172,"ó":173,"ô":174,"õ":175,"ö":176,"÷":177,"ø":178,"ù":179,"ú":180,"û":181,"ü":182,"ý":183,"þ":184,"ÿ":185,"Ā":186,"ā":187,"Ă":188,"ă":189,"Ą":190,"ą":191,"Ć":192,"ć":193,"ĉ":194,"Ċ":195,"ċ":196,"Č":197,"č":198,"Ď":199,"ď":200,"Đ":201,"đ":202,"ē":203,"ĕ":204,"ė":205,"Ę":206,"ę":207,"Ě":208,"ě":209,"ĝ":210,"ğ":211,"ġ":212,"ĥ":213,"Ħ":214,"ħ":215,"ĩ":216,"Ī":217,"ī":218,"į":219,"İ":220,"ı":221,"Ĳ":222,"Ķ":223,"ķ":224,"ĸ":225,"Ĺ":226,"ĺ":227,"ļ":228,"Ľ":229,"ľ":230,"Ł":231,"ł":232,"Ń":233,"ń":234,"ņ":235,"Ň":236,"ň":237,"Ō":238,"ō":239,"ŏ":240,"Ő":241,"ő":242,"Œ":243,"œ":244,"Ŕ":245,"ŕ":246,"Ř":247,"ř":248,"Ś":249,"ś":250,"Ş":251,"ş":252,"Š":253,"š":254,"Ţ":255,"ţ":256,"Ť":257,"ť":258,"ŧ":259,"ũ":260,"Ū":261,"ū":262,"Ŭ":263,"ŭ":264,"Ů":265,"ů":266,"Ű":267,"ű":268,"ų":269,"Ÿ":270,"Ź":271,"ź":272,"Ż":273,"ż":274,"Ž":275,"ž":276,"ſ":277,"Ə":278,"ơ":279,"ư":280,"ǎ":281,"ǐ":282,"ǒ":283,"ǔ":284,"ə":285,"ɛ":286,"ɪ":287,"ʾ":288,"ʿ":289,"ˇ":290,"ˈ":291,"ː":292,"˘":293,"˙":294,"˚":295,"˛":296,"˝":297,"́":298,"̨":299,"Ά":300,"Α":301,"Β":302,"Γ":303,"Δ":304,"Ε":305,"Ζ":306,"Η":307,"Θ":308,"Ι":309,"Κ":310,"Λ":311,"Μ":312,"Ν":313,"Ξ":314,"Ο":315,"Π":316,"Ρ":317,"Σ":318,"Τ":319,"Υ":320,"Φ":321,"Χ":322,"Ω":323,"ά":324,"έ":325,"ή":326,"ί":327,"α":328,"β":329,"γ":330,"δ":331,"ε":332,"ζ":333,"η":334,"θ":335,"ι":336,"κ":337,"λ":338,"μ":339,"ν":340,"ξ":341,"ο":342,"π":343,"ρ":344,"ς":345,"σ":346,"τ":347,"υ":348,"φ":349,"χ":350,"ψ":351,"ω":352,"ό":353,"ύ":354,"ώ":355,"Ђ":356,"Є":357,"І":358,"Ј":359,"А":360,"Б":361,"В":362,"Г":363,"Д":364,"Е":365,"Ж":366,"З":367,"И":368,"Й":369,"К":370,"Л":371,"М":372,"Н":373,"О":374,"П":375,"Р":376,"С":377,"Т":378,"У":379,"Ф":380,"Х":381,"Ц":382,"Ч":383,"Ш":384,"Щ":385,"Ы":386,"Ь":387,"Э":388,"Ю":389,"Я":390,"а":391,"б":392,"в":393,"г":394,"д":395,"е":396,"ж":397,"з":398,"и":399,"й":400,"к":401,"л":402,"м":403,"н":404,"о":405,"п":406,"р":407,"с":408,"т":409,"у":410,"ф":411,"х":412,"ц":413,"ч":414,"ш":415,"щ":416,"ъ":417,"ы":418,"ь":419,"э":420,"ю":421,"я":422,"ё":423,"ђ":424,"є":425,"і":426,"ї":427,"ј":428,"љ":429,"њ":430,"ћ":431,"ў":432,"ѣ":433,"ґ":434,"ғ":435,"Қ":436,"қ":437,"ң":438,"ү":439,"ә":440,"ө":441,"Ա":442,"Հ":443,"ա":444,"դ":445,"ե":446,"զ":447,"ի":448,"լ":449,"կ":450,"հ":451,"ղ":452,"մ":453,"յ":454,"ն":455,"ո":456,"ս":457,"վ":458,"տ":459,"ր":460,"ւ":461,"ք":462,"ְ":463,"ִ":464,"ֵ":465,"ֶ":466,"ַ":467,"ָ":468,"ֹ":469,"ּ":470,"ׁ":471,"א":472,"ב":473,"ג":474,"ד":475,"ה":476,"ו":477,"ז":478,"ח":479,"ט":480,"י":481,"ך":482,"כ":483,"ל":484,"ם":485,"מ":486,"ן":487,"נ":488,"ס":489,"ע":490,"פ":491,"ץ":492,"צ":493,"ק":494,"ר":495,"ש":496,"ת":497,"،":498,"ء":499,"آ":500,"أ":501,"إ":502,"ئ":503,"ا":504,"ب":505,"ة":506,"ت":507,"ث":508,"ج":509,"ح":510,"خ":511,"د":512,"ذ":513,"ر":514,"ز":515,"س":516,"ش":517,"ص":518,"ض":519,"ط":520,"ظ":521,"ع":522,"غ":523,"ـ":524,"ف":525,"ق":526,"ك":527,"ل":528,"م":529,"ن":530,"ه":531,"و":532,"ى":533,"ي":534,"َ":535,"ُ":536,"ِ":537,"ّ":538,"ْ":539,"پ":540,"چ":541,"ک":542,"گ":543,"ہ":544,"ی":545,"ܐ":546,"ܘ":547,"ܝ":548,"ܪ":549,"ܵ":550,"ं":551,"अ":552,"क":553,"ग":554,"च":555,"ज":556,"ट":557,"ड":558,"ण":559,"त":560,"द":561,"ध":562,"न":563,"प":564,"ब":565,"भ":566,"म":567,"य":568,"र":569,"ल":570,"व":571,"श":572,"ष":573,"स":574,"ह":575,"ा":576,"ि":577,"ी":578,"ु":579,"ू":580,"े":581,"ो":582,"्":583,"ক":584,"ত":585,"ন":586,"ব":587,"ম":588,"য":589,"র":590,"ল":591,"়":592,"া":593,"ি":594,"ু":595,"ে":596,"ো":597,"্":598,"த":599,"ம":600,"ர":601,"ா":602,"ி":603,"்":604,"ก":605,"ง":606,"จ":607,"ช":608,"ด":609,"ต":610,"ท":611,"ธ":612,"น":613,"บ":614,"พ":615,"ม":616,"ย":617,"ร":618,"ล":619,"ว":620,"ส":621,"อ":622,"ะ":623,"ั":624,"า":625,"ิ":626,"ี":627,"ุ":628,"เ":629,"์":630,"ດ":631,"ນ":632,"ວ":633,"າ":634,"་":635,"ག":636,"ད":637,"པ":638,"བ":639,"འ":640,"ར":641,"ས":642,"ི":643,"ུ":644,"ེ":645,"ོ":646,"ა":647,"ბ":648,"გ":649,"დ":650,"ე":651,"ვ":652,"ზ":653,"თ":654,"ი":655,"კ":656,"ლ":657,"მ":658,"ნ":659,"ო":660,"რ":661,"ს":662,"ტ":663,"უ":664,"ქ":665,"შ":666,"ც":667,"ძ":668,"ხ":669,"ḥ":670,"ṃ":671,"ṇ":672,"ṣ":673,"ṭ":674,"ạ":675,"ả":676,"ế":677,"ễ":678,"ệ":679,"ị":680,"ọ":681,"ồ":682,"ộ":683,"ứ":684,"ữ":685,"‑":686,"–":687,"—":688,"‘":689,"’":690,"‚":691,"‛":692,"“":693,"”":694,"„":695,"‟":696,"†":697,"‡":698,"•":699,"…":700,"‰":701,"′":702,"″":703,"‹":704,"›":705,"€":706,"℃":707,"№":708,"™":709,"←":710,"↑":711,"→":712,"↓":713,"↔":714,"⇒":715,"∈":716,"∑":717,"−":718,"∗":719,"∙":720,"√":721,"∞":722,"∫":723,"≈":724,"≠":725,"≤":726,"≥":727,"⋅":728,"─":729,"│":730,"┌":731,"┐":732,"└":733,"┘":734,"├":735,"┬":736,"■":737,"□":738,"▪":739,"►":740,"○":741,"●":742,"☻":743,"☼":744,"♀":745,"♂":746,"♠":747,"♣":748,"♥":749,"♦":750,"✉":751,"、":752,"。":753,"あ":754,"い":755,"う":756,"お":757,"か":758,"が":759,"き":760,"く":761,"け":762,"こ":763,"さ":764,"し":765,"す":766,"そ":767,"た":768,"ち":769,"っ":770,"つ":771,"て":772,"で":773,"と":774,"な":775,"に":776,"の":777,"は":778,"ま":779,"み":780,"も":781,"や":782,"よ":783,"ら":784,"り":785,"る":786,"れ":787,"を":788,"ん":789,"ァ":790,"ア":791,"イ":792,"ウ":793,"エ":794,"オ":795,"カ":796,"キ":797,"ク":798,"グ":799,"ゲ":800,"コ":801,"サ":802,"シ":803,"ジ":804,"ス":805,"ズ":806,"セ":807,"ソ":808,"タ":809,"ダ":810,"チ":811,"ッ":812,"テ":813,"デ":814,"ト":815,"ド":816,"ナ":817,"ニ":818,"ネ":819,"ハ":820,"バ":821,"パ":822,"フ":823,"プ":824,"ボ":825,"ポ":826,"マ":827,"ム":828,"メ":829,"モ":830,"ュ":831,"ラ":832,"リ":833,"ル":834,"レ":835,"ロ":836,"ン":837,"・":838,"ー":839,"一":840,"万":841,"三":842,"上":843,"下":844,"世":845,"中":846,"二":847,"京":848,"人":849,"仁":850,"代":851,"会":852,"体":853,"使":854,"信":855,"光":856,"内":857,"北":858,"区":859,"十":860,"千":861,"南":862,"原":863,"古":864,"可":865,"合":866,"名":867,"周":868,"和":869,"四":870,"国":871,"國":872,"園":873,"地":874,"城":875,"士":876,"多":877,"大":878,"天":879,"太":880,"子":881,"字":882,"学":883,"安":884,"宮":885,"寺":886,"小":887,"山":888,"島":889,"川":890,"州":891,"市":892,"帝":893,"平":894,"年":895,"式":896,"後":897,"成":898,"我":899,"撲":900,"教":901,"文":902,"新":903,"方":904,"日":905,"明":906,"昭":907,"是":908,"時":909,"月":910,"有":911,"木":912,"本":913,"李":914,"東":915,"橋":916,"機":917,"正":918,"武":919,"民":920,"水":921,"江":922,"治":923,"法":924,"海":925,"漢":926,"火":927,"王":928,"用":929,"田":930,"町":931,"白":932,"百":933,"皇":934,"相":935,"県":936,"石":937,"社":938,"神":939,"線":940,"能":941,"自":942,"華":943,"藤":944,"行":945,"西":946,"語":947,"豆":948,"車":949,"通":950,"道":951,"郎":952,"郡":953,"部":954,"都":955,"野":956,"金":957,"鉄":958,"長":959,"門":960,"関":961,"青":962,"音":963,"風":964,"馬":965,"高":966,"가":967,"고":968,"국":969,"기":970,"김":971,"나":972,"는":973,"다":974,"대":975,"도":976,"독":977,"라":978,"로":979,"리":980,"마":981,"부":982,"사":983,"서":984,"스":985,"시":986,"아":987,"에":988,"을":989,"의":990,"이":991,"일":992,"전":993,"제":994,"조":995,"주":996,"지":997,"하":998,"한":999,"（":1000,"）":1001,"，":1002,"－":1003,"￼":1004,"y</w>":1005,"D</w>":1006,"o</w>":1007,"5</w>":1008,"i</w>":1009,"s</w>":1010,"a</w>":1011,"A</w>":1012,"j</w>":1013,"ą</w>":1014,"e</w>":1015,"n</w>":1016,"9</w>":1017,"4</w>":1018,"w</w>":1019,"u</w>":1020,"h</w>":1021,"c</w>":1022,"C</w>":1023,"r</w>":1024,"2</w>":1025,"t</w>":1026,"m</w>":1027,"ę</w>":1028,"1</w>":1029,"7</w>":1030,"g</w>":1031,"ł</w>":1032,"K</w>":1033,"3</w>":1034,"k</w>":1035,"6</w>":1036,"H</w>":1037,"d</w>":1038,"E</w>":1039,"l</w>":1040,"U</w>":1041,"p</w>":1042,"T</w>":1043,"L</w>":1044,"v</w>":1045,"z</w>":1046,"Y</w>":1047,"ć</w>":1048,"W</w>":1049,"f</w>":1050,"Z</w>":1051,"ч</w>":1052,"0</w>":1053,"Ć</w>":1054,"x</w>":1055,"I</w>":1056,"É</w>":1057,"M</w>":1058,"ń</w>":1059,"ó</w>":1060,"а</w>":1061,"ś</w>":1062,"O</w>":1063,"8</w>":1064,"B</w>":1065,"q</w>":1066,"ō</w>":1067,"د</w>":1068,"S</w>":1069,"ź</w>":1070,"J</w>":1071,"ż</w>":1072,"й</w>":1073,"м</w>":1074,"Ą</w>":1075,"b</w>":1076,"N</w>":1077,"ė</w>":1078,"č</w>":1079,"à</w>":1080,"Ž</w>":1081,"Ę</w>":1082,"á</w>":1083,"R</w>":1084,"ี</w>":1085,"Ç</w>":1086,"P</w>":1087,"X</w>":1088,"о</w>":1089,"ß</w>":1090,"F</w>":1091,"Q</w>":1092,"é</w>":1093,"Ń</w>":1094,"ý</w>":1095,"ς</w>":1096,"ש</w>":1097,"Ł</w>":1098,"G</w>":1099,"ˇ</w>":1100,"ë</w>":1101,"â</w>":1102,"ь</w>":1103,"ъ</w>":1104,"í</w>":1105,"в</w>":1106,"š</w>":1107,"º</w>":1108,"е</w>":1109,"и</w>":1110,"ò</w>":1111,"у</w>":1112,"α</w>":1113,"ĺ</w>":1114,"ž</w>":1115,"λ</w>":1116,"æ</w>":1117,"ы</w>":1118,"ւ</w>":1119,"Ś</w>":1120,"і</w>":1121,"Ź</w>":1122,"ā</w>":1123,"т</w>":1124,"ı</w>":1125,"Ĺ</w>":1126,"я</w>":1127,"ū</w>":1128,"V</w>":1129,"Ä</w>":1130,"ю</w>":1131,"า</w>":1132,"ে</w>":1133,"ي</w>":1134,"ü</w>":1135,"い</w>":1136,"х</w>":1137,"ο</w>":1138,"י</w>":1139,"ệ</w>":1140,"н</w>":1141,"Ů</w>":1142,"Р</w>":1143,"ä</w>":1144,"信</w>":1145,"Ż</w>":1146,"ï</w>":1147,"÷</w>":1148,"द</w>":1149,"л</w>":1150,"ი</w>":1151,"с</w>":1152,"ú</w>":1153,"ა</w>":1154,"σ</w>":1155,"к</w>":1156,"か</w>":1157,"С</w>":1158,"ċ</w>":1159,"ô</w>":1160,"р</w>":1161,"ن</w>":1162,"б</w>":1163,"‟</w>":1164,"Ō</w>":1165,"ח</w>":1166,"ν</w>":1167,"υ</w>":1168,"Ô</w>":1169,"Ý</w>":1170,"ό</w>":1171,"ف</w>":1172,"ດ</w>":1173,"И</w>":1174,"ն</w>":1175,"Ő</w>":1176,"ộ</w>":1177,"β</w>":1178,"ز</w>":1179,"ă</w>":1180,"ш</w>":1181,"ŧ</w>":1182,"Б</w>":1183,"д</w>":1184,"ح</w>":1185,"ズ</w>":1186,"ŭ</w>":1187,"ག</w>":1188,"ů</w>":1189,"त</w>":1190,"Т</w>":1191,"Щ</w>":1192,"は</w>":1193,"ː</w>":1194,";</w>":1195,"ў</w>":1196,"م</w>":1197,"ی</w>":1198,"の</w>":1199,"्</w>":1200,"ö</w>":1201,"ן</w>":1202,"ě</w>":1203,"Г</w>":1204,"た</w>":1205,"Ď</w>":1206,"Ť</w>":1207,"ל</w>":1208,"ُ</w>":1209,"г</w>":1210,"ş</w>":1211,"ф</w>":1212,"ت</w>":1213,"ध</w>":1214,"ç</w>":1215,"ì</w>":1216,"ם</w>":1217,"ة</w>":1218,"ή</w>":1219,"ر</w>":1220,"ק</w>":1221,"ء</w>":1222,"≥</w>":1223,"დ</w>":1224,"Ω</w>":1225,"ť</w>":1226,"Η</w>":1227,"ས</w>":1228,"Á</w>":1229,"و</w>":1230,"ñ</w>":1231,"ő</w>":1232,"य</w>":1233,"ύ</w>":1234,"チ</w>":1235,"न</w>":1236,"ا</w>":1237,"è</w>":1238,"ण</w>":1239,"ø</w>":1240,"ع</w>":1241,"ŕ</w>":1242,"Č</w>":1243,"є</w>":1244,"ї</w>":1245,"ī</w>":1246,"プ</w>":1247,"ה</w>":1248,"ס</w>":1249,"ج</w>":1250,"Â</w>":1251,"ṇ</w>":1252,"რ</w>":1253,"ĕ</w>":1254,"η</w>":1255,"å</w>":1256,"ர</w>":1257,"み</w>":1258,"Î</w>":1259,"ल</w>":1260,"र</w>":1261,"ق</w>":1262,"س</w>":1263,"ד</w>":1264,"ン</w>":1265,"Đ</w>":1266,"ս</w>":1267,"ת</w>":1268,"ּ</w>":1269,"Ш</w>":1270,"ַ</w>":1271,"ს</w>":1272,"Ľ</w>":1273,"э</w>":1274,"Ě</w>":1275,"М</w>":1276,"য</w>":1277,"ј</w>":1278,"ћ</w>":1279,"п</w>":1280,"з</w>":1281,"ē</w>":1282,"ր</w>":1283,"し</w>":1284,"ل</w>":1285,"Ó</w>":1286,"א</w>":1287,"ব</w>":1288,"☻</w>":1289,"ã</w>":1290,"ग</w>":1291,"ん</w>":1292,"ी</w>":1293,"µ</w>":1294,"Ă</w>":1295,"う</w>":1296,"ז</w>":1297,"น</w>":1298,"ļ</w>":1299,"Å</w>":1300,"そ</w>":1301,"ད</w>":1302,"ר</w>":1303,"¹</w>":1304,"℃</w>":1305,"Š</w>":1306,"Ň</w>":1307,"μ</w>":1308,"پ</w>":1309,"ň</w>":1310,"А</w>":1311,"ো</w>":1312,"ľ</w>":1313,"ى</w>":1314,"Ж</w>":1315,"ं</w>":1316,"ら</w>":1317,"ك</w>":1318,"ハ</w>":1319,"Ë</w>":1320,"ล</w>":1321,"ų</w>":1322,"ε</w>":1323,"φ</w>":1324,"ナ</w>":1325,"ə</w>":1326,"ι</w>":1327,"ɛ</w>":1328,"ә</w>":1329,"ц</w>":1330,"ბ</w>":1331,"ữ</w>":1332,"া</w>":1333,"ْ</w>":1334,":</w>":1335,"ď</w>":1336,"ע</w>":1337,"ê</w>":1338,"û</w>":1339,"ア</w>":1340,"(</w>":1341,"ґ</w>":1342,"Э</w>":1343,"ب</w>":1344,"ǔ</w>":1345,"も</w>":1346,"ー</w>":1347,"り</w>":1348,"ा</w>":1349,"ָ</w>":1350,"Ν</w>":1351,"ץ</w>":1352,"յ</w>":1353,"Ċ</w>":1354,"ù</w>":1355,"ð</w>":1356,"金</w>":1357,"П</w>":1358,"ক</w>":1359,"よ</w>":1360,"π</w>":1361,"ב</w>":1362,"ா</w>":1363,"ǐ</w>":1364,"Σ</w>":1365,"Æ</w>":1366,"У</w>":1367,"Н</w>":1368,"ʾ</w>":1369,"¶</w>":1370,"म</w>":1371,"ω</w>":1372,"ス</w>":1373,"ه</w>":1374,"ก</w>":1375,"お</w>":1376,"Ü</w>":1377,"Ŕ</w>":1378,"ड</w>":1379,"ř</w>":1380,"Л</w>":1381,"τ</w>":1382,"郎</w>":1383,"خ</w>":1384,"К</w>":1385,"О</w>":1386,"ლ</w>":1387,"年</w>":1388,"ħ</w>":1389,"Ř</w>":1390,"î</w>":1391,"щ</w>":1392,"#</w>":1393,"ド</w>":1394,"З</w>":1395,"ो</w>":1396,"צ</w>":1397,"ร</w>":1398,"Ú</w>":1399,"ו</w>":1400,"स</w>":1401,"ж</w>":1402,"ュ</w>":1403,"Ö</w>":1404,"ׁ</w>":1405,"क</w>":1406,"Я</w>":1407,"Е</w>":1408,"조</w>":1409,"⋅</w>":1410,"ო</w>":1411,"Ş</w>":1412,"ί</w>":1413,"カ</w>":1414,"タ</w>":1415,"る</w>":1416,"ị</w>":1417,"ט</w>":1418,"パ</w>":1419,"ე</w>":1420,"Ф</w>":1421,"ứ</w>":1422,"古</w>":1423,"ŏ</w>":1424,"門</w>":1425,"վ</w>":1426,"ũ</w>":1427,"ի</w>":1428,"ک</w>":1429,"ะ</w>":1430,"ṭ</w>":1431,"ु</w>":1432,"ث</w>":1433,"ク</w>":1434,"ุ</w>":1435,"ि</w>":1436,"ţ</w>":1437,"ி</w>":1438,"ط</w>":1439,"თ</w>":1440,"ÿ</w>":1441,"ĉ</w>":1442,"を</w>":1443,"ʿ</w>":1444,"ེ</w>":1445,"リ</w>":1446,"ǎ</w>":1447,"§</w>":1448,"す</w>":1449,"ू</w>":1450,"ܐ</w>":1451,"れ</w>":1452,"В</w>":1453,"ル</w>":1454,"ѣ</w>":1455,"ө</w>":1456,"Í</w>":1457,"Ñ</w>":1458,"ң</w>":1459,"イ</w>":1460,"ֵ</w>":1461,"ġ</w>":1462,"ض</w>":1463,"ג</w>":1464,"使</w>":1465,"þ</w>":1466,"Д</w>":1467,"ّ</w>":1468,"藤</w>":1469,"θ</w>":1470,"ช</w>":1471,"南</w>":1472,"Υ</w>":1473,"จ</w>":1474,"ά</w>":1475,"қ</w>":1476,"Ι</w>":1477,"’</w>":1478,"（</w>":1479,"ト</w>":1480,"Ÿ</w>":1481,"œ</w>":1482,"一</w>":1483,"կ</w>":1484,"Κ</w>":1485,"‰</w>":1486,"ར</w>":1487,"で</w>":1488,"ү</w>":1489,"き</w>":1490,"く</w>":1491,"ม</w>":1492,"バ</w>":1493,"ք</w>":1494,"○</w>":1495,"È</w>":1496,"ზ</w>":1497,"ம</w>":1498,"տ</w>":1499,"ง</w>":1500,"श</w>":1501,"ğ</w>":1502,"Ê</w>":1503,"་</w>":1504,"ρ</w>":1505,"京</w>":1506,"Х</w>":1507,"Ā</w>":1508,"ნ</w>":1509,"े</w>":1510,"đ</w>":1511,"皇</w>":1512,"ך</w>":1513,"Ţ</w>":1514,"ち</w>":1515,"서</w>":1516,"`</w>":1517,"Ħ</w>":1518,"ِ</w>":1519,"ώ</w>":1520,"や</w>":1521,"˝</w>":1522,"व</w>":1523,"Ь</w>":1524,"†</w>":1525,"グ</w>":1526,"ё</w>":1527,"˘</w>":1528,"ท</w>":1529,"石</w>":1530,"ष</w>":1531,"བ</w>":1532,"ܘ</w>":1533,"┐</w>":1534,"ল</w>":1535,"後</w>":1536,"ウ</w>":1537,"ồ</w>":1538,"أ</w>":1539,"、</w>":1540,"ি</w>":1541,"χ</w>":1542,"ہ</w>":1543,"전</w>":1544,"↓</w>":1545,"に</w>":1546,"¬</w>":1547,"Й</w>":1548,"ǒ</w>":1549,"?</w>":1550,"Ū</w>":1551,"ह</w>":1552,"র</w>":1553,"כ</w>":1554,"І</w>":1555,"ű</w>":1556,"מ</w>":1557,"ա</w>":1558,"仁</w>":1559,"と</w>":1560,"ུ</w>":1561,"Φ</w>":1562,"ོ</w>":1563,"が</w>":1564,"ξ</w>":1565,"Ы</w>":1566,"周</w>":1567,"馬</w>":1568,"ว</w>":1569,"ন</w>":1570,"'</w>":1571,"ψ</w>":1572,"ज</w>":1573,"ტ</w>":1574,"ܝ</w>":1575,"Ĳ</w>":1576,"İ</w>":1577,"%</w>":1578,"ด</w>":1579,"Ч</w>":1580,"✉</w>":1581,"κ</w>":1582,"च</w>":1583,"나</w>":1584,"千</w>":1585,"،</w>":1586,"つ</w>":1587,"宮</w>":1588,"コ</w>":1589,"っ</w>":1590,"ラ</w>":1591,"ム</w>":1592,"ش</w>":1593,"中</w>":1594,"ṣ</w>":1595,"õ</w>":1596,"հ</w>":1597,"Ա</w>":1598,"Ε</w>":1599,"기</w>":1600,"マ</w>":1601,"ั</w>":1602,"明</w>":1603,"通</w>":1604,"月</w>":1605,"Œ</w>":1606,"け</w>":1607,"©</w>":1608,"ิ</w>":1609,"¿</w>":1610,"ص</w>":1611,"Β</w>":1612,"¦</w>":1613,"ロ</w>":1614,"Ī</w>":1615,"レ</w>":1616,"δ</w>":1617,"ֹ</w>":1618,"]</w>":1619,"_</w>":1620,"Ķ</w>":1621,"̨</w>":1622,"Ј</w>":1623,"Α</w>":1624,"フ</w>":1625,"四</w>":1626,"キ</w>":1627,"을</w>":1628,"ܪ</w>":1629,"橋</w>":1630,"ນ</w>":1631,"式</w>":1632,"┬</w>":1633,"て</w>":1634,"ɪ</w>":1635,"į</w>":1636,"￼</w>":1637,"城</w>":1638,"²</w>":1639,"γ</w>":1640,"ネ</w>":1641,"ņ</w>":1642,"प</w>":1643,"江</w>":1644,"オ</w>":1645,"ղ</w>":1646,"太</w>":1647,"ც</w>":1648,"Ű</w>":1649,"）</w>":1650,"하</w>":1651,"治</w>":1652,"Ə</w>":1653,"こ</w>":1654,"½</w>":1655,"ذ</w>":1656,"李</w>":1657,"լ</w>":1658,"∫</w>":1659,"名</w>":1660,"َ</w>":1661,"ơ</w>":1662,"Ц</w>":1663,"&</w>":1664,"њ</w>":1665,"դ</w>":1666,"າ</w>":1667,"∈</w>":1668,"原</w>":1669,"ĥ</w>":1670,"車</w>":1671,"Ξ</w>":1672,"آ</w>":1673,"ボ</w>":1674,"ི</w>":1675,"ḥ</w>":1676,"Μ</w>":1677,"ย</w>":1678,"—</w>":1679,"–</w>":1680,"˛</w>":1681,"│</w>":1682,"พ</w>":1683,"士</w>":1684,"ब</w>":1685,"Π</w>":1686,"ম</w>":1687,"ジ</w>":1688,"འ</w>":1689,"音</w>":1690,"Λ</w>":1691,"մ</w>":1692,"\"</w>":1693,"→</w>":1694,"ظ</w>":1695,"+</w>":1696,"″</w>":1697,"த</w>":1698,"ま</w>":1699,"∞</w>":1700,"├</w>":1701,"ե</w>":1702,"는</w>":1703,"Ŭ</w>":1704,"έ</w>":1705,"可</w>":1706,"љ</w>":1707,"郡</w>":1708,"À</w>":1709,"王</w>":1710,"寺</w>":1711,"鉄</w>":1712,"ĝ</w>":1713,"Ο</w>":1714,"시</w>":1715,"Θ</w>":1716,"↑</w>":1717,"»</w>":1718,"な</w>":1719,"民</w>":1720,"Ø</w>":1721,"อ</w>":1722,"市</w>":1723,"線</w>":1724,"!</w>":1725,"└</w>":1726,"일</w>":1727,"ђ</w>":1728,"ζ</w>":1729,"国</w>":1730,"ッ</w>":1731,"↔</w>":1732,"□</w>":1733,"ئ</w>":1734,"☼</w>":1735,"安</w>":1736,"都</w>":1737,"豆</w>":1738,"社</w>":1739,"ธ</w>":1740,"田</w>":1741,"天</w>":1742,"ত</w>":1743,"教</w>":1744,"마</w>":1745,"라</w>":1746,"長</w>":1747,"世</w>":1748,"্</w>":1749,"-</w>":1750,"ट</w>":1751,"三</w>":1752,"ķ</w>":1753,"Є</w>":1754,"高</w>":1755,"Ά</w>":1756,"ວ</w>":1757,"平</w>":1758,"Γ</w>":1759,"غ</w>":1760,"合</w>":1761,"가</w>":1762,"Ю</w>":1763,"়</w>":1764,"Τ</w>":1765,"昭</w>":1766,"Ð</w>":1767,"モ</w>":1768,"県</w>":1769,"地</w>":1770,"گ</w>":1771,"法</w>":1772,"ニ</w>":1773,"주</w>":1774,"町</w>":1775,"是</w>":1776,"体</w>":1777,"ế</w>":1778,"。</w>":1779,"®</w>":1780,"“</w>":1781,"←</w>":1782,"メ</w>":1783,"[</w>":1784,"|</w>":1785,"小</w>":1786,"青</w>":1787,"♠</w>":1788,"=</w>":1789,"野</w>":1790,"„</w>":1791,"×</w>":1792,"զ</w>":1793,"┌</w>":1794,"代</w>":1795,"ọ</w>":1796,"사</w>":1797,"ְ</w>":1798,"도</w>":1799,"^</w>":1800,"内</w>":1801,"川</w>":1802,"関</w>":1803,"♂</w>":1804,"正</w>":1805,"한</w>":1806,"光</w>":1807,"♥</w>":1808,"Ρ</w>":1809,"ả</w>":1810,"‛</w>":1811,"∗</w>":1812,"成</w>":1813,"相</w>":1814,"ո</w>":1815,"■</w>":1816,"์</w>":1817,"北</w>":1818,"神</w>":1819,"}</w>":1820,"ვ</w>":1821,"‚</w>":1822,"스</w>":1823,"本</w>":1824,"♣</w>":1825,"…</w>":1826,"Ђ</w>":1827,"日</w>":1828,"נ</w>":1829,"다</w>":1830,"撲</w>":1831,"¡</w>":1832,"€</w>":1833,"\\</w>":1834,"華</w>":1835,"和</w>":1836,"제</w>":1837,"~</w>":1838,"아</w>":1839,"국</w>":1840,"<</w>":1841,"บ</w>":1842,"´</w>":1843,"Χ</w>":1844,"대</w>":1845,"木</w>":1846,"ĸ</w>":1847,"学</w>":1848,"┘</w>":1849,"白</w>":1850,"さ</w>":1851,"·</w>":1852,"∙</w>":1853,"˚</w>":1854,"‘</w>":1855,"あ</w>":1856,"島</w>":1857,"의</w>":1858,"ু</w>":1859,"区</w>":1860,"我</w>":1861,"ư</w>":1862,"道</w>":1863,"№</w>":1864,"字</w>":1865,"≤</w>":1866,"«</w>":1867,"−</w>":1868,"›</w>":1869,"Ò</w>":1870,"部</w>":1871,"¾</w>":1872,"州</w>":1873,"ṃ</w>":1874,"்</w>":1875,"¤</w>":1876,"二</w>":1877,"∑</w>":1878,"十</w>":1879,"新</w>":1880,"*</w>":1881,"{</w>":1882,"人</w>":1883,"海</w>":1884,"°</w>":1885,"≈</w>":1886,"シ</w>":1887,"/</w>":1888,"能</w>":1889,"東</w>":1890,"方</w>":1891,"ダ</w>":1892,"多</w>":1893,"文</w>":1894,"─</w>":1895,"Ζ</w>":1896,"園</w>":1897,"・</w>":1898,".</w>":1899,"火</w>":1900,"́</w>":1901,"ғ</w>":1902,"³</w>":1903,"►</w>":1904,"≠</w>":1905,"པ</w>":1906,"¯</w>":1907,"भ</w>":1908,"山</w>":1909,"テ</w>":1910,"行</w>":1911,"ქ</w>":1912,"自</w>":1913,"פ</w>":1914,"帝</w>":1915,"ส</w>":1916,"⇒</w>":1917,"漢</w>":1918,"ĩ</w>":1919,"¨</w>":1920,"‑</w>":1921,"></w>":1922,"إ</w>":1923,"万</w>":1924,"水</w>":1925,"˙</w>":1926,"$</w>":1927,"지</w>":1928,"ต</w>":1929,"£</w>":1930,"用</w>":1931,"♀</w>":1932,"로</w>":1933,"კ</w>":1934,"風</w>":1935,"독</w>":1936,"ֶ</w>":1937,"‡</w>":1938,"김</w>":1939,")</w>":1940,"ſ</w>":1941,"▪</w>":1942,"機</w>":1943,"Δ</w>":1944,"大</w>":1945,"¸</w>":1946,",</w>":1947,"百</w>":1948,"±</w>":1949,"上</w>":1950,"西</w>":1951,"고</w>":1952,"‹</w>":1953,"子</w>":1954,"－</w>":1955,"”</w>":1956,"ゲ</w>":1957,"چ</w>":1958,"，</w>":1959,"ạ</w>":1960,"Ù</w>":1961,"会</w>":1962,"國</w>":1963,"•</w>":1964,"時</w>":1965,"●</w>":1966,"エ</w>":1967,"♦</w>":1968,"리</w>":1969,"′</w>":1970,"부</w>":1971,"下</w>":1972,"武</w>":1973,"Õ</w>":1974,"@</w>":1975,"¼</w>":1976,"이</w>":1977,"에</w>":1978,"語</w>":1979,"Þ</w>":1980,"™</w>":1981,"有</w>":1982,"√</w>":1983,"ni":1984,"ie":1985,"ow":1986,"rz":1987,"cz":1988,"st":1989,"ra":1990,"po":1991,"sz":1992,"dz":1993,"ro":1994,"ch</w>":1995,"na":1996,"nie</w>":1997,"na</w>":1998,"sk":1999,"ie</w>":2000,"ar":2001,"rze":2002,"za":2003,"si":2004,"te":2005,"an":2006,"wi":2007,"li":2008,"ko":2009,"go</w>":2010,"je":2011,"re":2012,"nie":2013,"ch":2014,"ych</w>":2015,"ał":2016,"wy":2017,"le":2018,"mi":2019,"ów</w>":2020,"od":2021,"się</w>":2022,"ta":2023,"prze":2024,"ty":2025,"cj":2026,"ka":2027,"ci":2028,"ne":2029,"al":2030,"rzy":2031,"nia</w>":2032,"ob":2033,"or":2034,"ad":2035,"kt":2036,"owa":2037,"mo":2038,"dzi":2039,"że</w>":2040,"do</w>":2041,"ma":2042,"sta":2043,"on":2044,"ki</w>":2045,"pra":2046,"ym</w>":2047,"mie":2048,"oś":2049,"la":2050,"ła":2051,"cze":2052,"wa":2053,"ka</w>":2054,"pi":2055,"da":2056,"ci</w>":2057,"en":2058,"ja":2059,"st</w>":2060,"ru":2061,"wie":2062,"to</w>":2063,"czy":2064,"do":2065,"by":2066,"ny</w>":2067,"ku</w>":2068,"mi</w>":2069,"dzie":2070,"in":2071,"er":2072,"wo":2073,"uj":2074,"li</w>":2075,"któ":2076,"os":2077,"cy</w>":2078,"ne</w>":2079,"pow":2080,"ej</w>":2081,"em</w>":2082,"pa":2083,"my</w>":2084,"kie":2085,"przy":2086,"kow":2087,"pro":2088,"nych</w>":2089,"cji</w>":2090,"pie":2091,"jest</w>":2092,"ce</w>":2093,"ró":2094,"ry":2095,"sa":2096,"ot":2097,"dy":2098,"ki":2099,"ła</w>":2100,"de":2101,"pe":2102,"tu":2103,"cie</w>":2104,"Po":2105,"wa</w>":2106,"któr":2107,"00":2108,"bi":2109,"ży":2110,"ego</w>":2111,"skie":2112,"ski</w>":2113,"spo":2114,"aj":2115,"fi":2116,"pod":2117,"zna":2118,"ko</w>":2119,"200":2120,"la</w>":2121,"cie":2122,"roz":2123,"dzie</w>":2124,"zy":2125,"ło":2126,"ku":2127,"at":2128,"le</w>":2129,"nej</w>":2130,"ce":2131,"wsz":2132,"by</w>":2133,"lu":2134,"ło</w>":2135,"ąc":2136,"rzy</w>":2137,"cza":2138,"nego</w>":2139,"ości</w>":2140,"cy":2141,"ze":2142,"dow":2143,"praw":2144,"ni</w>":2145,"to":2146,"łu":2147,"ta</w>":2148,"we":2149,"dy</w>":2150,"raz</w>":2151,"kon":2152,"og":2153,"ków</w>":2154,"ły</w>":2155,"ał</w>":2156,"zo":2157,"ała</w>":2158,"me":2159,"wię":2160,"ga":2161,"ty</w>":2162,"za</w>":2163,"bu":2164,"owi":2165,"be":2166,"niu</w>":2167,"bę":2168,"jed":2169,"sy":2170,"że":2171,"naj":2172,"od</w>":2173,"ów":2174,"sp":2175,"czy</w>":2176,"ca</w>":2177,"nym</w>":2178,"uje</w>":2179,"owan":2180,"gra":2181,"mu</w>":2182,"mu":2183,"po</w>":2184,"ma</w>":2185,"ich</w>":2186,"ją</w>":2187,"przez</w>":2188,"no":2189,"ną</w>":2190,"se":2191,"sze":2192,"je</w>":2193,"tym</w>":2194,"un":2195,"cho":2196,"ość</w>":2197,"lo":2198,"ale</w>":2199,"now":2200,"tra":2201,"ju":2202,"du":2203,"sty":2204,"Ja":2205,"szcz":2206,"ach</w>":2207,"zi":2208,"ska</w>":2209,"tego</w>":2210,"dla</w>":2211,"19":2212,"tu</w>":2213,"gł":2214,"pre":2215,"bie":2216,"jak</w>":2217,"skiego</w>":2218,"Je":2219,"no</w>":2220,"rzą":2221,"ra</w>":2222,"war":2223,"nik</w>":2224,"powie":2225,"rze</w>":2226,"bar":2227,"sz</w>":2228,"ali</w>":2229,"ści":2230,"Mi":2231,"12</w>":2232,"niej</w>":2233,"mia":2234,"ały</w>":2235,"ry</w>":2236,"Za":2237,"go":2238,"row":2239,"sie":2240,"rowa":2241,"cz</w>":2242,"cja</w>":2243,"bra":2244,"im</w>":2245,"ało</w>":2246,"men":2247,"oraz</w>":2248,"co</w>":2249,"wła":2250,"Ko":2251,"tak":2252,"dzi</w>":2253,"roku</w>":2254,"pu":2255,"yst":2256,"skiej</w>":2257,"ści</w>":2258,"dział":2259,"Pa":2260,"pier":2261,"wó":2262,"miej":2263,"są</w>":2264,"wie</w>":2265,"ąc</w>":2266,"już</w>":2267,"so":2268,"bo":2269,"gi":2270,"kre":2271,"wiad":2272,"wod":2273,"przed":2274,"łow":2275,"stę":2276,"ład":2277,"trze":2278,"tow":2279,"ności</w>":2280,"for":2281,"będzie</w>":2282,"cyj":2283,"ować</w>":2284,"zd":2285,"lko</w>":2286,"Pol":2287,"kra":2288,"ba":2289,"one</w>":2290,"00</w>":2291,"moż":2292,"10</w>":2293,"kar":2294,"niem</w>":2295,"ri":2296,"Ka":2297,"nicz":2298,"szy":2299,"czę":2300,"bli":2301,"prowa":2302,"stan":2303,"tycz":2304,"śmy</w>":2305,"Ma":2306,"ja</w>":2307,"tylko</w>":2308,"my":2309,"pad":2310,"miejs":2311,"spó":2312,"Ch":2313,"ut":2314,"dze":2315,"wią":2316,"Wi":2317,"god":2318,"Mar":2319,"tej</w>":2320,"kę</w>":2321,"te</w>":2322,"ek</w>":2323,"su":2324,"stęp":2325,"ję":2326,"wy</w>":2327,"miesz":2328,"wszyst":2329,"tów</w>":2330,"Wy":2331,"pol":2332,"cia</w>":2333,"tem</w>":2334,"kole":2335,"owej</w>":2336,"nak</w>":2337,"bo</w>":2338,"sto":2339,"ji</w>":2340,"się":2341,"tak</w>":2342,"ze</w>":2343,"owych</w>":2344,"które</w>":2345,"ły":2346,"ba</w>":2347,"owy</w>":2348,"pisa":2349,"ony</w>":2350,"Nie</w>":2351,"ak":2352,"dru":2353,"stra":2354,"bez":2355,"prac":2356,"mó":2357,"sze</w>":2358,"Na</w>":2359,"ńst":2360,"ol":2361,"sła":2362,"di":2363,"owania</w>":2364,"owe</w>":2365,"wo</w>":2366,"sob":2367,"ował</w>":2368,"kiem</w>":2369,"zosta":2370,"sie</w>":2371,"swo":2372,"tkow":2373,"cję</w>":2374,"też</w>":2375,"jego</w>":2376,"który</w>":2377,"rów":2378,"ęd":2379,"niej":2380,"Na":2381,"ży</w>":2382,"ste":2383,"da</w>":2384,"any</w>":2385,"słu":2386,"Sz":2387,"gi</w>":2388,"par":2389,"pl</w>":2390,"11</w>":2391,"ców</w>":2392,"lu</w>":2393,"kie</w>":2394,"ść</w>":2395,"pierwsz":2396,"dzo</w>":2397,"Prze":2398,"sza":2399,"Pi":2400,"jednak</w>":2401,"może</w>":2402,"ają</w>":2403,"było</w>":2404,"sta</w>":2405,"co":2406,"powi":2407,"przy</w>":2408,"kich</w>":2409,"ymi</w>":2410,"cen":2411,"liśmy</w>":2412,"także</w>":2413,"ane</w>":2414,"Nie":2415,"czas</w>":2416,"skich</w>":2417,"ące</w>":2418,"owa</w>":2419,"ksz":2420,"rę":2421,"ście</w>":2422,"ących</w>":2423,"nic":2424,"ga</w>":2425,"tru":2426,"poli":2427,"ami</w>":2428,"owanie</w>":2429,"był</w>":2430,"15</w>":2431,"Cz":2432,"ką</w>":2433,"ter":2434,"ędz":2435,"szko":2436,"spraw":2437,"szcze</w>":2438,"dob":2439,"20</w>":2440,"peł":2441,"su</w>":2442,"fe":2443,"gó":2444,"tere":2445,"cje</w>":2446,"gru":2447,"ób</w>":2448,"ują</w>":2449,"bardzo</w>":2450,"koń":2451,"wal":2452,"ać</w>":2453,"rod":2454,"wz":2455,"kil":2456,"kim</w>":2457,"być</w>":2458,"raz":2459,"lat</w>":2460,"pew":2461,"tar":2462,"ist":2463,"zie":2464,"nika</w>":2465,"liw":2466,"stro":2467,"usta":2468,"ący</w>":2469,"cią":2470,"uro":2471,"mar":2472,"pó":2473,"nad</w>":2474,"An":2475,"pod</w>":2476,"jej</w>":2477,"będ":2478,"mog":2479,"cznie</w>":2480,"tor":2481,"pisał</w>":2482,"ność</w>":2483,"waż":2484,"pła":2485,"ona</w>":2486,"ur":2487,"mieszka":2488,"wier":2489,"zł</w>":2490,"lub</w>":2491,"ości":2492,"wiado":2493,"ników</w>":2494,"ran":2495,"zost":2496,"Le":2497,"To</w>":2498,"chod":2499,"den":2500,"gl":2501,"skim</w>":2502,"Ro":2503,"sza</w>":2504,"kład":2505,"Wie":2506,"jeszcze</w>":2507,"łem</w>":2508,"lan":2509,"nicy</w>":2510,"ali":2511,"owego</w>":2512,"tych</w>":2513,"dłu":2514,"sy</w>":2515,"Te":2516,"gie":2517,"tr":2518,"licz":2519,"gani":2520,"gro":2521,"pocz":2522,"napisał</w>":2523,"on</w>":2524,"dro":2525,"ii</w>":2526,"dział</w>":2527,"30</w>":2528,"kiego</w>":2529,"am</w>":2530,"nich</w>":2531,"mów":2532,"Kra":2533,"przed</w>":2534,"Sta":2535,"kt</w>":2536,"13</w>":2537,"stawi":2538,"obe":2539,"samo":2540,"szy</w>":2541,"szcze":2542,"sa</w>":2543,"mini":2544,"można</w>":2545,"14</w>":2546,"ński</w>":2547,"gu</w>":2548,"kto":2549,"mie</w>":2550,"ge":2551,"star":2552,"18</w>":2553,"łą":2554,"16</w>":2555,"tro":2556,"ten</w>":2557,"199":2558,"kiej</w>":2559,"kona":2560,"stycz":2561,"ak</w>":2562,"ono</w>":2563,"mówi</w>":2564,"gmi":2565,"Re":2566,"Pro":2567,"osob":2568,"Mo":2569,"rza</w>":2570,"17</w>":2571,"ani</w>":2572,"kla":2573,"skie</w>":2574,"ania</w>":2575,"żytkow":2576,"kach</w>":2577,"cał":2578,"Pod":2579,"osta":2580,"22</w>":2581,"nież</w>":2582,"si</w>":2583,"spół":2584,"róż":2585,"mis":2586,"II</w>":2587,"rodzi":2588,"onych</w>":2589,"cu</w>":2590,"organi":2591,"cha":2592,"dze</w>":2593,"szych</w>":2594,"sią":2595,"Se":2596,"21</w>":2597,"tek</w>":2598,"Wo":2599,"spe":2600,"daw":2601,"tach</w>":2602,"gos":2603,"również</w>":2604,"ona":2605,"wiat":2606,"um</w>":2607,"ul":2608,"Li":2609,"tka":2610,"mości</w>":2611,"py":2612,"kaza":2613,"budow":2614,"decy":2615,"got":2616,"śli</w>":2617,"19</w>":2618,"mo</w>":2619,"Po</w>":2620,"Dzi":2621,"01</w>":2622,"społ":2623,"wet</w>":2624,"które":2625,"owie</w>":2626,"sku":2627,"jako</w>":2628,"ju</w>":2629,"Do":2630,"pracy</w>":2631,"fina":2632,"żytkownik</w>":2633,"którzy</w>":2634,"rodow":2635,"prez":2636,"012</w>":2637,"Użytkownik</w>":2638,"czo":2639,"sko</w>":2640,"zawod":2641,"będą</w>":2642,"nu":2643,"ałem</w>":2644,"cię":2645,"infor":2646,"nii</w>":2647,"ął</w>":2648,"pla":2649,"śnie</w>":2650,"in</w>":2651,"pis":2652,"pły":2653,"fun":2654,"strze":2655,"bezpie":2656,"kry":2657,"ąt":2658,"kolej":2659,"ser":2660,"cza</w>":2661,"ędzy</w>":2662,"była</w>":2663,"09</w>":2664,"In":2665,"owym</w>":2666,"dni":2667,"owie":2668,"sobie</w>":2669,"fa":2670,"poda":2671,"większ":2672,"gdy</w>":2673,"jm":2674,"ns":2675,"bie</w>":2676,"owane</w>":2677,"nię":2678,"mówi":2679,"czne</w>":2680,"sł":2681,"du</w>":2682,"kom":2683,"ia</w>":2684,"zwy":2685,"23</w>":2686,"która</w>":2687,"wan":2688,"spra":2689,"wiąza":2690,"we</w>":2691,"czyć</w>":2692,"50</w>":2693,"nale":2694,"rem</w>":2695,"gor":2696,"nawet</w>":2697,"25</w>":2698,"ęt":2699,"czenia</w>":2700,"nku</w>":2701,"usz</w>":2702,"każ":2703,"prowadz":2704,"cki</w>":2705,"dziej</w>":2706,"lep":2707,"wiadomości</w>":2708,"okre":2709,"Ra":2710,"owi</w>":2711,"ery":2712,"wiel":2713,"zda":2714,"podar":2715,"robi":2716,"Rad":2717,"02</w>":2718,"ostat":2719,"więc</w>":2720,"nau":2721,"korzy":2722,"stwa</w>":2723,"ół</w>":2724,"których</w>":2725,"wać</w>":2726,"rzu":2727,"śl":2728,"trzy":2729,"nim</w>":2730,"tam</w>":2731,"08</w>":2732,"są":2733,"nek</w>":2734,"Mie":2735,"wol":2736,"Przy":2737,"stą":2738,"om</w>":2739,"miast</w>":2740,"gu":2741,"wni":2742,"tre":2743,"nymi</w>":2744,"spotka":2745,"sław</w>":2746,"oko":2747,"ąć</w>":2748,"sko":2749,"oby":2750,"naz":2751,"por":2752,"au":2753,"spor":2754,"nas</w>":2755,"szą</w>":2756,"osób</w>":2757,"Bo":2758,"pozy":2759,"uch":2760,"ęk":2761,"sku</w>":2762,"stos":2763,"War":2764,"cznych</w>":2765,"kro":2766,"mnie</w>":2767,"py</w>":2768,"tę</w>":2769,"bez</w>":2770,"fir":2771,"państ":2772,"dziel":2773,"odpowie":2774,"staw":2775,"cznej</w>":2776,"dzenia</w>":2777,"06</w>":2778,"ję</w>":2779,"dod":2780,"ble":2781,"Be":2782,"łod":2783,"czego</w>":2784,"Bi":2785,"05</w>":2786,"07</w>":2787,"nę</w>":2788,"zł":2789,"kaz":2790,"proje":2791,"mają</w>":2792,"przeci":2793,"ek":2794,"03</w>":2795,"stanowi":2796,"wyda":2797,"bardziej</w>":2798,"znaj":2799,"zacji</w>":2800,"04</w>":2801,"aby</w>":2802,"ska":2803,"czej</w>":2804,"By":2805,"tua":2806,"sto</w>":2807,"twa</w>":2808,"dzić</w>":2809,"prezen":2810,"były</w>":2811,"nią</w>":2812,"ral":2813,"wro":2814,"ciu</w>":2815,"To":2816,"ha":2817,"lar":2818,"Pra":2819,"szym</w>":2820,"zale":2821,"bor":2822,"Naj":2823,"czenie</w>":2824,"Pie":2825,"anych</w>":2826,"uli":2827,"im":2828,"sem</w>":2829,"drze":2830,"kami</w>":2831,"ul</w>":2832,"tyw":2833,"woje":2834,"sam":2835,"mist":2836,"jedno":2837,"let":2838,"kur":2839,"stu":2840,"ową</w>":2841,"Do</w>":2842,"ując":2843,"głos":2844,"cą</w>":2845,"cej</w>":2846,"pracow":2847,"owany</w>":2848,"podob":2849,"mal":2850,"został</w>":2851,"trud":2852,"uję</w>":2853,"publi":2854,"mieni":2855,"rad":2856,"pan":2857,"pił":2858,"wia":2859,"gdzie</w>":2860,"gospodar":2861,"tą</w>":2862,"powiad":2863,"Lu":2864,"czywi":2865,"pieni":2866,"środ":2867,"bud":2868,"nam</w>":2869,"bior":2870,"szę</w>":2871,"sytua":2872,"Euro":2873,"ren":2874,"stu</w>":2875,"niż</w>":2876,"nienia</w>":2877,"ogra":2878,"an</w>":2879,"cją</w>":2880,"ór":2881,"cjal":2882,"el":2883,"tys</w>":2884,"godzi":2885,"pyta":2886,"czyli</w>":2887,"sce</w>":2888,"rywa":2889,"ano</w>":2890,"zu":2891,"lek":2892,"log":2893,"Ale</w>":2894,"włas":2895,"rw":2896,"szu":2897,"il":2898,"stwo</w>":2899,"klu":2900,"sad":2901,"24</w>":2902,"anie</w>":2903,"ele":2904,"niego</w>":2905,"woj":2906,"tury</w>":2907,"2006</w>":2908,"kła":2909,"właści":2910,"arty":2911,"Jak</w>":2912,"rzę":2913,"gól":2914,"przypad":2915,"pun":2916,"pomo":2917,"ucz":2918,"stru":2919,"poś":2920,"Ar":2921,"Kon":2922,"szej</w>":2923,"wen":2924,"intere":2925,"możliw":2926,"jemy</w>":2927,"cach</w>":2928,"jedy":2929,"mier":2930,"informa":2931,"twier":2932,"NI":2933,"ród</w>":2934,"ając":2935,"wyż":2936,"pan</w>":2937,"obec":2938,"poz":2939,"2003</w>":2940,"proble":2941,"chodzi</w>":2942,"finans":2943,"więcej</w>":2944,"owią":2945,"Ry":2946,"trzeba</w>":2947,"ucze":2948,"mery":2949,"kosz":2950,"mon":2951,"tele":2952,"2007</w>":2953,"Sa":2954,"Krakow":2955,"dyre":2956,"przedstawi":2957,"wódz":2958,"dził</w>":2959,"Polski</w>":2960,"cze</w>":2961,"dnia</w>":2962,"miejsce</w>":2963,"ory":2964,"powod":2965,"dzieci</w>":2966,"uwa":2967,"między</w>":2968,"ską</w>":2969,"2005</w>":2970,"Ba":2971,"rob":2972,"Bar":2973,"sprze":2974,"wiele</w>":2975,"Ty":2976,"społe":2977,"obowią":2978,"26</w>":2979,"2004</w>":2980,"ością</w>":2981,"świat":2982,"wiąz":2983,"scy</w>":2984,"Ju":2985,"cer":2986,"ktu</w>":2987,"lą":2988,"stem</w>":2989,"ście":2990,"gę</w>":2991,"tnie</w>":2992,"wał</w>":2993,"zyden":2994,"przygot":2995,"owarzy":2996,"dwa</w>":2997,"produ":2998,"40</w>":2999,"otrzy":3000,"progra":3001,"czył</w>":3002,"świe":3003,"liz":3004,"duż":3005,"obie":3006,"Czy</w>":3007,"współ":3008,"ok":3009,"wzgl":3010,"ęż":3011,"wyso":3012,"mieszkań":3013,"ńskiego</w>":3014,"tki</w>":3015,"kiedy</w>":3016,"chro":3017,"pa</w>":3018,"łon":3019,"27</w>":3020,"dzenie</w>":3021,"nato":3022,"Polsce</w>":3023,"28</w>":3024,"Bu":3025,"pita":3026,"pró":3027,"mniej</w>":3028,"którym</w>":3029,"mów</w>":3030,"kan":3031,"tał":3032,"sób</w>":3033,"siad":3034,"den</w>":3035,"Piot":3036,"ktor</w>":3037,"kcji</w>":3038,"czu</w>":3039,"per":3040,"Dzie":3041,"miał</w>":3042,"ti":3043,"sk</w>":3044,"ktu":3045,"potrze":3046,"29</w>":3047,"dzą</w>":3048,"kró":3049,"inwe":3050,"poja":3051,"2002</w>":3052,"dwó":3053,"rozpo":3054,"rzęd":3055,"cka</w>":3056,"głów":3057,"loka":3058,"żeby</w>":3059,"wania</w>":3060,"umie":3061,"Ku":3062,"ając</w>":3063,"and":3064,"mogą</w>":3065,"względ":3066,"powin":3067,"kilka</w>":3068,"póź":3069,"wski</w>":3070,"złot":3071,"We":3072,"miasta</w>":3073,"Krzy":3074,"czora":3075,"ustawy</w>":3076,"nach</w>":3077,"szego</w>":3078,"nad":3079,"owski</w>":3080,"ąd</w>":3081,"sposób</w>":3082,"młod":3083,"cu":3084,"oba":3085,"tur":3086,"St":3087,"Jed":3088,"gło":3089,"zach":3090,"sti":3091,"rząd</w>":3092,"ok</w>":3093,"Andrze":3094,"podczas</w>":3095,"chi":3096,"wró":3097,"niki</w>":3098,"nr</w>":3099,"Kie":3100,"wer":3101,"łodzie":3102,"szł":3103,"leg":3104,"owana</w>":3105,"trafi":3106,"ora</w>":3107,"organiz":3108,"net</w>":3109,"stanie</w>":3110,"Mu":3111,"innych</w>":3112,"cznego</w>":3113,"mał":3114,"czny</w>":3115,"interes":3116,"czyk</w>":3117,"słow":3118,"man":3119,"OW":3120,"misji</w>":3121,"ckiego</w>":3122,"mię":3123,"nic</w>":3124,"sty</w>":3125,"latego</w>":3126,"Warsza":3127,"wszystkich</w>":3128,"właśnie</w>":3129,"31</w>":3130,"godz</w>":3131,"min":3132,"pej":3133,"Od":3134,"plan":3135,"stytu":3136,"pom":3137,"rol":3138,"ując</w>":3139,"Wa":3140,"chwi":3141,"jąc</w>":3142,"gdy":3143,"met":3144,"ho":3145,"wsze</w>":3146,"której</w>":3147,"tema":3148,"ponad</w>":3149,"bro":3150,"druży":3151,"temu</w>":3152,"zji</w>":3153,"żad":3154,"gn":3155,"nika":3156,"Ni":3157,"kół</w>":3158,"dwóch</w>":3159,"cześ":3160,"zdoby":3161,"tel":3162,"nos":3163,"jąc":3164,"Od</w>":3165,"45</w>":3166,"fer":3167,"Da":3168,"Jest</w>":3169,"stąpi":3170,"szczegól":3171,"bad":3172,"niach</w>":3173,"prezyden":3174,"miejsc":3175,"łowie":3176,"następ":3177,"rak":3178,"um":3179,"bliż":3180,"tedy</w>":3181,"hist":3182,"teri":3183,"stać</w>":3184,"aż</w>":3185,"wyja":3186,"owo</w>":3187,"cić</w>":3188,"rok</w>":3189,"Woj":3190,"łoż":3191,"kierow":3192,"AR":3193,"De":3194,"stów</w>":3195,"sięcy</w>":3196,"czywiście</w>":3197,"latach</w>":3198,"dar":3199,"czasie</w>":3200,"owanych</w>":3201,"Ga":3202,"jech":3203,"min</w>":3204,"nić</w>":3205,"wielu</w>":3206,"2008</w>":3207,"zgod":3208,"śród</w>":3209,"preze":3210,"któw</w>":3211,"bram":3212,"szyb":3213,"oł":3214,"rek</w>":3215,"raż":3216,"2001</w>":3217,"che":3218,"dni</w>":3219,"Tar":3220,"obro":3221,"ofi":3222,"sji</w>":3223,"skar":3224,"sów</w>":3225,"Fi":3226,"kład</w>":3227,"wojewódz":3228,"konie":3229,"zasad":3230,"sprzeda":3231,"bym</w>":3232,"ud":3233,"czoraj</w>":3234,"nia":3235,"teraz</w>":3236,"bu</w>":3237,"resz":3238,"śli":3239,"dzieć</w>":3240,"owano</w>":3241,"chci":3242,"przeciw":3243,"mod":3244,"ml":3245,"wykona":3246,"jeden</w>":3247,"Roz":3248,"inter":3249,"sprawie</w>":3250,"kowski</w>":3251,"kowi":3252,"śle":3253,"ost":3254,"dzien":3255,"ludzi</w>":3256,"kura":3257,"spól":3258,"wicz</w>":3259,"ńska</w>":3260,"glą":3261,"kul":3262,"ster":3263,"reali":3264,"wszystko</w>":3265,"ten":3266,"dale":3267,"18":3268,"funk":3269,"pię":3270,"żeli</w>":3271,"skład":3272,"Me":3273,"takie</w>":3274,"rządu</w>":3275,"wszystkim</w>":3276,"ża":3277,"kształ":3278,"fil":3279,"chu</w>":3280,"36</w>":3281,"dw":3282,"pół":3283,"orów</w>":3284,"musi":3285,"sia":3286,"60</w>":3287,"szał":3288,"łoży":3289,"dwie</w>":3290,"żenia</w>":3291,"kobie":3292,"popraw":3293,"bezpiecze":3294,"trzy</w>":3295,"ęki</w>":3296,"lem</w>":3297,"wem</w>":3298,"ner":3299,"kty</w>":3300,"zar":3301,"ponie":3302,"prawa</w>":3303,"żenie</w>":3304,"czyn":3305,"mach</w>":3306,"KS</w>":3307,"Fran":3308,"tech":3309,"two":3310,"Rze":3311,"com</w>":3312,"znacz":3313,"warun":3314,"Mał":3315,"wia</w>":3316,"ban":3317,"Cho":3318,"świad":3319,"świę":3320,"proc</w>":3321,"pie</w>":3322,"zapew":3323,"onu</w>":3324,"gry":3325,"zakoń":3326,"kol":3327,"dać</w>":3328,"uważ":3329,"życia</w>":3330,"cha</w>":3331,"IE":3332,"razem</w>":3333,"Wiel":3334,"tami</w>":3335,"nienie</w>":3336,"mina":3337,"doty":3338,"tłu":3339,"rowi":3340,"So":3341,"Or":3342,"rą":3343,"ód</w>":3344,"znajd":3345,"jeśli</w>":3346,"ństwa</w>":3347,"powiedział</w>":3348,"gen":3349,"oby</w>":3350,"owaniu</w>":3351,"owiem</w>":3352,"zagra":3353,"wrote</w>":3354,"000</w>":3355,"budy":3356,"kości</w>":3357,"narodow":3358,"tor</w>":3359,"wn":3360,"tygod":3361,"two</w>":3362,"uczest":3363,"ien":3364,"35</w>":3365,"rach</w>":3366,"szan":3367,"gnie":3368,"rząd":3369,"Poli":3370,"złotych</w>":3371,"ńskiej</w>":3372,"komu":3373,"Jan":3374,"wra":3375,"zrobi":3376,"33</w>":3377,"ogó":3378,"Si":3379,"nar":3380,"cę</w>":3381,"wart":3382,"cił</w>":3383,"została</w>":3384,"Ada":3385,"człowie":3386,"pli":3387,"Toma":3388,"Ta":3389,"dług</w>":3390,"około</w>":3391,"zostanie</w>":3392,"zysk":3393,"dobrze</w>":3394,"Grze":3395,"związ":3396,"uży":3397,"związa":3398,"ątku</w>":3399,"pon":3400,"mniej":3401,"wcześ":3402,"budże":3403,"szto":3404,"konkur":3405,"należy</w>":3406,"Co</w>":3407,"32</w>":3408,"ter</w>":3409,"moc":3410,"wanie</w>":3411,"bowiem</w>":3412,"swoje</w>":3413,"czyz":3414,"Andrzej</w>":3415,"gminy</w>":3416,"ksią":3417,"06":3418,"działu</w>":3419,"czasu</w>":3420,"ujących</w>":3421,"męż":3422,"dę</w>":3423,"tacji</w>":3424,"gar":3425,"drugie":3426,"którego</w>":3427,"owali</w>":3428,"powiat":3429,"ądze</w>":3430,"nem</w>":3431,"trum</w>":3432,"proce":3433,"łu</w>":3434,"fo":3435,"Au":3436,"piero</w>":3437,"ner</w>":3438,"oświad":3439,"krzy":3440,"strony</w>":3441,"onym</w>":3442,"np</w>":3443,"czes":3444,"meczu</w>":3445,"okaz":3446,"pełni":3447,"lnych</w>":3448,"vi":3449,"2000</w>":3450,"wszystkie</w>":3451,"czna</w>":3452,"hi":3453,"Pe":3454,"ckiej</w>":3455,"pode":3456,"prawi":3457,"przyję":3458,"bur":3459,"wspól":3460,"Mich":3461,"rzenia</w>":3462,"SK":3463,"cież</w>":3464,"biera":3465,"zwycię":3466,"ws":3467,"służ":3468,"osoby</w>":3469,"szenia</w>":3470,"ół":3471,"kumen":3472,"owała</w>":3473,"05":3474,"wykorzy":3475,"człon":3476,"80</w>":3477,"Ze":3478,"prezent":3479,"rozumie":3480,"Tak</w>":3481,"działal":3482,"pierwszy</w>":3483,"Jeśli</w>":3484,"para":3485,"100</w>":3486,"przyzna":3487,"wypad":3488,"Krzyszto":3489,"albo</w>":3490,"Du":3491,"mag":3492,"każd":3493,"kilku</w>":3494,"kraju</w>":3495,"nów</w>":3496,"wzi":3497,"Piotr</w>":3498,"wybor":3499,"najlep":3500,"dzień</w>":3501,"dotycz":3502,"lata</w>":3503,"41</w>":3504,"potrzeb":3505,"przyszł":3506,"państwa</w>":3507,"samochod":3508,"art</w>":3509,"chy":3510,"cyjne</w>":3511,"później</w>":3512,"cyjnych</w>":3513,"wnio":3514,"wygra":3515,"aut":3516,"sw":3517,"szpita":3518,"opi":3519,"Par":3520,"udział</w>":3521,"wał":3522,"46</w>":3523,"inwesty":3524,"wtedy</w>":3525,"tka</w>":3526,"dź</w>":3527,"minu":3528,"Stani":3529,"70</w>":3530,"śnia</w>":3531,"mln</w>":3532,"lne</w>":3533,"44</w>":3534,"muzy":3535,"przedsię":3536,"domu</w>":3537,"zaję":3538,"2009</w>":3539,"jaz":3540,"mili":3541,"należ":3542,"Cze":3543,"pomy":3544,"Dy":3545,"55</w>":3546,"Al":3547,"czycie":3548,"wpły":3549,"nictwa</w>":3550,"ber":3551,"mamy</w>":3552,"sły":3553,"Pozna":3554,"natomiast</w>":3555,"razie</w>":3556,"SA</w>":3557,"nością</w>":3558,"dokumen":3559,"aw":3560,"strzy":3561,"był":3562,"regi":3563,"zmia":3564,"dia</w>":3565,"czerw":3566,"miejscu</w>":3567,"dza</w>":3568,"34</w>":3569,"decyd":3570,"ówki</w>":3571,"czym</w>":3572,"lot":3573,"nię</w>":3574,"iż</w>":3575,"drug":3576,"przewod":3577,"właścicie":3578,"sytuacji</w>":3579,"coś</w>":3580,"ędzi":3581,"ękuję</w>":3582,"musi</w>":3583,"siebie</w>":3584,"piej</w>":3585,"czu":3586,"kl":3587,"polity":3588,"zawsze</w>":3589,"Pola":3590,"sam</w>":3591,"Rob":3592,"obowiąz":3593,"spół</w>":3594,"rz</w>":3595,"ubie":3596,"cznym</w>":3597,"dziś</w>":3598,"38</w>":3599,"Pu":3600,"życie</w>":3601,"len":3602,"ab":3603,"opie":3604,"pana</w>":3605,"syste":3606,"oną</w>":3607,"tytu":3608,"wór":3609,"37</w>":3610,"dan":3611,"dż":3612,"Sej":3613,"39</w>":3614,"Gra":3615,"CE":3616,"pani</w>":3617,"rozwiąza":3618,"Pier":3619,"Bra":3620,"zakład":3621,"młodzie":3622,"pozna":3623,"taj</w>":3624,"uczni":3625,"kowe</w>":3626,"dobr":3627,"zwyk":3628,"wach</w>":3629,"zada":3630,"organiza":3631,"sła</w>":3632,"chce</w>":3633,"artyku":3634,"ster</w>":3635,"jem":3636,"Miej":3637,"pieniądze</w>":3638,"Za</w>":3639,"stał</w>":3640,"szenie</w>":3641,"poko":3642,"Marci":3643,"fika":3644,"he":3645,"wek</w>":3646,"uzna":3647,"ątek</w>":3648,"Panie</w>":3649,"Jan</w>":3650,"Kar":3651,"wój</w>":3652,"kieru":3653,"dzy</w>":3654,"czą</w>":3655,"cenie</w>":3656,"logi":3657,"miany</w>":3658,"połow":3659,"rodowi":3660,"stwier":3661,"mistrz":3662,"pu</w>":3663,"ątkow":3664,"dodat":3665,"choć</w>":3666,"szczę":3667,"cjona":3668,"siaj</w>":3669,"kcie</w>":3670,"42</w>":3671,"swoich</w>":3672,"Iz":3673,"lepiej</w>":3674,"ędzy":3675,"48</w>":3676,"powo":3677,"43</w>":3678,"sł</w>":3679,"kwi":3680,"ujące</w>":3681,"nada":3682,"ato":3683,"Bie":3684,"wska":3685,"Tu":3686,"szu</w>":3687,"Dziękuję</w>":3688,"ujący</w>":3689,"zmieni":3690,"Mari":3691,"cła":3692,"am":3693,"szło</w>":3694,"wcześniej</w>":3695,"zajm":3696,"rządow":3697,"niku</w>":3698,"wyj":3699,"histor":3700,"red":3701,"wspo":3702,"podstaw":3703,"ciem</w>":3704,"Cen":3705,"III</w>":3706,"Go":3707,"Ci":3708,"198":3709,"Pre":3710,"dal":3711,"Ru":3712,"56</w>":3713,"przypadku</w>":3714,"kontro":3715,"dł</w>":3716,"ple":3717,"pamię":3718,"pose":3719,"części</w>":3720,"Bog":3721,"czyst":3722,"czną</w>":3723,"czasem</w>":3724,"wrze":3725,"ciąg":3726,"byli</w>":3727,"szkoły</w>":3728,"mieszkańców</w>":3729,"ata</w>":3730,"pal":3731,"inform":3732,"politycz":3733,"RZ":3734,"takich</w>":3735,"wi</w>":3736,"gna":3737,"lnej</w>":3738,"sportow":3739,"omi":3740,"eli":3741,"szar":3742,"mawi":3743,"Mini":3744,"specjal":3745,"nami</w>":3746,"ciągu</w>":3747,"łam</w>":3748,"dziemy</w>":3749,"rp":3750,"języ":3751,"Pawe":3752,"występ":3753,"lnego</w>":3754,"PO":3755,"kom</w>":3756,"szcza</w>":3757,"osie":3758,"łat":3759,"ające</w>":3760,"taki</w>":3761,"der":3762,"krę":3763,"powa":3764,"fa</w>":3765,"stal":3766,"oni</w>":3767,"szek</w>":3768,"pojawi":3769,"ór</w>":3770,"żar":3771,"59</w>":3772,"Europej":3773,"47</w>":3774,"wice":3775,"wczoraj</w>":3776,"lej":3777,"nikiem</w>":3778,"remon":3779,"firmy</w>":3780,"zio":3781,"początku</w>":3782,"zostały</w>":3783,"kor":3784,"potem</w>":3785,"Trze":3786,"waż</w>":3787,"miesi":3788,"posiad":3789,"zależ":3790,"ade":3791,"ww</w>":3792,"okaza":3793,"wieku</w>":3794,"tera":3795,"kty":3796,"łó":3797,"uzysk":3798,"zoba":3799,"zam":3800,"utrzy":3801,"Mia":3802,"wali":3803,"ari":3804,"dopiero</w>":3805,"Pan</w>":3806,"byt</w>":3807,"mem</w>":3808,"dyrektor</w>":3809,"Spo":3810,"decyz":3811,"zer":3812,"działa":3813,"temat</w>":3814,"ochro":3815,"pera":3816,"łe":3817,"mam</w>":3818,"krót":3819,"200</w>":3820,"znale":3821,"wśród</w>":3822,"try":3823,"wały</w>":3824,"czek</w>":3825,"not":3826,"www</w>":3827,"Ros":3828,"dwu":3829,"nowe</w>":3830,"rzędu</w>":3831,"ministra":3832,"ca":3833,"ST":3834,"ciej</w>":3835,"zainteres":3836,"sobot":3837,"My":3838,"trów</w>":3839,"prawie</w>":3840,"ąca</w>":3841,"cjan":3842,"cek</w>":3843,"tłuma":3844,"miejsca</w>":3845,"często</w>":3846,"57</w>":3847,"rodz":3848,"śni":3849,"powiada</w>":3850,"szczy":3851,"zy</w>":3852,"54</w>":3853,"Krzysztof</w>":3854,"eg":3855,"kraj":3856,"gł</w>":3857,"wyra":3858,"gór":3859,"świata</w>":3860,"dzier":3861,"ających</w>":3862,"sztu":3863,"RA":3864,"część</w>":3865,"Gór":3866,"zespoł":3867,"51</w>":3868,"52</w>":3869,"Su":3870,"prywa":3871,"czeń</w>":3872,"Szko":3873,"śmier":3874,"akcji</w>":3875,"uka":3876,"Sy":3877,"lny</w>":3878,"rucho":3879,"syj":3880,"wiet":3881,"49</w>":3882,"Stra":3883,"charak":3884,"drugiej</w>":3885,"przecież</w>":3886,"oj":3887,"chow":3888,"mieć</w>":3889,"tz":3890,"gan":3891,"Cie":3892,"cjon":3893,"przej":3894,"jednym</w>":3895,"Pow":3896,"SZ":3897,"zwie":3898,"nagro":3899,"onet</w>":3900,"kowych</w>":3901,"wali</w>":3902,"zawie":3903,"Marek</w>":3904,"onego</w>":3905,"najmniej</w>":3906,"wor":3907,"jakie</w>":3908,"ode":3909,"sen":3910,"dysku":3911,"58</w>":3912,"sława</w>":3913,"inne</w>":3914,"niż":3915,"dzę</w>":3916,"chło":3917,"Unii</w>":3918,"więk":3919,"Ży":3920,"Tomasz</w>":3921,"ącego</w>":3922,"Jo":3923,"Sie":3924,"niez":3925,"razy</w>":3926,"śmie":3927,"maj":3928,"pieniędzy</w>":3929,"sił":3930,"Są":3931,"obra":3932,"kli":3933,"tysięcy</w>":3934,"przede</w>":3935,"nica</w>":3936,"minist":3937,"dlatego</w>":3938,"nauczycie":3939,"75</w>":3940,"zakre":3941,"końca</w>":3942,"miała</w>":3943,"liwości</w>":3944,"trzech</w>":3945,"nę":3946,"anka</w>":3947,"Star":3948,"cjach</w>":3949,"komen":3950,"zabra":3951,"czeka":3952,"fak":3953,"przedstawicie":3954,"niejsze</w>":3955,"90</w>":3956,"ment</w>":3957,"rzenie</w>":3958,"procen":3959,"Wyso":3960,"KO":3961,"rzch":3962,"obec</w>":3963,"rom":3964,"kto</w>":3965,"ron":3966,"żyć</w>":3967,"ludzie</w>":3968,"posta":3969,"Grzegor":3970,"olog":3971,"szka</w>":3972,"Kto</w>":3973,"tek":3974,"materi":3975,"rza":3976,"cjali":3977,"wzro":3978,"nosi</w>":3979,"53</w>":3980,"prezes</w>":3981,"niami</w>":3982,"ckich</w>":3983,"coraz</w>":3984,"wają</w>":3985,"part":3986,"nio</w>":3987,"śla":3988,"Paweł</w>":3989,"de</w>":3990,"Grzegorz</w>":3991,"Krakowie</w>":3992,"strz":3993,"mał</w>":3994,"ża</w>":3995,"lip":3996,"którą</w>":3997,"kate":3998,"kupi":3999,"jaki":4000,"cieka":4001,"pierwszej</w>":4002,"żdż":4003,"Teraz</w>":4004,"kwe":4005,"dek</w>":4006,"przedsiębior":4007,"Wsz":4008,"SP</w>":4009,"koncer":4010,"wała</w>":4011,"uwagę</w>":4012,"sił</w>":4013,"kony":4014,"CZ":4015,"Jó":4016,"tycznie</w>":4017,"cep":4018,"laczego</w>":4019,"najbardziej</w>":4020,"nowych</w>":4021,"wnęt":4022,"czar":4023,"dyda":4024,"gów</w>":4025,"chwili</w>":4026,"onej</w>":4027,"Powi":4028,"przyj":4029,"wszy":4030,"ulicy</w>":4031,"Gł":4032,"ke":4033,"mian":4034,"zmie":4035,"staną</w>":4036,"rzyć</w>":4037,"jednego</w>":4038,"uni":4039,"otwar":4040,"powiedzieć</w>":4041,"propon":4042,"rami</w>":4043,"kce":4044,"zatrzy":4045,"działa</w>":4046,"rzecz":4047,"poczta</w>":4048,"op":4049,"stety</w>":4050,"Rady</w>":4051,"ństwo</w>":4052,"opol":4053,"ścia</w>":4054,"karze</w>":4055,"gaze":4056,"pytanie</w>":4057,"Kul":4058,"książ":4059,"kiewicz</w>":4060,"czyła</w>":4061,"sami</w>":4062,"ckim</w>":4063,"efe":4064,"czwar":4065,"wą</w>":4066,"słów</w>":4067,"czeniu</w>":4068,"wszyscy</w>":4069,"poważ":4070,"La":4071,"ktoś</w>":4072,"Gru":4073,"ski":4074,"środowi":4075,"cześnie</w>":4076,"sek":4077,"śnie":4078,"miar":4079,"Zie":4080,"cenia</w>":4081,"nadzie":4082,"chy</w>":4083,"ro</w>":4084,"dzięki</w>":4085,"staro":4086,"jakie":4087,"PA":4088,"zespo":4089,"nag":4090,"miejscow":4091,"związku</w>":4092,"kana":4093,"metrów</w>":4094,"Wszyst":4095,"Niem":4096,"kuje</w>":4097,"pracę</w>":4098,"man</w>":4099,"Re</w>":4100,"redni":4101,"wane</w>":4102,"mężczyz":4103,"jedynie</w>":4104,"pozosta":4105,"grupy</w>":4106,"czki</w>":4107,"tyle</w>":4108,"tery</w>":4109,"der</w>":4110,"wybra":4111,"Szy":4112,"wzię":4113,"Dla</w>":4114,"onów</w>":4115,"swoją</w>":4116,"alne</w>":4117,"pierwsze</w>":4118,"ała":4119,"dniu</w>":4120,"komisji</w>":4121,"wskiego</w>":4122,"onie</w>":4123,"przewodnicz":4124,"podobnie</w>":4125,"aje</w>":4126,"cami</w>":4127,"wody</w>":4128,"Józe":4129,"tel</w>":4130,"cyjny</w>":4131,"podkre":4132,"tora</w>":4133,"zg":4134,"opła":4135,"prawo</w>":4136,"kowej</w>":4137,"tk":4138,"Proszę</w>":4139,"łącz":4140,"najbliż":4141,"obu":4142,"pomocy</w>":4143,"Polska</w>":4144,"nił</w>":4145,"Ki":4146,"wobec</w>":4147,"znala":4148,"ający</w>":4149,"głę":4150,"wę</w>":4151,"terenie</w>":4152,"mieli</w>":4153,"zespół</w>":4154,"cały</w>":4155,"zgło":4156,"stop":4157,"osią":4158,"1999</w>":4159,"towarzy":4160,"czak</w>":4161,"Fun":4162,"zaś</w>":4163,"niemie":4164,"bę</w>":4165,"chę</w>":4166,"ks</w>":4167,"każdy</w>":4168,"pięk":4169,"chodzi":4170,"nąć</w>":4171,"rządz":4172,"Ol":4173,"ografi":4174,"udało</w>":4175,"Ste":4176,"ve":4177,"przewi":4178,"nki</w>":4179,"jących</w>":4180,"tery":4181,"wąt":4182,"tury":4183,"Paw":4184,"lenia</w>":4185,"Wojcie":4186,"kości":4187,"administra":4188,"tura</w>":4189,"pole":4190,"ówczas</w>":4191,"jednej</w>":4192,"auto":4193,"rzu</w>":4194,"ubiegł":4195,"mimo</w>":4196,"torów</w>":4197,"Jednak</w>":4198,"Kry":4199,"twie</w>":4200,"doświad":4201,"rozpoczę":4202,"gene":4203,"Sza":4204,"gim":4205,"cyjnego</w>":4206,"pewno</w>":4207,"podsta":4208,"kowie</w>":4209,"nor":4210,"rowia</w>":4211,"awan":4212,"szedł</w>":4213,"jeżdż":4214,"Marcin</w>":4215,"jący</w>":4216,"mor":4217,"spad":4218,"AN":4219,"spa":4220,"ktora</w>":4221,"połu":4222,"ój":4223,"km</w>":4224,"sło":4225,"ałam</w>":4226,"obecnie</w>":4227,"rynku</w>":4228,"tuje</w>":4229,"przykład</w>":4230,"Szcze":4231,"trady":4232,"gdyż</w>":4233,"meryka":4234,"twór":4235,"ru</w>":4236,"bry":4237,"ałe</w>":4238,"ród":4239,"RO":4240,"dom":4241,"chyba</w>":4242,"wypo":4243,"blo":4244,"mógł</w>":4245,"cem</w>":4246,"mek</w>":4247,"ofer":4248,"przyja":4249,"pi</w>":4250,"ot</w>":4251,"telewi":4252,"kin":4253,"rów</w>":4254,"Jacek</w>":4255,"Gda":4256,"zacja</w>":4257,"otrzym":4258,"możliwości</w>":4259,"cja":4260,"spotkania</w>":4261,"premie":4262,"nios":4263,"zorganiz":4264,"sukce":4265,"spi":4266,"wystar":4267,"poseł</w>":4268,"lecz</w>":4269,"26":4270,"tzw</w>":4271,"ńskim</w>":4272,"wiek</w>":4273,"Ślą":4274,"swoim</w>":4275,"prawdę</w>":4276,"Co":4277,"wraz</w>":4278,"dzisiaj</w>":4279,"księ":4280,"Ge":4281,"naszych</w>":4282,"myśl":4283,"ńskich</w>":4284,"porząd":4285,"dużo</w>":4286,"cyjnej</w>":4287,"jen":4288,"maga":4289,"prowadzi":4290,"kwo":4291,"leks":4292,"krotnie</w>":4293,"karz</w>":4294,"mowy</w>":4295,"tne</w>":4296,"dziesią":4297,"sla":4298,"skute":4299,"ramach</w>":4300,"prokura":4301,"zaczę":4302,"mił":4303,"ędzynarodow":4304,"ag":4305,"usz":4306,"jednost":4307,"mecz</w>":4308,"feren":4309,"naszej</w>":4310,"Dlatego</w>":4311,"wej":4312,"różnych</w>":4313,"Wal":4314,"sach</w>":4315,"stosun":4316,"czas":4317,"ura":4318,"kowo</w>":4319,"sprawy</w>":4320,"dziew":4321,"Czy":4322,"nu</w>":4323,"największ":4324,"czych</w>":4325,"jak":4326,"Jego</w>":4327,"Gdy":4328,"zdrow":4329,"komi":4330,"lenie</w>":4331,"boi":4332,"sezo":4333,"Ne":4334,"fra":4335,"stwo":4336,"mpi":4337,"informacji</w>":4338,"Marszał":4339,"koniec</w>":4340,"ponieważ</w>":4341,"mę</w>":4342,"Dru":4343,"ana":4344,"Już</w>":4345,"mówił</w>":4346,"ówno</w>":4347,"grzy":4348,"drog":4349,"polskich</w>":4350,"nien</w>":4351,"AT":4352,"dem</w>":4353,"legł":4354,"elekt":4355,"realiz":4356,"it":4357,"KA</w>":4358,"tural":4359,"gry</w>":4360,"gii</w>":4361,"sia</w>":4362,"poprzed":4363,"struktu":4364,"nowy</w>":4365,"zwo":4366,"ozna":4367,"ździer":4368,"ściej</w>":4369,"może":4370,"tować</w>":4371,"tutaj</w>":4372,"działania</w>":4373,"odby":4374,"sja</w>":4375,"Adam</w>":4376,"Jeżeli</w>":4377,"usłu":4378,"dź":4379,"ur</w>":4380,"Kiedy</w>":4381,"daje</w>":4382,"Pierwsz":4383,"klien":4384,"postęp":4385,"mii</w>":4386,"kandyda":4387,"prostu</w>":4388,"lić</w>":4389,"usza</w>":4390,"owicz</w>":4391,"lnie</w>":4392,"jestem</w>":4393,"Kraków</w>":4394,"17":4395,"LI":4396,"wienia</w>":4397,"hand":4398,"sierp":4399,"studen":4400,"Ce":4401,"naszym</w>":4402,"mina</w>":4403,"prób":4404,"nowego</w>":4405,"paździer":4406,"zaj":4407,"wnętrz":4408,"kredy":4409,"ile</w>":4410,"zupeł":4411,"szka":4412,"wienie</w>":4413,"Ja</w>":4414,"szkół</w>":4415,"samym</w>":4416,"se</w>":4417,"bog":4418,"kategor":4419,"reg":4420,"Jerzy</w>":4421,"skła":4422,"stało</w>":4423,"pracowników</w>":4424,"niec</w>":4425,"zostało</w>":4426,"Według</w>":4427,"ST</w>":4428,"zamie":4429,"giel":4430,"plac":4431,"znacznie</w>":4432,"komis":4433,"pat":4434,"nosi":4435,"przyczy":4436,"właszcza</w>":4437,"Wła":4438,"dłuż":4439,"Gdy</w>":4440,"Wię":4441,"działem</w>":4442,"fundu":4443,"zmiany</w>":4444,"poza</w>":4445,"obo":4446,"chodz":4447,"ckie</w>":4448,"1998</w>":4449,"stara":4450,"odpowiedzi":4451,"Jaro":4452,"ana</w>":4453,"dów</w>":4454,"nikt</w>":4455,"maja</w>":4456,"16":4457,"karzy</w>":4458,"instytu":4459,"kowi</w>":4460,"Wło":4461,"Fe":4462,"dii</w>":4463,"września</w>":4464,"chód</w>":4465,"ust</w>":4466,"wój":4467,"skrzy":4468,"jach</w>":4469,"lamen":4470,"owice</w>":4471,"propozy":4472,"eksp":4473,"ge</w>":4474,"arz</w>":4475,"roze":4476,"odaw":4477,"policjan":4478,"powiatu</w>":4479,"przekaza":4480,"ówka</w>":4481,"prawdzi":4482,"Pan":4483,"zespołu</w>":4484,"Wro":4485,"owaniem</w>":4486,"tran":4487,"projektu</w>":4488,"zbyt</w>":4489,"częściej</w>":4490,"stw</w>":4491,"psy":4492,"mowa</w>":4493,"budowy</w>":4494,"alnych</w>":4495,"zek</w>":4496,"th":4497,"czyta":4498,"ącym</w>":4499,"Zbi":4500,"miot":4501,"lę</w>":4502,"świet":4503,"ceny</w>":4504,"oru":4505,"al</w>":4506,"listo":4507,"znaleź":4508,"kade":4509,"pozio":4510,"woju</w>":4511,"równa":4512,"papie":4513,"lnym</w>":4514,"niedziel":4515,"swojej</w>":4516,"rozgry":4517,"szkole":4518,"zdję":4519,"Stanisław</w>":4520,"wiem</w>":4521,"pada</w>":4522,"Świę":4523,"robot":4524,"lił</w>":4525,"mało</w>":4526,"przeciw</w>":4527,"emery":4528,"przekona":4529,"sę</w>":4530,"innymi</w>":4531,"Biał":4532,"nice</w>":4533,"podej":4534,"polskiego</w>":4535,"Powiat":4536,"jeżeli</w>":4537,"Może</w>":4538,"regu":4539,"naszego</w>":4540,"pierwszym</w>":4541,"możli":4542,"zni":4543,"prawdo":4544,"podat":4545,"dostęp":4546,"popu":4547,"kwiet":4548,"Michał</w>":4549,"kcja</w>":4550,"łącznie</w>":4551,"prac</w>":4552,"Centrum</w>":4553,"ocze":4554,"projekt</w>":4555,"ącej</w>":4556,"tan":4557,"zm</w>":4558,"głównie</w>":4559,"oce":4560,"żył</w>":4561,"polskiej</w>":4562,"nął</w>":4563,"USA</w>":4564,"Miasta</w>":4565,"kość</w>":4566,"trochę</w>":4567,"letni</w>":4568,"Sto":4569,"celu</w>":4570,"zag":4571,"stała</w>":4572,"będziemy</w>":4573,"owało</w>":4574,"ium</w>":4575,"danych</w>":4576,"Przed":4577,"rowe</w>":4578,"mistrz</w>":4579,"niesie":4580,"Czar":4581,"bec":4582,"Sena":4583,"Czę":4584,"mogli</w>":4585,"ws</w>":4586,"mer":4587,"Uni":4588,"ton</w>":4589,"św</w>":4590,"LE":4591,"powodu</w>":4592,"dra":4593,"zdo":4594,"klubu</w>":4595,"He":4596,"oczywiście</w>":4597,"Rober":4598,"wówczas</w>":4599,"nadal</w>":4600,"chor":4601,"mpa":4602,"tyczne</w>":4603,"uro</w>":4604,"wartości</w>":4605,"El":4606,"stycznia</w>":4607,"prowadzić</w>":4608,"Kultury</w>":4609,"wiadomo</w>":4610,"eta":4611,"czka</w>":4612,"zaba":4613,"Kazi":4614,"niejszych</w>":4615,"środków</w>":4616,"dziesię":4617,"miasto</w>":4618,"czności</w>":4619,"pozwo":4620,"żna</w>":4621,"Gos":4622,"Osta":4623,"gnię":4624,"dą</w>":4625,"kompu":4626,"Dob":4627,"oli":4628,"are":4629,"bł":4630,"zostaną</w>":4631,"wych":4632,"wyglą":4633,"dokona":4634,"zarówno</w>":4635,"praw</w>":4636,"alko":4637,"Zbignie":4638,"pen":4639,"powinien</w>":4640,"sal":4641,"tyki</w>":4642,"Kości":4643,"euro":4644,"stwie</w>":4645,"Łuka":4646,"miesięcy</w>":4647,"imprez":4648,"prowadzenie</w>":4649,"hu":4650,"funkcjon":4651,"minister</w>":4652,"dotych":4653,"działalności</w>":4654,"spon":4655,"forma":4656,"szybko</w>":4657,"sobotę</w>":4658,"jące</w>":4659,"szuka":4660,"rzył</w>":4661,"rzecz</w>":4662,"kowy</w>":4663,"powsta":4664,"pokona":4665,"istot":4666,"ałbym</w>":4667,"spoko":4668,"owskiego</w>":4669,"gimnaz":4670,"steśmy</w>":4671,"win":4672,"zagro":4673,"przestrze":4674,"nigdy</w>":4675,"drogi</w>":4676,"lizacji</w>":4677,"szta":4678,"Ło":4679,"zdaniem</w>":4680,"czerwca</w>":4681,"skut":4682,"Jana</w>":4683,"rę</w>":4684,"krakow":4685,"wę":4686,"Samo":4687,"cięż":4688,"niak</w>":4689,"Tade":4690,"dodaje</w>":4691,"owanego</w>":4692,"względu</w>":4693,"San":4694,"owanej</w>":4695,"Krakowa</w>":4696,"kowa</w>":4697,"MO":4698,"ide":4699,"pisy</w>":4700,"mą</w>":4701,"Lo":4702,"ener":4703,"potwier":4704,"likwi":4705,"gospoda":4706,"okazji</w>":4707,"lew":4708,"prezydenta</w>":4709,"mia</w>":4710,"ędzie</w>":4711,"kacji</w>":4712,"drugi</w>":4713,"dalej</w>":4714,"lę":4715,"Anna</w>":4716,"obywa":4717,"zyj":4718,"mieście</w>":4719,"dnie</w>":4720,"owały</w>":4721,"zwykle</w>":4722,"szech":4723,"sobą</w>":4724,"news</w>":4725,"zwłaszcza</w>":4726,"pkt</w>":4727,"naprawdę</w>":4728,"osek</w>":4729,"muszą</w>":4730,"jedną</w>":4731,"Podczas</w>":4732,"towych</w>":4733,"ostatnich</w>":4734,"spotkanie</w>":4735,"mokra":4736,"noc":4737,"prace</w>":4738,"gach</w>":4739,"Nowy</w>":4740,"pis</w>":4741,"rodzin":4742,"łów</w>":4743,"budynku</w>":4744,"spraw</w>":4745,"trakt":4746,"wielo":4747,"Komisji</w>":4748,"historii</w>":4749,"takiej</w>":4750,"trener</w>":4751,"pierw</w>":4752,"swój</w>":4753,"kilku":4754,"taka</w>":4755,"resztą</w>":4756,"jedna</w>":4757,"drużyny</w>":4758,"Wol":4759,"uczniów</w>":4760,"możliwość</w>":4761,"chcą</w>":4762,"kolwiek</w>":4763,"Hu":4764,"wysokości</w>":4765,"mienia</w>":4766,"cjen":4767,"Ob":4768,"197":4769,"Ban":4770,"Warszawie</w>":4771,"at</w>":4772,"policji</w>":4773,"ój</w>":4774,"bieg":4775,"specjali":4776,"Spor":4777,"bile":4778,"bada":4779,"zrobić</w>":4780,"Kró":4781,"pomoc</w>":4782,"wład":4783,"mać</w>":4784,"oto":4785,"skiem</w>":4786,"nicznych</w>":4787,"wprowadz":4788,"wić</w>":4789,"łach</w>":4790,"przer":4791,"anej</w>":4792,"Każ":4793,"pisze</w>":4794,"zdecyd":4795,"komunika":4796,"istnie":4797,"Narodow":4798,"dzeniu</w>":4799,"wystąpi":4800,"tnych</w>":4801,"ciąż</w>":4802,"dyna":4803,"biu":4804,"wsi</w>":4805,"typu</w>":4806,"rii</w>":4807,"sprawa</w>":4808,"cztery</w>":4809,"spowod":4810,"wu</w>":4811,"źnie</w>":4812,"Europy</w>":4813,"takiego</w>":4814,"przeprowadz":4815,"zgodnie</w>":4816,"dywi":4817,"dre":4818,"nin":4819,"jeź":4820,"odz":4821,"dokład":4822,"mczasem</w>":4823,"powierzch":4824,"har":4825,"opera":4826,"prócz</w>":4827,"jaki</w>":4828,"wym</w>":4829,"okoli":4830,"centrum</w>":4831,"wad":4832,"teat":4833,"profe":4834,"Są</w>":4835,"długo</w>":4836,"CH":4837,"gości</w>":4838,"gdyby</w>":4839,"konku":4840,"zdrowia</w>":4841,"ktor":4842,"menta":4843,"wied":4844,"Kat":4845,"świecie</w>":4846,"Ten</w>":4847,"przestęp":4848,"całej</w>":4849,"alnie</w>":4850,"wynika</w>":4851,"jum</w>":4852,"Europejskiej</w>":4853,"czywist":4854,"Obec":4855,"nio":4856,"grze":4857,"65</w>":4858,"mię</w>":4859,"zwró":4860,"rzuc":4861,"śla</w>":4862,"człowieka</w>":4863,"prezydent</w>":4864,"ogrom":4865,"konomi":4866,"Wrocła":4867,"zja":4868,"twierdzi</w>":4869,"spar":4870,"polski</w>":4871,"cko</w>":4872,"gmina</w>":4873,"wersy":4874,"obi":4875,"problem</w>":4876,"rodziny</w>":4877,"Pla":4878,"ck</w>":4879,"anego</w>":4880,"wany</w>":4881,"kup":4882,"ameryka":4883,"szczególnie</w>":4884,"gminie</w>":4885,"oru</w>":4886,"możemy</w>":4887,"zapła":4888,"pozost":4889,"Kolej":4890,"anki</w>":4891,"Dnia</w>":4892,"klasy</w>":4893,"chodzą</w>":4894,"500</w>":4895,"towej</w>":4896,"dał</w>":4897,"momen":4898,"nków</w>":4899,"zację</w>":4900,"cia":4901,"Komis":4902,"przemy":4903,"mal</w>":4904,"ponow":4905,"śpie":4906,"miały</w>":4907,"NA</w>":4908,"lacji</w>":4909,"Tak":4910,"IV</w>":4911,"czyna</w>":4912,"podję":4913,"proszę</w>":4914,"wersyte":4915,"brak</w>":4916,"nowej</w>":4917,"sil":4918,"lipca</w>":4919,"wiar":4920,"reszcie</w>":4921,"Tra":4922,"dziedzi":4923,"Wil":4924,"szcza":4925,"Przez</w>":4926,"dość</w>":4927,"skona":4928,"mierz</w>":4929,"Ha":4930,"Zda":4931,"urzęd":4932,"wrac":4933,"racji</w>":4934,"cel":4935,"woła":4936,"owani</w>":4937,"chęt":4938,"trudno</w>":4939,"Cza":4940,"elemen":4941,"odpowiedzial":4942,"ośrod":4943,"mun":4944,"zatrud":4945,"prote":4946,"pory</w>":4947,"zakresie</w>":4948,"nadz":4949,"tarzy":4950,"ude":4951,"mp":4952,"popular":4953,"sprawę</w>":4954,"pomni":4955,"goś</w>":4956,"gli":4957,"wniosek</w>":4958,"rzeczy</w>":4959,"zastęp":4960,"punktów</w>":4961,"Aleks":4962,"sprzę":4963,"nadzieję</w>":4964,"grudnia</w>":4965,"szła</w>":4966,"sena":4967,"ściu</w>":4968,"zamk":4969,"zeum</w>":4970,"udzie":4971,"Ca":4972,"kolei</w>":4973,"owę</w>":4974,"takim</w>":4975,"Ła":4976,"nimi</w>":4977,"Gó":4978,"zawar":4979,"run":4980,"dochod":4981,"owanym</w>":4982,"sierpnia</w>":4983,"okresie</w>":4984,"Mam</w>":4985,"według</w>":4986,"upraw":4987,"końcu</w>":4988,"serwa":4989,"reprezen":4990,"fizy":4991,"reprezent":4992,"marszał":4993,"waran":4994,"żu</w>":4995,"mocy</w>":4996,"prowadzi</w>":4997,"każdym</w>":4998,"razu</w>":4999,"Nato":5000,"europej":5001,"kwest":5002,"nasze</w>":5003,"wrę":5004,"sły</w>":5005,"hol":5006,"panie</w>":5007,"programu</w>":5008,"via</w>":5009,"piera":5010,"tó":5011,"posłów</w>":5012,"styczne</w>":5013,"scy":5014,"tam":5015,"Natomiast</w>":5016,"pisów</w>":5017,"ńskie</w>":5018,"zde":5019,"dawno</w>":5020,"rzem</w>":5021,"marca</w>":5022,"drodze</w>":5023,"owań</w>":5024,"dyś</w>":5025,"twa":5026,"zwol":5027,"nowo":5028,"Sk":5029,"województwa</w>":5030,"budowę</w>":5031,"tysi":5032,"AW":5033,"róg</w>":5034,"czność</w>":5035,"uczestni":5036,"położ":5037,"przeciwko</w>":5038,"Hen":5039,"znajduje</w>":5040,"października</w>":5041,"maga</w>":5042,"owo":5043,"żek</w>":5044,"najważ":5045,"konsu":5046,"stronie</w>":5047,"Sze":5048,"telef":5049,"określ":5050,"tny</w>":5051,"mieniu</w>":5052,"85</w>":5053,"jad":5054,"m2</w>":5055,"ministra</w>":5056,"nictwo</w>":5057,"swojego</w>":5058,"wido":5059,"kolejne</w>":5060,"lina</w>":5061,"torzy</w>":5062,"eni</w>":5063,"poświę":5064,"mieszkania</w>":5065,"owaliśmy</w>":5066,"niedzielę</w>":5067,"świa":5068,"dowie":5069,"kło":5070,"ini":5071,"mieszkańcy</w>":5072,"doszło</w>":5073,"sali</w>":5074,"Bo</w>":5075,"Gro":5076,"aju</w>":5077,"hal":5078,"Urzędu</w>":5079,"zapro":5080,"uważa</w>":5081,"Niestety</w>":5082,"bru":5083,"owicach</w>":5084,"zacz":5085,"No":5086,"rabi":5087,"kowego</w>":5088,"Ber":5089,"nog":5090,"ności":5091,"Pił":5092,"stan</w>":5093,"bezpoś":5094,"Przy</w>":5095,"Wojciech</w>":5096,"tych":5097,"regul":5098,"kad":5099,"zało":5100,"gazeta</w>":5101,"groma":5102,"jem</w>":5103,"wstrzy":5104,"raczej</w>":5105,"ogło":5106,"tków</w>":5107,"ąb":5108,"oficjal":5109,"tom</w>":5110,"Woje":5111,"pacjen":5112,"Sła":5113,"odbędzie</w>":5114,"złoży":5115,"wykony":5116,"taką</w>":5117,"Karo":5118,"zre":5119,"siat":5120,"wysta":5121,"potrafi":5122,"anym</w>":5123,"miny</w>":5124,"budżetu</w>":5125,"tycznych</w>":5126,"Cy":5127,"miu</w>":5128,"ing</w>":5129,"gorz":5130,"Vi":5131,"dosta":5132,"stanu</w>":5133,"artykuł</w>":5134,"byśmy</w>":5135,"obok</w>":5136,"grun":5137,"wszel":5138,"nierucho":5139,"CEST</w>":5140,"zawodników</w>":5141,"działalność</w>":5142,"samo</w>":5143,"nka</w>":5144,"konkuren":5145,"interne":5146,"szpitala</w>":5147,"los":5148,"decyzji</w>":5149,"stad":5150,"Czer":5151,"poszu":5152,"grup</w>":5153,"lubi":5154,"sied":5155,"Przed</w>":5156,"dom</w>":5157,"rozpocz":5158,"stre":5159,"decydow":5160,"kwietnia</w>":5161,"Bardzo</w>":5162,"rej":5163,"niczych</w>":5164,"słuch":5165,"ubezpie":5166,"ologi":5167,"nera</w>":5168,"88</w>":5169,"Ryszar":5170,"zmar":5171,"RZE":5172,"wło":5173,"minut</w>":5174,"No</w>":5175,"Kro":5176,"rozwi":5177,"puszcz":5178,"stęp</w>":5179,"odwie":5180,"re</w>":5181,"handl":5182,"Maciej</w>":5183,"ligi</w>":5184,"większe</w>":5185,"Podob":5186,"osen":5187,"czyło</w>":5188,"doskona":5189,"państw":5190,"wspom":5191,"tur</w>":5192,"kibi":5193,"adre":5194,"procent</w>":5195,"wciąż</w>":5196,"studi":5197,"szyć</w>":5198,"ubezpiecze":5199,"względem</w>":5200,"ruchu</w>":5201,"miało</w>":5202,"ołnie":5203,"inte":5204,"nadto</w>":5205,"zatru":5206,"naczej</w>":5207,"ady</w>":5208,"Głów":5209,"archi":5210,"ałych</w>":5211,"Tarnow":5212,"Ho":5213,"Dzięki</w>":5214,"wojny</w>":5215,"żą</w>":5216,"Jeszcze</w>":5217,"rozegra":5218,"pozwal":5219,"PI":5220,"nazwi":5221,"organizacji</w>":5222,"klub":5223,"pytania</w>":5224,"ograni":5225,"formy</w>":5226,"Gor":5227,"podstawie</w>":5228,"jechał</w>":5229,"skoń":5230,"zło":5231,"history":5232,"połowie</w>":5233,"mai":5234,"nocy</w>":5235,"chłop":5236,"niz":5237,"Tur":5238,"Dziś</w>":5239,"centra":5240,"dach</w>":5241,"zu</w>":5242,"ludz":5243,"grup":5244,"wypadku</w>":5245,"zebra":5246,"el</w>":5247,"MA":5248,"en</w>":5249,"przegra":5250,"siedzi":5251,"listopada</w>":5252,"nieść</w>":5253,"żą":5254,"dywidu":5255,"Nowym</w>":5256,"znalaz":5257,"cemy</w>":5258,"Robert</w>":5259,"Janusz</w>":5260,"dzieli</w>":5261,"żadnych</w>":5262,"medi":5263,"doj":5264,"Brze":5265,"Mieszka":5266,"pokaza":5267,"powszech":5268,"Mag":5269,"Pani</w>":5270,"nume":5271,"sprawo":5272,"Py":5273,"posie":5274,"zie</w>":5275,"ńca</w>":5276,"ciaż</w>":5277,"towe</w>":5278,"urzą":5279,"oskar":5280,"utwo":5281,"Zako":5282,"ogóle</w>":5283,"poniedział":5284,"Był</w>":5285,"niektórych</w>":5286,"Klu":5287,"zasa":5288,"Małopol":5289,"Zbigniew</w>":5290,"wydaw":5291,"puści":5292,"rozwoju</w>":5293,"słowa</w>":5294,"Tym</w>":5295,"międzynarodow":5296,"bat":5297,"Hi":5298,"aktyw":5299,"odci":5300,"ssa":5301,"zbior":5302,"stycznych</w>":5303,"rady</w>":5304,"krai":5305,"powiecie</w>":5306,"związane</w>":5307,"zadow":5308,"Th":5309,"mówić</w>":5310,"niczego</w>":5311,"kontra":5312,"Bry":5313,"czyły</w>":5314,"śmierci</w>":5315,"dacji</w>":5316,"najwyż":5317,"Inter":5318,"zamiesz":5319,"prowadzenia</w>":5320,"większość</w>":5321,"szkole</w>":5322,"Wczoraj</w>":5323,"66</w>":5324,"przyjm":5325,"mien":5326,"DZ":5327,"ącą</w>":5328,"umowy</w>":5329,"pras":5330,"Józef</w>":5331,"us</w>":5332,"lud":5333,"poinform":5334,"amy</w>":5335,"nicę</w>":5336,"brz":5337,"brze":5338,"podejm":5339,"okrę":5340,"Przemy":5341,"saż":5342,"Pod</w>":5343,"porozumie":5344,"tem":5345,"fot":5346,"fran":5347,"Marszałku</w>":5348,"wniosk":5349,"cztere":5350,"obu</w>":5351,"zaku":5352,"jas":5353,"Można</w>":5354,"zupełnie</w>":5355,"lna</w>":5356,"ss</w>":5357,"grupa</w>":5358,"Di":5359,"cyjnym</w>":5360,"uroczyst":5361,"Trzeba</w>":5362,"Por":5363,"wymieni":5364,"plo":5365,"owymi</w>":5366,"pozycji</w>":5367,"oglą":5368,"300</w>":5369,"byłoby</w>":5370,"gra</w>":5371,"gre":5372,"Jaku":5373,"pół</w>":5374,"godziny</w>":5375,"Ser":5376,"głosu</w>":5377,"znaleźć</w>":5378,"ktem</w>":5379,"tt":5380,"alny</w>":5381,"ER":5382,"przeznacz":5383,"sun":5384,"Wę":5385,"program</w>":5386,"WI":5387,"postanowi":5388,"29":5389,"lig":5390,"cyk":5391,"ata":5392,"er</w>":5393,"nin</w>":5394,"zapa":5395,"młodzieży</w>":5396,"reda":5397,"sj":5398,"cio":5399,"zja</w>":5400,"oczeki":5401,"ówce</w>":5402,"nawi":5403,"społecze":5404,"woł":5405,"każde":5406,"cjami</w>":5407,"kultury</w>":5408,"dowod":5409,"Polskiego</w>":5410,"liczyć</w>":5411,"kipe":5412,"drz":5413,"tycznej</w>":5414,"qu":5415,"cjonari":5416,"rekla":5417,"pomiędzy</w>":5418,"wątp":5419,"wp</w>":5420,"wicza</w>":5421,"lin":5422,"lach</w>":5423,"tował</w>":5424,"inwestycji</w>":5425,"śred":5426,"prowadził</w>":5427,"zostać</w>":5428,"ciep":5429,"kować</w>":5430,"nieju</w>":5431,"Dari":5432,"sezonie</w>":5433,"sposob":5434,"syw":5435,"nemu</w>":5436,"Tymczasem</w>":5437,"ubiegłym</w>":5438,"firm</w>":5439,"medy":5440,"Minister":5441,"sor":5442,"poe":5443,"poprzez</w>":5444,"tyka</w>":5445,"Wojewódz":5446,"ującym</w>":5447,"trakcie</w>":5448,"Mat":5449,"nator</w>":5450,"zmian</w>":5451,"chciał</w>":5452,"rodzaju</w>":5453,"systemu</w>":5454,"układ":5455,"Obecnie</w>":5456,"Tylko</w>":5457,"duże</w>":5458,"życiu</w>":5459,"konkre":5460,"tyj":5461,"traf":5462,"grafi":5463,"owska</w>":5464,"pia":5465,"nicą</w>":5466,"pojedy":5467,"rozu":5468,"człowiek</w>":5469,"klasy":5470,"anty":5471,"Chci":5472,"kłopo":5473,"czone</w>":5474,"firma</w>":5475,"On</w>":5476,"nieco</w>":5477,"prost":5478,"zatrzym":5479,"młodych</w>":5480,"oła</w>":5481,"mę":5482,"nasz</w>":5483,"możliwe</w>":5484,"ha</w>":5485,"warunki</w>":5486,"indywidu":5487,"poszczegól":5488,"manie</w>":5489,"Raf":5490,"ciła</w>":5491,"mogę</w>":5492,"rowy</w>":5493,"znajo":5494,"Fot</w>":5495,"informacje</w>":5496,"rzeń</w>":5497,"ciec</w>":5498,"PZ":5499,"sklep":5500,"Zd":5501,"dane</w>":5502,"Sł":5503,"Mimo</w>":5504,"lia</w>":5505,"robić</w>":5506,"Gdań":5507,"brzy":5508,"list":5509,"Słu":5510,"For":5511,"wypła":5512,"stąpie":5513,"przypo":5514,"koło</w>":5515,"Nowa":5516,"ująca</w>":5517,"MI":5518,"mistrzost":5519,"mian</w>":5520,"twar":5521,"ńcy</w>":5522,"lutego</w>":5523,"inwest":5524,"wizy":5525,"sytuacja</w>":5526,"LD</w>":5527,"Zi":5528,"KI</w>":5529,"obowiąza":5530,"ZS</w>":5531,"drugie</w>":5532,"sprzedaży</w>":5533,"prawnych</w>":5534,"anna</w>":5535,"68</w>":5536,"wami</w>":5537,"korzyst":5538,"Ta</w>":5539,"mość</w>":5540,"karza</w>":5541,"ekonomi":5542,"chem</w>":5543,"Mal":5544,"szczegó":5545,"her":5546,"cyjna</w>":5547,"prof</w>":5548,"lidar":5549,"mos":5550,"patro":5551,"wyniku</w>":5552,"miejsc</w>":5553,"sekwen":5554,"siej":5555,"wało</w>":5556,"parlamen":5557,"Dę":5558,"ką":5559,"jakiś</w>":5560,"owiec</w>":5561,"gą</w>":5562,"wojsk":5563,"abso":5564,"ałby</w>":5565,"dobre</w>":5566,"son</w>":5567,"pora":5568,"członków</w>":5569,"blio":5570,"dz</w>":5571,"ostate":5572,"codzien":5573,"nień</w>":5574,"Związ":5575,"żołnie":5576,"wypowie":5577,"powinna</w>":5578,"TO":5579,"rocz":5580,"Oczywiście</w>":5581,"dlaczego</w>":5582,"ziemi</w>":5583,"cywi":5584,"system</w>":5585,"rusz":5586,"litera":5587,"car":5588,"nione</w>":5589,"Stu":5590,"jedno</w>":5591,"bramki</w>":5592,"rednio</w>":5593,"praca</w>":5594,"owy":5595,"jakby</w>":5596,"RE":5597,"kwali":5598,"inaczej</w>":5599,"Wład":5600,"oznacza</w>":5601,"zatrudni":5602,"ującego</w>":5603,"Rol":5604,"niemal</w>":5605,"powinno</w>":5606,"rozpa":5607,"jesteśmy</w>":5608,"zarzu":5609,"mania</w>":5610,"władze</w>":5611,"rzeczywist":5612,"ająca</w>":5613,"rój":5614,"bi</w>":5615,"stanowisko</w>":5616,"instru":5617,"AL":5618,"alnego</w>":5619,"Bro":5620,"Polo":5621,"pięć</w>":5622,"liczby</w>":5623,"prakty":5624,"sym":5625,"mś</w>":5626,"całego</w>":5627,"os</w>":5628,"spoli":5629,"reli":5630,"dzów</w>":5631,"szla":5632,"ÓW</w>":5633,"wydaje</w>":5634,"różne</w>":5635,"tacja</w>":5636,"Tadeusz</w>":5637,"prawda</w>":5638,"pospoli":5639,"Dlaczego</w>":5640,"czach</w>":5641,"oro</w>":5642,"rozmawi":5643,"jakieś</w>":5644,"niczej</w>":5645,"20":5646,"autobu":5647,"konty":5648,"nicze</w>":5649,"kolejny</w>":5650,"Potem</w>":5651,"ałoby</w>":5652,"CI":5653,"bą</w>":5654,"rzecznik</w>":5655,"dziła</w>":5656,"giem</w>":5657,"jów</w>":5658,"Sejm</w>":5659,"wskaz":5660,"łaby</w>":5661,"sędzi":5662,"77</w>":5663,"Pat":5664,"powinny</w>":5665,"dotyczące</w>":5666,"bawi":5667,"wki</w>":5668,"doro":5669,"cyjnie</w>":5670,"innego</w>":5671,"technicz":5672,"Dzien":5673,"będę</w>":5674,"Gaze":5675,"lka</w>":5676,"kimi</w>":5677,"waniu</w>":5678,"kierunku</w>":5679,"Pocz":5680,"mistrza</w>":5681,"szero":5682,"dłow":5683,"zatem</w>":5684,"Kraj":5685,"aną</w>":5686,"połą":5687,"szczęście</w>":5688,"pełnos":5689,"bież":5690,"Maj":5691,"czterech</w>":5692,"Rodzi":5693,"szpa":5694,"całkowi":5695,"Kil":5696,"Myśl":5697,"Stowarzy":5698,"ochrony</w>":5699,"zmniej":5700,"ustal":5701,"Sędzi":5702,"zachod":5703,"wybo":5704,"Henry":5705,"SLD</w>":5706,"obsłu":5707,"fikacji</w>":5708,"całą</w>":5709,"usu":5710,"Gim":5711,"świado":5712,"trwa</w>":5713,"samorządow":5714,"fakt</w>":5715,"drob":5716,"edu":5717,"poży":5718,"wymag":5719,"dzeń</w>":5720,"dobre":5721,"turę</w>":5722,"gmin</w>":5723,"rud":5724,"niewiel":5725,"jednocześnie</w>":5726,"szli</w>":5727,"wynaj":5728,"ważne</w>":5729,"czeniem</w>":5730,"tymi</w>":5731,"Francji</w>":5732,"62</w>":5733,"Agnie":5734,"kategorii</w>":5735,"or</w>":5736,"jest":5737,"zabezpie":5738,"rybu":5739,"spółki</w>":5740,"rzą</w>":5741,"obję":5742,"ósł</w>":5743,"przewodniczący</w>":5744,"kazy":5745,"podzie":5746,"stały</w>":5747,"sce":5748,"turnieju</w>":5749,"widać</w>":5750,"bal":5751,"czony</w>":5752,"chcie":5753,"środowiska</w>":5754,"Oj":5755,"Dod":5756,"chot":5757,"Kami":5758,"łos":5759,"agen":5760,"Organi":5761,"sieci</w>":5762,"pokry":5763,"Podstaw":5764,"piłkę</w>":5765,"dotyczy</w>":5766,"cili</w>":5767,"Społe":5768,"trz</w>":5769,"wska</w>":5770,"Ad":5771,"gać</w>":5772,"termi":5773,"pisać</w>":5774,"pani":5775,"Łukasz</w>":5776,"przynajmniej</w>":5777,"Gospodar":5778,"wana</w>":5779,"gwia":5780,"Wyst":5781,"blisko</w>":5782,"63</w>":5783,"bliote":5784,"logii</w>":5785,"szac":5786,"uzasad":5787,"atrak":5788,"61</w>":5789,"dzeniem</w>":5790,"moder":5791,"sprawied":5792,"wyłącznie</w>":5793,"leży</w>":5794,"ks":5795,"wyjaśnia</w>":5796,"ler</w>":5797,"pewne</w>":5798,"rezer":5799,"wreszcie</w>":5800,"ucie":5801,"świat</w>":5802,"lidze</w>":5803,"imprezy</w>":5804,"bą":5805,"radi":5806,"spółdziel":5807,"poprawki</w>":5808,"zim":5809,"Katarzy":5810,"ds</w>":5811,"towy</w>":5812,"goro":5813,"zresztą</w>":5814,"głosowania</w>":5815,"gaż":5816,"ukry":5817,"współpracy</w>":5818,"robi</w>":5819,"piątek</w>":5820,"Tre":5821,"następnie</w>":5822,"okolicz":5823,"zamknię":5824,"Uniwersyte":5825,"oście</w>":5826,"czaj":5827,"parafi":5828,"Akade":5829,"Stefa":5830,"lik</w>":5831,"powierzchni</w>":5832,"pierwszych</w>":5833,"powiet":5834,"żeń</w>":5835,"okazało</w>":5836,"nikami</w>":5837,"szcz</w>":5838,"ary</w>":5839,"zdu</w>":5840,"rach":5841,"Kow":5842,"poczu":5843,"nnych</w>":5844,"alnej</w>":5845,"kilka":5846,"72</w>":5847,"źród":5848,"chów</w>":5849,"robo":5850,"Kla":5851,"spozy":5852,"Sejmu</w>":5853,"czem</w>":5854,"lod":5855,"nazy":5856,"decyzję</w>":5857,"produkcji</w>":5858,"64</w>":5859,"stadi":5860,"konstru":5861,"Nor":5862,"czonych</w>":5863,"każdego</w>":5864,"problemy</w>":5865,"rom</w>":5866,"Teat":5867,"inny</w>":5868,"odrzu":5869,"pot":5870,"sekre":5871,"linii</w>":5872,"mą":5873,"pierwszego</w>":5874,"gwaran":5875,"15":5876,"kowskiego</w>":5877,"tłumaczy</w>":5878,"78</w>":5879,"wyróż":5880,"angiel":5881,"emo":5882,"produk":5883,"ujemy</w>":5884,"ątkowo</w>":5885,"ld</w>":5886,"innym</w>":5887,"gnę":5888,"postawi":5889,"kaz</w>":5890,"spodzie":5891,"san":5892,"bezpieczeństwa</w>":5893,"kompute":5894,"konf":5895,"sportu</w>":5896,"Wysoka</w>":5897,"Niemie":5898,"zobacz</w>":5899,"Towarzy":5900,"przetar":5901,"opowiada</w>":5902,"liście</w>":5903,"badania</w>":5904,"polskim</w>":5905,"spokoj":5906,"stycznej</w>":5907,"zne":5908,"walki</w>":5909,"posła</w>":5910,"gnąć</w>":5911,"pamięta":5912,"szk":5913,"Nau":5914,"Polaków</w>":5915,"rodek</w>":5916,"PK":5917,"szkod":5918,"wyniki</w>":5919,"aresz":5920,"Wszystko</w>":5921,"ującej</w>":5922,"godzin</w>":5923,"dziale</w>":5924,"Gu":5925,"jazdy</w>":5926,"jazd</w>":5927,"żyw":5928,"jmy</w>":5929,"rosyj":5930,"zdra":5931,"bl":5932,"zdobył</w>":5933,"Prac":5934,"tań":5935,"Warszawa</w>":5936,"mio":5937,"konkursu</w>":5938,"sję</w>":5939,"kiedyś</w>":5940,"miesię":5941,"opa":5942,"postaci</w>":5943,"mówią</w>":5944,"pr":5945,"miejęt":5946,"lec</w>":5947,"kazuje</w>":5948,"liczba</w>":5949,"krótce</w>":5950,"Gi":5951,"aru</w>":5952,"całym</w>":5953,"drugim</w>":5954,"US</w>":5955,"komó":5956,"legi":5957,"Ur":5958,"Unia</w>":5959,"Poza</w>":5960,"środki</w>":5961,"nast":5962,"radni</w>":5963,"Wśród</w>":5964,"dzili</w>":5965,"99</w>":5966,"wewnętrz":5967,"skorzy":5968,"Jestem</w>":5969,"konta":5970,"łę":5971,"SZ</w>":5972,"metod":5973,"zobowiąza":5974,"uczel":5975,"67</w>":5976,"tarz</w>":5977,"przeby":5978,"wynosi</w>":5979,"obejm":5980,"14":5981,"Poznaniu</w>":5982,"Pot":5983,"Dro":5984,"NIE</w>":5985,"warto</w>":5986,"kolejnych</w>":5987,"Małgorz":5988,"Zy":5989,"samego</w>":5990,"więzie":5991,"Zna":5992,"prak":5993,"cyjną</w>":5994,"Rzesz":5995,"dzisiej":5996,"noś":5997,"dziecka</w>":5998,"konsekwen":5999,"86</w>":6000,"wiecz":6001,"burmistrz</w>":6002,"Oli":6003,"kowym</w>":6004,"Fundu":6005,"lami</w>":6006,"Szkół</w>":6007,"czkę</w>":6008,"kobiety</w>":6009,"dotychczas":6010,"Gimnaz":6011,"nowa</w>":6012,"szewski</w>":6013,"znaczy</w>":6014,"czyński</w>":6015,"znów</w>":6016,"wybi":6017,"turze</w>":6018,"sić</w>":6019,"miejscowości</w>":6020,"tory":6021,"uz":6022,"edy":6023,"dwo":6024,"sma":6025,"inicja":6026,"komp":6027,"kobiet</w>":6028,"ającej</w>":6029,"części":6030,"rower":6031,"wątpliwości</w>":6032,"lewi":6033,"Mamy</w>":6034,"impre":6035,"dek":6036,"lski</w>":6037,"lii</w>":6038,"tkę</w>":6039,"Ma</w>":6040,"natural":6041,"SKI</w>":6042,"większości</w>":6043,"nowym</w>":6044,"musiał</w>":6045,"rzan":6046,"Wtedy</w>":6047,"naci":6048,"Ryszard</w>":6049,"sez":6050,"zbi":6051,"Pawła</w>":6052,"yż":6053,"Polskiej</w>":6054,"Dariusz</w>":6055,"zaby":6056,"Mariusz</w>":6057,"czni</w>":6058,"ar</w>":6059,"hon":6060,"owaną</w>":6061,"89</w>":6062,"serw":6063,"ke</w>":6064,"francu":6065,"ówek</w>":6066,"dziecko</w>":6067,"ory</w>":6068,"76</w>":6069,"Że":6070,"Nad":6071,"ustawa</w>":6072,"me</w>":6073,"okres</w>":6074,"lak</w>":6075,"musie":6076,"Kor":6077,"panu</w>":6078,"eki":6079,"ającego</w>":6080,"zmianie</w>":6081,"sek</w>":6082,"ię</w>":6083,"69</w>":6084,"służby</w>":6085,"br":6086,"spotkaniu</w>":6087,"punktu</w>":6088,"władz</w>":6089,"Zdaniem</w>":6090,"moim</w>":6091,"dobry</w>":6092,"zare":6093,"Warszawy</w>":6094,"cią</w>":6095,"jesie":6096,"Ska":6097,"jnych</w>":6098,"wanych</w>":6099,"schod":6100,"mki</w>":6101,"jącego</w>":6102,"chociaż</w>":6103,"święci":6104,"szef</w>":6105,"metrowe</w>":6106,"demokra":6107,"83</w>":6108,"ksy":6109,"TE":6110,"cel</w>":6111,"Łodzi</w>":6112,"ogól":6113,"wokół</w>":6114,"niósł</w>":6115,"stronę</w>":6116,"koła":6117,"BO":6118,"wynik</w>":6119,"sch":6120,"szył</w>":6121,"wartość</w>":6122,"Komen":6123,"konstytu":6124,"Oświęci":6125,"niejszy</w>":6126,"Państ":6127,"nosz":6128,"pomiesz":6129,"XV":6130,"ziem":6131,"KA":6132,"rzeczywiście</w>":6133,"punkty</w>":6134,"zdecydow":6135,"źle</w>":6136,"nina</w>":6137,"Myślę</w>":6138,"84</w>":6139,"nięcie</w>":6140,"stąpi</w>":6141,"Dąb":6142,"wil":6143,"zarządu</w>":6144,"świą":6145,"torium</w>":6146,"nastu</w>":6147,"czer":6148,"działań</w>":6149,"gia</w>":6150,"Miro":6151,"81</w>":6152,"tygodniu</w>":6153,"popar":6154,"egza":6155,"Włady":6156,"każdej</w>":6157,"ktyw":6158,"koszty</w>":6159,"sygna":6160,"umiejęt":6161,"Mate":6162,"opar":6163,"ver":6164,"osied":6165,"mło":6166,"kolo":6167,"piłkar":6168,"napis":6169,"lo</w>":6170,"zastos":6171,"mat</w>":6172,"WY":6173,"przyszłości</w>":6174,"szły</w>":6175,"12":6176,"stoli":6177,"jaką</w>":6178,"Każdy</w>":6179,"woda</w>":6180,"ostatniej</w>":6181,"rośli":6182,"zjawi":6183,"Stan":6184,"owskiej</w>":6185,"mar</w>":6186,"skład</w>":6187,"chę":6188,"kowska</w>":6189,"gni":6190,"cór":6191,"jechać</w>":6192,"godzinie</w>":6193,"Kowal":6194,"miejscowość</w>":6195,"odpowiedni":6196,"móc</w>":6197,"źni</w>":6198,"formu":6199,"polskie</w>":6200,"inten":6201,"tyczny</w>":6202,"badań</w>":6203,"dyskusji</w>":6204,"złoż":6205,"prezesa</w>":6206,"Maria</w>":6207,"rozstrzy":6208,"Ewa</w>":6209,"Ich</w>":6210,"całe</w>":6211,"kontroli</w>":6212,"warsza":6213,"imieniu</w>":6214,"tajem":6215,"prasza":6216,"tro</w>":6217,"Ostat":6218,"zawiera":6219,"otrzymał</w>":6220,"cjonariu":6221,"Komisja</w>":6222,"die":6223,"zostali</w>":6224,"porządku</w>":6225,"zabie":6226,"rowski</w>":6227,"straża":6228,"Rafał</w>":6229,"alkohol":6230,"Świat":6231,"siak</w>":6232,"tnego</w>":6233,"tytułu</w>":6234,"biał":6235,"twem</w>":6236,"Bez":6237,"pach</w>":6238,"pełni</w>":6239,"zaplan":6240,"partii</w>":6241,"Ri":6242,"owaw":6243,"poszuki":6244,"87</w>":6245,"uczniowie</w>":6246,"niczym</w>":6247,"Skar":6248,"podwyż":6249,"promo":6250,"menty</w>":6251,"swego</w>":6252,"zła":6253,"problemów</w>":6254,"czeka</w>":6255,"emu</w>":6256,"oprac":6257,"dyrektora</w>":6258,"trenin":6259,"dokładnie</w>":6260,"sjona":6261,"mir</w>":6262,"pt</w>":6263,"ssage</w>":6264,"elektro":6265,"pracownicy</w>":6266,"ala</w>":6267,"gad":6268,"państwo</w>":6269,"województwie</w>":6270,"sądu</w>":6271,"myśli</w>":6272,"1997</w>":6273,"upad":6274,"niorów</w>":6275,"ape":6276,"żu":6277,"ostatnio</w>":6278,"skach</w>":6279,"zarządz":6280,"aktu":6281,"91</w>":6282,"bądź</w>":6283,"Związku</w>":6284,"ogranicz":6285,"Muzeum</w>":6286,"br</w>":6287,"odpowiedzi</w>":6288,"instal":6289,"cale</w>":6290,"zapewni":6291,"pali":6292,"zauwa":6293,"niepełnos":6294,"psycho":6295,"wentu":6296,"Gar":6297,"fan":6298,"karie":6299,"Chi":6300,"najlepiej</w>":6301,"Staro":6302,"tąd</w>":6303,"magi":6304,"osła":6305,"kupić</w>":6306,"sama</w>":6307,"stosunku</w>":6308,"NO":6309,"zamiast</w>":6310,"angaż":6311,"odkry":6312,"analiz":6313,"nnego</w>":6314,"82</w>":6315,"pami":6316,"zwięk":6317,"poprze":6318,"kuch":6319,"cof":6320,"bisku":6321,"normal":6322,"wano</w>":6323,"wyzna":6324,"Gdyby</w>":6325,"przepisów</w>":6326,"dolar":6327,"nne</w>":6328,"dyplo":6329,"ód":6330,"Senatu</w>":6331,"korzysta":6332,"tabe":6333,"boha":6334,"który":6335,"kapi":6336,"ostatni</w>":6337,"dowi":6338,"lą</w>":6339,"dziw":6340,"mecha":6341,"kową</w>":6342,"maszy":6343,"poziomie</w>":6344,"13":6345,"niesi":6346,"Gre":6347,"sen</w>":6348,"Kazimierz</w>":6349,"pokoj":6350,"dzieje</w>":6351,"śle</w>":6352,"istnieje</w>":6353,"kogo</w>":6354,"past":6355,"Te</w>":6356,"wniosku</w>":6357,"kowane</w>":6358,"dencji</w>":6359,"Mistrz":6360,"Pia":6361,"IN":6362,"wez":6363,"oszcz":6364,"rozmowy</w>":6365,"producen":6366,"pozytyw":6367,"95</w>":6368,"utra":6369,"podpis":6370,"Praw":6371,"mogła</w>":6372,"stanowi</w>":6373,"założy":6374,"Leszek</w>":6375,"kier":6376,"ńców</w>":6377,"DO":6378,"dr</w>":6379,"radnych</w>":6380,"mani":6381,"Minist":6382,"wybu":6383,"słab":6384,"pożar":6385,"godnie</w>":6386,"choro":6387,"podatku</w>":6388,"koch":6389,"1990</w>":6390,"kg</w>":6391,"konferen":6392,"zaledwie</w>":6393,"odpowiad":6394,"podj":6395,"gospodarki</w>":6396,"wspar":6397,"dzwo":6398,"podzi":6399,"lną</w>":6400,"zasady</w>":6401,"ole":6402,"moje</w>":6403,"Bot</w>":6404,"symbo":6405,"najczęściej</w>":6406,"wstęp":6407,"przebie":6408,"skiemu</w>":6409,"polityki</w>":6410,"myśle":6411,"zabrak":6412,"nowoczes":6413,"Fa":6414,"pl":6415,"prawdopodob":6416,"wspani":6417,"iz":6418,"onymi</w>":6419,"74</w>":6420,"powro":6421,"fy</w>":6422,"speł":6423,"Bor":6424,"raj":6425,"tację</w>":6426,"właściciel</w>":6427,"ręce</w>":6428,"71</w>":6429,"uwagi</w>":6430,"Państw":6431,"bó":6432,"Mog":6433,"niezależ":6434,"końc":6435,"Ed":6436,"Jarosław</w>":6437,"charakter</w>":6438,"pomysł</w>":6439,"Kali":6440,"73</w>":6441,"Słowa":6442,"Agnieszka</w>":6443,"Cra":6444,"obywate":6445,"Kru":6446,"Wisła</w>":6447,"rodziców</w>":6448,"SKA</w>":6449,"nieniu</w>":6450,"regula":6451,"zasłu":6452,"duje</w>":6453,"uda</w>":6454,"styna</w>":6455,"obej":6456,"Wielko":6457,"eko":6458,"Pracy</w>":6459,"niony</w>":6460,"Wszy":6461,"poch":6462,"wskaza":6463,"jakim</w>":6464,"leż":6465,"zależy</w>":6466,"mentów</w>":6467,"poraż":6468,"ostatnim</w>":6469,"sesji</w>":6470,"92</w>":6471,"głos</w>":6472,"Jej</w>":6473,"zwycza":6474,"książki</w>":6475,"pięciu</w>":6476,"wskiej</w>":6477,"koście":6478,"Bart":6479,"regionie</w>":6480,"400</w>":6481,"premiera</w>":6482,"pracuje</w>":6483,"tytuł</w>":6484,"Izbo</w>":6485,"najpierw</w>":6486,"momencie</w>":6487,"Następ":6488,"opowiad":6489,"ćby</w>":6490,"powró":6491,"nowu</w>":6492,"Solidar":6493,"staje</w>":6494,"argu":6495,"ającym</w>":6496,"Gimnazjum</w>":6497,"środka</w>":6498,"grywa":6499,"era</w>":6500,"liby</w>":6501,"Szkoły</w>":6502,"statu":6503,"Regi":6504,"nastąpi":6505,"Wszyscy</w>":6506,"bili":6507,"usług</w>":6508,"trafił</w>":6509,"kosztów</w>":6510,"pracować</w>":6511,"ada":6512,"frag":6513,"umożli":6514,"regiona":6515,"message</w>":6516,"Ost":6517,"gieł":6518,"chodzić</w>":6519,"ewentu":6520,"dniach</w>":6521,"Gie":6522,"koszy":6523,"150</w>":6524,"rolę</w>":6525,"czymy</w>":6526,"sh":6527,"Kli":6528,"uwzględ":6529,"tegoro":6530,"równ":6531,"gatu":6532,"general":6533,"Rów":6534,"Aleksand":6535,"rzędzie</w>":6536,"Rada</w>":6537,"bek</w>":6538,"styczny</w>":6539,"wił</w>":6540,"realizacji</w>":6541,"oni":6542,"towego</w>":6543,"uja":6544,"tycznego</w>":6545,"Nawet</w>":6546,"kse":6547,"dług":6548,"kato":6549,"jąca</w>":6550,"Gminy</w>":6551,"projekt":6552,"tarz":6553,"Europie</w>":6554,"pomocą</w>":6555,"char":6556,"związanych</w>":6557,"mój</w>":6558,"dal</w>":6559,"fry":6560,"pięt":6561,"mężczyzn</w>":6562,"Wój":6563,"bin":6564,"prawidłow":6565,"właściwie</w>":6566,"przewa":6567,"zwykł":6568,"prz":6569,"skimi</w>":6570,"chwilę</w>":6571,"listy</w>":6572,"niestety</w>":6573,"potrzeby</w>":6574,"RU":6575,"usły":6576,"nacze":6577,"skon":6578,"dawna</w>":6579,"nnej</w>":6580,"zapo":6581,"nego":6582,"wpad":6583,"stwierdził</w>":6584,"grać</w>":6585,"budowa</w>":6586,"warunkach</w>":6587,"Two":6588,"wynagro":6589,"torem</w>":6590,"kój</w>":6591,"Instytu":6592,"porówna":6593,"wios":6594,"of</w>":6595,"bizne":6596,"głębo":6597,"cenę</w>":6598,"Har":6599,"kapita":6600,"podo":6601,"młodzież</w>":6602,"stiwal":6603,"mecze</w>":6604,"Ogól":6605,"rą</w>":6606,"Pos":6607,"stali</w>":6608,"owic</w>":6609,"cm</w>":6610,"Będzie</w>":6611,"nikom</w>":6612,"gina":6613,"osobist":6614,"Zakład":6615,"mil":6616,"ającą</w>":6617,"cką</w>":6618,"dali</w>":6619,"pas":6620,"nają</w>":6621,"trans":6622,"niedo":6623,"materiał":6624,"wolu":6625,"przedmiot":6626,"ńczy":6627,"niezbęd":6628,"ówkę</w>":6629,"Wszystkie</w>":6630,"PR</w>":6631,"wyklu":6632,"tnej</w>":6633,"wykonaw":6634,"stron</w>":6635,"CE</w>":6636,"powoła":6637,"kanaście</w>":6638,"wcale</w>":6639,"poszczególnych</w>":6640,"liwe</w>":6641,"jezd":6642,"kilo":6643,"głoś":6644,"odpad":6645,"WO":6646,"ve</w>":6647,"senator</w>":6648,"formie</w>":6649,"lek</w>":6650,"Musi":6651,"czanie</w>":6652,"milionów</w>":6653,"użytkow":6654,"komór":6655,"Tam</w>":6656,"orze":6657,"Ukrai":6658,"Tat":6659,"zasta":6660,"tyka":6661,"natych":6662,"Dyre":6663,"BI":6664,"poniedziałek</w>":6665,"formal":6666,"Niemiec</w>":6667,"nową</w>":6668,"Młodzie":6669,"żony</w>":6670,"szymi</w>":6671,"liwość</w>":6672,"nik":6673,"Macie":6674,"komendan":6675,"rozm":6676,"osoba</w>":6677,"rela":6678,"Katarzyna</w>":6679,"południ":6680,"styki</w>":6681,"parta":6682,"dzieci":6683,"samochodów</w>":6684,"współczes":6685,"spotkań</w>":6686,"zanie":6687,"sporo</w>":6688,"moderni":6689,"tku</w>":6690,"iec</w>":6691,"sztuki</w>":6692,"Urząd</w>":6693,"rować</w>":6694,"kontynu":6695,"przezna":6696,"prawdopodobnie</w>":6697,"wiązek</w>":6698,"nerw":6699,"NIA</w>":6700,"meta":6701,"niowych</w>":6702,"dziesięciu</w>":6703,"samochód</w>":6704,"czytel":6705,"waj":6706,"minu</w>":6707,"bre":6708,"tuż</w>":6709,"pewnie</w>":6710,"policjanci</w>":6711,"rzad":6712,"prawy</w>":6713,"zd</w>":6714,"kle":6715,"AZS</w>":6716,"pospolitej</w>":6717,"Małgorzata</w>":6718,"Sch":6719,"zajęcia</w>":6720,"regionu</w>":6721,"lona</w>":6722,"IX</w>":6723,"drzwi</w>":6724,"alnym</w>":6725,"nieruchomości</w>":6726,"euro</w>":6727,"tari":6728,"mienie</w>":6729,"towi</w>":6730,"oświat":6731,"trafi</w>":6732,"czyna":6733,"powiedziała</w>":6734,"nagrody</w>":6735,"olan":6736,"ziom</w>":6737,"Spe":6738,"znakomi":6739,"standar":6740,"dostar":6741,"stri":6742,"koncep":6743,"ponownie</w>":6744,"dziesiąt</w>":6745,"kata":6746,"chcę</w>":6747,"11":6748,"Agen":6749,"kiewicza</w>":6750,"Pierwszy</w>":6751,"Fina":6752,"Sło":6753,"czni":6754,"opinii</w>":6755,"Dol":6756,"klub</w>":6757,"tej":6758,"władzy</w>":6759,"ing":6760,"odległ":6761,"dało</w>":6762,"Większ":6763,"ryn":6764,"udziału</w>":6765,"wszy</w>":6766,"ryzy":6767,"groz":6768,"owców</w>":6769,"ostatnie</w>":6770,"zaczął</w>":6771,"siły</w>":6772,"podatkow":6773,"ciele</w>":6774,"nicznej</w>":6775,"Hist":6776,"odwoła":6777,"Bur":6778,"rozwiązania</w>":6779,"Świ":6780,"szef":6781,"posłow":6782,"nicach</w>":6783,"dziennika":6784,"zdanie</w>":6785,"zmu</w>":6786,"Publi":6787,"dan</w>":6788,"miesiąc":6789,"GO":6790,"Ponadto</w>":6791,"wymaga</w>":6792,"CET</w>":6793,"źniej</w>":6794,"ńską</w>":6795,"osiągnię":6796,"mogł":6797,"procedu":6798,"katoli":6799,"leś":6800,"wyjaśni":6801,"środku</w>":6802,"towania</w>":6803,"olimpi":6804,"marke":6805,"Mikoła":6806,"grupie</w>":6807,"przedstawiciele</w>":6808,"prywaty":6809,"so</w>":6810,"Uważ":6811,"myś":6812,"PiS</w>":6813,"typow":6814,"lin</w>":6815,"pewnością</w>":6816,"załat":6817,"ukoń":6818,"czania</w>":6819,"spek":6820,"Trud":6821,"Okrę":6822,"zwal":6823,"Barbar":6824,"towali</w>":6825,"ck":6826,"far":6827,"choćby</w>":6828,"Roman</w>":6829,"musimy</w>":6830,"Her":6831,"cena</w>":6832,"parkin":6833,"odda":6834,"akcep":6835,"rób":6836,"groź":6837,"Zespół</w>":6838,"szty":6839,"łot":6840,"wschod":6841,"Mó":6842,"Jako</w>":6843,"Kan":6844,"wyjaś":6845,"słu</w>":6846,"znany</w>":6847,"trenera</w>":6848,"zgroma":6849,"ęcia</w>":6850,"sub":6851,"sąd</w>":6852,"kow</w>":6853,"the</w>":6854,"ującą</w>":6855,"Niemcy</w>":6856,"dobra</w>":6857,"podkreśla</w>":6858,"poję":6859,"powyż":6860,"zwycięstwo</w>":6861,"policja</w>":6862,"rzeć</w>":6863,"samej</w>":6864,"instytucji</w>":6865,"żnej</w>":6866,"nęła</w>":6867,"społecznej</w>":6868,"is</w>":6869,"Dzisiaj</w>":6870,"79</w>":6871,"publicznych</w>":6872,"Progra":6873,"niejszym</w>":6874,"roli</w>":6875,"szansę</w>":6876,"Bogu":6877,"grał</w>":6878,"polu</w>":6879,"dol":6880,"Ochro":6881,"drugiego</w>":6882,"nicki</w>":6883,"dolarów</w>":6884,"Che":6885,"zasko":6886,"stą</w>":6887,"per</w>":6888,"wystawi":6889,"obrony</w>":6890,"wzrost</w>":6891,"mojej</w>":6892,"wych</w>":6893,"wencji</w>":6894,"boga":6895,"mocno</w>":6896,"atmos":6897,"94</w>":6898,"mieszkań</w>":6899,"boisku</w>":6900,"KU":6901,"Kur":6902,"błęd":6903,"Mor":6904,"Mon":6905,"Craco":6906,"wieś</w>":6907,"dami</w>":6908,"znalazł</w>":6909,"niowej</w>":6910,"mogły</w>":6911,"Car":6912,"czać</w>":6913,"Spół":6914,"mail</w>":6915,"zgła":6916,"ros":6917,"charaktery":6918,"lwen":6919,"żeniu</w>":6920,"Amery":6921,"towa</w>":6922,"gorze":6923,"zle":6924,"Bez</w>":6925,"warunków</w>":6926,"char</w>":6927,"rzeniu</w>":6928,"wspólnie</w>":6929,"wysy":6930,"stka</w>":6931,"wego</w>":6932,"PN</w>":6933,"Andrzeja</w>":6934,"Szwe":6935,"krajów</w>":6936,"rękę</w>":6937,"odpowied":6938,"uczestników</w>":6939,"sezonu</w>":6940,"pój":6941,"wycie":6942,"stanowiska</w>":6943,"liza":6944,"odbi":6945,"wyraźnie</w>":6946,"niewiele</w>":6947,"kowania</w>":6948,"zabi":6949,"NA":6950,"rowa</w>":6951,"skę</w>":6952,"ctwa</w>":6953,"Usta":6954,"93</w>":6955,"film</w>":6956,"inni</w>":6957,"wka</w>":6958,"czekać</w>":6959,"nowi":6960,"ślić</w>":6961,"Witam</w>":6962,"postępowania</w>":6963,"chcemy</w>":6964,"kładzie</w>":6965,"szer":6966,"kiest":6967,"Miejskiej</w>":6968,"ura</w>":6969,"tna</w>":6970,"uczy":6971,"Franci":6972,"rodu</w>":6973,"skoro</w>":6974,"spełni":6975,"wiej":6976,"rował</w>":6977,"va</w>":6978,"przyszłym</w>":6979,"bot</w>":6980,"reży":6981,"pierwsza</w>":6982,"skle":6983,"nieniem</w>":6984,"urucho":6985,"wiedzy</w>":6986,"przepisy</w>":6987,"set</w>":6988,"autor":6989,"nny</w>":6990,"egze":6991,"prawdzie</w>":6992,"Nowego</w>":6993,"uleg":6994,"kwesti":6995,"Przecież</w>":6996,"arek</w>":6997,"rodzin</w>":6998,"Poznań</w>":6999,"psychi":7000,"kształc":7001,"towany</w>":7002,"alna</w>":7003,"Rz":7004,"aj</w>":7005,"przedsięwzię":7006,"przykład":7007,"równo":7008,"rano</w>":7009,"DA":7010,"lecia</w>":7011,"dróg</w>":7012,"składzie</w>":7013,"Komu":7014,"pracodaw":7015,"Prokura":7016,"kilkanaście</w>":7017,"yby</w>":7018,"oceni":7019,"żbie":7020,"jne</w>":7021,"Joanna</w>":7022,"We</w>":7023,"acji</w>":7024,"stowarzy":7025,"brakuje</w>":7026,"zapewnia</w>":7027,"Zjedno":7028,"gę":7029,"cała</w>":7030,"defi":7031,"miałem</w>":7032,"pek</w>":7033,"Nowak</w>":7034,"sytuację</w>":7035,"Bru":7036,"nen":7037,"słucha":7038,"Domu</w>":7039,"wolności</w>":7040,"eken":7041,"alkoholu</w>":7042,"przedszko":7043,"ada</w>":7044,"kru":7045,"pry":7046,"teria</w>":7047,"Takie</w>":7048,"sumie</w>":7049,"znowu</w>":7050,"nauki</w>":7051,"Łó":7052,"dgo":7053,"rodę</w>":7054,"Fil":7055,"kun":7056,"sprzedaż</w>":7057,"letniego</w>":7058,"Policji</w>":7059,"krze":7060,"techno":7061,"mana</w>":7062,"PR":7063,"cier":7064,"musieli</w>":7065,"pią":7066,"zdania</w>":7067,"tto</w>":7068,"mianę</w>":7069,"Artur</w>":7070,"żadnego</w>":7071,"rez":7072,"woka":7073,"ałę":7074,"gan</w>":7075,"kr":7076,"podstawowych</w>":7077,"Zwy":7078,"tabli":7079,"awans":7080,"Sławo":7081,"Ze</w>":7082,"unek</w>":7083,"kwar":7084,"stał":7085,"Ci</w>":7086,"zwro":7087,"hali</w>":7088,"scypli":7089,"żeniem</w>":7090,"AK</w>":7091,"głosów</w>":7092,"towane</w>":7093,"Ponie":7094,"stopniu</w>":7095,"stki</w>":7096,"Elżbie":7097,"stycznego</w>":7098,"gami</w>":7099,"piosen":7100,"liczne</w>":7101,"Klub</w>":7102,"głowy</w>":7103,"ale":7104,"fen":7105,"urzędu</w>":7106,"cik</w>":7107,"poprawi":7108,"konfli":7109,"zdów</w>":7110,"Pó":7111,"Dłu":7112,"dzię":7113,"drużyna</w>":7114,"0200</w>":7115,"warszta":7116,"The</w>":7117,"Budow":7118,"zawodnicy</w>":7119,"światowej</w>":7120,"Spotka":7121,"dają</w>":7122,"domów</w>":7123,"języka</w>":7124,"ciała</w>":7125,"tri":7126,"Pamię":7127,"klientów</w>":7128,"odzy":7129,"rześci":7130,"ceum</w>":7131,"obserw":7132,"Ksią":7133,"stwem</w>":7134,"jącej</w>":7135,"gola</w>":7136,"zadania</w>":7137,"wpływ</w>":7138,"kierownik</w>":7139,"lozo":7140,"niom</w>":7141,"zastrze":7142,"Choć</w>":7143,"linie</w>":7144,"fotografi":7145,"stacji</w>":7146,"towała</w>":7147,"poziom</w>":7148,"arów</w>":7149,"Stanisława</w>":7150,"obsza":7151,"97</w>":7152,"straty</w>":7153,"fie</w>":7154,"strate":7155,"mistrzostw</w>":7156,"łatwo</w>":7157,"and</w>":7158,"Proje":7159,"dwa":7160,"uf":7161,"komuni":7162,"Sztu":7163,"waka":7164,"rozwój</w>":7165,"Tu</w>":7166,"zbiera":7167,"czości</w>":7168,"zespoły</w>":7169,"węd":7170,"Ró":7171,"zaangaż":7172,"rwi</w>":7173,"daleko</w>":7174,"oprócz</w>":7175,"Gene":7176,"98</w>":7177,"wam</w>":7178,"przeży":7179,"Informa":7180,"ktorów</w>":7181,"manda":7182,"liga</w>":7183,"niowe</w>":7184,"kos":7185,"powoł":7186,"tują</w>":7187,"pę":7188,"96</w>":7189,"ani":7190,"oczy</w>":7191,"budowlan":7192,"podległ":7193,"Większość</w>":7194,"Man":7195,"log</w>":7196,"Widzów</w>":7197,"ciągle</w>":7198,"zajmuje</w>":7199,"rześcija":7200,"kampa":7201,"zygn":7202,"Magdale":7203,"PS":7204,"odebra":7205,"sprawą</w>":7206,"OWI":7207,"ciem":7208,"rzesz":7209,"Han":7210,"rzę</w>":7211,"Zawod":7212,"same</w>":7213,"Trybu":7214,"Prezyden":7215,"Polacy</w>":7216,"pokoju</w>":7217,"Kos":7218,"moni":7219,"spie":7220,"et</w>":7221,"elektry":7222,"lit":7223,"kował</w>":7224,"Henryk</w>":7225,"wną":7226,"żół":7227,"torek</w>":7228,"podró":7229,"reprezentacji</w>":7230,"Aby</w>":7231,"mld</w>":7232,"przewo":7233,"czów</w>":7234,"własne</w>":7235,"dzone</w>":7236,"wnątrz</w>":7237,"uśmie":7238,"telewizji</w>":7239,"własnej</w>":7240,"Doro":7241,"Jakub</w>":7242,"wielkie</w>":7243,"mężczyzna</w>":7244,"rody</w>":7245,"Muzy":7246,"czwartek</w>":7247,"archite":7248,"oddział":7249,"noc</w>":7250,"Warto</w>":7251,"drogę</w>":7252,"niejsza</w>":7253,"przedsta":7254,"przyci":7255,"jednostki</w>":7256,"ostrze":7257,"honor":7258,"niczne</w>":7259,"ste</w>":7260,"nasza</w>":7261,"Kę":7262,"bór</w>":7263,"przekro":7264,"zrozumie":7265,"konkurs</w>":7266,"sport</w>":7267,"PO</w>":7268,"szczenia</w>":7269,"Lech</w>":7270,"znaczenie</w>":7271,"sąsiad":7272,"stoi</w>":7273,"RP</w>":7274,"soli":7275,"inicjaty":7276,"oczy":7277,"Grupa</w>":7278,"wymia":7279,"szki</w>":7280,"ratu":7281,"terenu</w>":7282,"rozpocznie</w>":7283,"kontu":7284,"Angli":7285,"AG":7286,"którymi</w>":7287,"10":7288,"dzam</w>":7289,"ado":7290,"CJ":7291,"czorem</w>":7292,"środek</w>":7293,"wynosi":7294,"nięcia</w>":7295,"tnym</w>":7296,"weeken":7297,"wręcz</w>":7298,"aniu</w>":7299,"drugą</w>":7300,"chciałbym</w>":7301,"zdy</w>":7302,"ustawie</w>":7303,"Pół":7304,"kwa":7305,"Stefan</w>":7306,"Mil":7307,"Rzeczy":7308,"kurs</w>":7309,"Wikipe":7310,"zdaw":7311,"samochodu</w>":7312,"towanie</w>":7313,"jącym</w>":7314,"nieć</w>":7315,"druga</w>":7316,"dyspozy":7317,"potrzebne</w>":7318,"Zarząd</w>":7319,"bezpła":7320,"szere":7321,"Osob":7322,"wyrówna":7323,"wykaza":7324,"ćwi":7325,"nó":7326,"skarb":7327,"fre":7328,"proces</w>":7329,"Dopiero</w>":7330,"Komi":7331,"Bel":7332,"piłkarzy</w>":7333,"mierza</w>":7334,"Wisły</w>":7335,"fikow":7336,"wsze":7337,"jako":7338,"Zakopan":7339,"pośred":7340,"placówki</w>":7341,"gospodarzy</w>":7342,"dała</w>":7343,"CH</w>":7344,"lewski</w>":7345,"wójt</w>":7346,"pielę":7347,"Rosji</w>":7348,"publicznej</w>":7349,"rodzice</w>":7350,"proś":7351,"najlepszych</w>":7352,"wynika":7353,"zapropon":7354,"fal":7355,"stiwalu</w>":7356,"pil":7357,"sław":7358,"nauczycieli</w>":7359,"prow":7360,"wiu</w>":7361,"Akademii</w>":7362,"bran":7363,"dziewczy":7364,"bel":7365,"Oprócz</w>":7366,"Ogólno":7367,"ruch</w>":7368,"kobieta</w>":7369,"opieku":7370,"dotyczących</w>":7371,"bezrobot":7372,"pomóc</w>":7373,"czasów</w>":7374,"zespołów</w>":7375,"peten":7376,"Zarządu</w>":7377,"Jad":7378,"sukces</w>":7379,"LO":7380,"ubiegłego</w>":7381,"szkoleni":7382,"pień</w>":7383,"FI":7384,"konserwa":7385,"koali":7386,"tydzień</w>":7387,"tabeli</w>":7388,"Jeden</w>":7389,"Być</w>":7390,"sje</w>":7391,"żona</w>":7392,"posłu":7393,"własnym</w>":7394,"gnął</w>":7395,"ulta":7396,"chroni":7397,"Sąd</w>":7398,"znajdują</w>":7399,"kryzy":7400,"budynek</w>":7401,"sor</w>":7402,"ciar":7403,"problemu</w>":7404,"sum":7405,"Puch":7406,"zaprezent":7407,"noszą</w>":7408,"hy":7409,"słem</w>":7410,"Jedy":7411,"op</w>":7412,"kontak":7413,"Sko":7414,"lekar":7415,"wien</w>":7416,"niedawno</w>":7417,"wyści":7418,"rozwiązanie</w>":7419,"trój":7420,"tanie</w>":7421,"ąłem</w>":7422,"gen</w>":7423,"liński</w>":7424,"Zespoł":7425,"zdrowot":7426,"goście</w>":7427,"Zgodnie</w>":7428,"skaza":7429,"gląd</w>":7430,"tle":7431,"celem</w>":7432,"ciel</w>":7433,"kartki</w>":7434,"samodziel":7435,"naby":7436,"łami</w>":7437,"miesiące</w>":7438,"anek</w>":7439,"numer</w>":7440,"kandydatów</w>":7441,"mami</w>":7442,"eksper":7443,"strzel":7444,"Pierwsze</w>":7445,"przeję":7446,"ekstra":7447,"dzki</w>":7448,"zapra":7449,"AT</w>":7450,"rowie</w>":7451,"Rzeczypospolitej</w>":7452,"wystąpie":7453,"ruje</w>":7454,"konuje</w>":7455,"Zyg":7456,"rząt</w>":7457,"SI":7458,"poten":7459,"rzeź":7460,"nowo</w>":7461,"My</w>":7462,"Wod":7463,"terze</w>":7464,"dyscypli":7465,"góry</w>":7466,"piłkarze</w>":7467,"łę</w>":7468,"sło</w>":7469,"początek</w>":7470,"premier</w>":7471,"oku":7472,"niebezpie":7473,"pierwszą</w>":7474,"żyła</w>":7475,"niektóre</w>":7476,"Rej":7477,"zdecydowanie</w>":7478,"nicza</w>":7479,"powinni</w>":7480,"Tere":7481,"krą":7482,"Mod":7483,"finale</w>":7484,"zawi":7485,"Sędziował</w>":7486,"kopal":7487,"zna</w>":7488,"piłki</w>":7489,"Chodzi</w>":7490,"zgin":7491,"klasie</w>":7492,"Międzynarodow":7493,"PRZE":7494,"Podobnie</w>":7495,"fla":7496,"kowanie</w>":7497,"podopie":7498,"punkt</w>":7499,"vista</w>":7500,"uchwały</w>":7501,"szeniu</w>":7502,"religi":7503,"przyznaje</w>":7504,"telefo":7505,"doby":7506,"wiera":7507,"Ochrony</w>":7508,"stach</w>":7509,"oria</w>":7510,"Trudno</w>":7511,"ratow":7512,"et":7513,"rządów</w>":7514,"żadnej</w>":7515,"Sal":7516,"pola</w>":7517,"mistrzo":7518,"Dzieci</w>":7519,"wą":7520,"mon</w>":7521,"bia</w>":7522,"ziel":7523,"mogło</w>":7524,"Najpierw</w>":7525,"Gli":7526,"aty</w>":7527,"wygrał</w>":7528,"promi":7529,"wykorzysty":7530,"uczelni</w>":7531,"habili":7532,"dag":7533,"teren</w>":7534,"rachun":7535,"wkrótce</w>":7536,"zapyta":7537,"remont</w>":7538,"absolwen":7539,"sądow":7540,"wiam</w>":7541,"niezwykle</w>":7542,"pokole":7543,"wierzy":7544,"własnych</w>":7545,"mieszkanie</w>":7546,"laty</w>":7547,"niczka</w>":7548,"inspe":7549,"krajach</w>":7550,"organ":7551,"Nikt</w>":7552,"obraz":7553,"elimina":7554,"działy</w>":7555,"Jor":7556,"Olimpi":7557,"zagospodar":7558,"Kiel":7559,"libyśmy</w>":7560,"kore":7561,"zadań</w>":7562,"pomoc":7563,"wiedzą</w>":7564,"Ponieważ</w>":7565,"sznie</w>":7566,"placu</w>":7567,"wyborach</w>":7568,"600</w>":7569,"rowych</w>":7570,"środę</w>":7571,"mówiąc</w>":7572,"otwo":7573,"woli</w>":7574,"muje</w>":7575,"całkowicie</w>":7576,"ręb":7577,"dotar":7578,"Nic</w>":7579,"wrażenie</w>":7580,"Preze":7581,"1996</w>":7582,"wyrazi":7583,"ng":7584,"socjal":7585,"nictwem</w>":7586,"ludzi":7587,"Kobie":7588,"DE":7589,"tygodni</w>":7590,"rozpoczął</w>":7591,"zj":7592,"ludności</w>":7593,"slavista</w>":7594,"łowski</w>":7595,"Kilka</w>":7596,"rowi</w>":7597,"Proble":7598,"krwi</w>":7599,"Kre":7600,"mentu</w>":7601,"Win":7602,"rynek</w>":7603,"obie</w>":7604,"spła":7605,"itp</w>":7606,"ojciec</w>":7607,"th</w>":7608,"zrealiz":7609,"tacje</w>":7610,"Księ":7611,"Per":7612,"1975</w>":7613,"remi":7614,"nasto":7615,"bezpośrednio</w>":7616,"pisu</w>":7617,"zachę":7618,"praktycznie</w>":7619,"obraz</w>":7620,"mógł":7621,"rekor":7622,"szczy</w>":7623,"zobaczyć</w>":7624,"kont":7625,"powtarz":7626,"Będ":7627,"ondy":7628,"dziewię":7629,"napast":7630,"Zaj":7631,"tori":7632,"tyfika":7633,"sar":7634,"błą":7635,"ślad":7636,"skutek</w>":7637,"głową</w>":7638,"dzia</w>":7639,"wspomni":7640,"wtorek</w>":7641,"dotychczas</w>":7642,"Jerze":7643,"Organiza":7644,"bój":7645,"dobrej</w>":7646,"wygląda</w>":7647,"lega":7648,"Czytel":7649,"ron</w>":7650,"ciach</w>":7651,"zga":7652,"konsul":7653,"niczy</w>":7654,"tóż</w>":7655,"ff</w>":7656,"dyspon":7657,"LO</w>":7658,"ME":7659,"resta":7660,"Danie":7661,"Oby":7662,"niżej</w>":7663,"Strze":7664,"Szpita":7665,"lau":7666,"pole</w>":7667,"chowski</w>":7668,"cone</w>":7669,"sowe</w>":7670,"wywal":7671,"wnioski</w>":7672,"wan</w>":7673,"rozgrywek</w>":7674,"pracował</w>":7675,"Marian</w>":7676,"polska</w>":7677,"Mirosław</w>":7678,"muzyki</w>":7679,"rzają</w>":7680,"plu":7681,"szpitalu</w>":7682,"wyro":7683,"poru":7684,"kują</w>":7685,"poleg":7686,"Zespołu</w>":7687,"lowej</w>":7688,"funkcjonariu":7689,"PS</w>":7690,"istniej":7691,"wyobra":7692,"małże":7693,"sik</w>":7694,"Cu":7695,"Nowa</w>":7696,"trzecie</w>":7697,"Komite":7698,"zad":7699,"zmienić</w>":7700,"Stro":7701,"decyzja</w>":7702,"byłem</w>":7703,"dokumentów</w>":7704,"tę":7705,"tempera":7706,"wina</w>":7707,"posiada</w>":7708,"szony</w>":7709,"niosła</w>":7710,"bibliote":7711,"filozo":7712,"rezulta":7713,"koncert</w>":7714,"wybiera":7715,"chle":7716,"gdzie":7717,"Najlep":7718,"NIE":7719,"sprawach</w>":7720,"poto":7721,"wio":7722,"zapewne</w>":7723,"ger</w>":7724,"ktorem</w>":7725,"zów</w>":7726,"les</w>":7727,"leń</w>":7728,"Dwa</w>":7729,"podmiot":7730,"funda":7731,"Koś":7732,"zwierząt</w>":7733,"tyków</w>":7734,"narko":7735,"ekologi":7736,"Bara":7737,"miesiąc</w>":7738,"kradzie":7739,"Wielkiej</w>":7740,"szczegółow":7741,"jechali</w>":7742,"moty":7743,"Bramki</w>":7744,"serwi":7745,"wyraż":7746,"0501</w>":7747,"zaraz</w>":7748,"struktury</w>":7749,"Im":7750,"funduszy</w>":7751,"pogod":7752,"Ludzie</w>":7753,"ństwie</w>":7754,"stian</w>":7755,"pł":7756,"OWE</w>":7757,"dzy":7758,"0100</w>":7759,"Orze":7760,"Maz":7761,"sprzęt</w>":7762,"wspiera":7763,"Now":7764,"1995</w>":7765,"gminę</w>":7766,"Adam":7767,"finansowych</w>":7768,"Ti":7769,"obrze":7770,"szem</w>":7771,"Żół":7772,"droga</w>":7773,"Dan":7774,"zi</w>":7775,"owcy</w>":7776,"sześć</w>":7777,"budować</w>":7778,"Chy":7779,"dzają</w>":7780,"apara":7781,"jewski</w>":7782,"kwiat":7783,"1994</w>":7784,"informuje</w>":7785,"szukać</w>":7786,"żyli</w>":7787,"tyczna</w>":7788,"dium</w>":7789,"tera</w>":7790,"kamie":7791,"Często":7792,"vii</w>":7793,"opowie":7794,"małe</w>":7795,"członkowie</w>":7796,"wolno</w>":7797,"Tarnów</w>":7798,"ŁA":7799,"studia</w>":7800,"ogi":7801,"cyz":7802,"wykład":7803,"chodzie</w>":7804,"bezrobo":7805,"Rynku</w>":7806,"przeszł":7807,"ander</w>":7808,"studentów</w>":7809,"Gdańsku</w>":7810,"źni":7811,"mode":7812,"ZA":7813,"forma</w>":7814,"otar":7815,"guje</w>":7816,"kwoty</w>":7817,"czno</w>":7818,"przekra":7819,"terów</w>":7820,"Fir":7821,"Ek":7822,"najwięcej</w>":7823,"Stal</w>":7824,"termin</w>":7825,"proponuje</w>":7826,"średni":7827,"nagle</w>":7828,"panów</w>":7829,"braku</w>":7830,"MKS</w>":7831,"uk</w>":7832,"swej</w>":7833,"kwestii</w>":7834,"pokaz":7835,"Kwa":7836,"Wydziału</w>":7837,"dor":7838,"dząc</w>":7839,"kościoła</w>":7840,"żby</w>":7841,"administracji</w>":7842,"taj":7843,"przedstawicieli</w>":7844,"biera</w>":7845,"kontrol":7846,"dłużej</w>":7847,"Ele":7848,"tową</w>":7849,"widzi":7850,"Powie":7851,"kola":7852,"sprzedaw":7853,"Mary":7854,"praszam</w>":7855,"Otóż</w>":7856,"bla":7857,"bło":7858,"funkcji</w>":7859,"czą":7860,"finansowe</w>":7861,"waniem</w>":7862,"żne</w>":7863,"jaka</w>":7864,"szybciej</w>":7865,"Bal":7866,"czoraj":7867,"zawodów</w>":7868,"opieki</w>":7869,"sprawi":7870,"pozwala</w>":7871,"suje</w>":7872,"Józefa</w>":7873,"lerii</w>":7874,"ota</w>":7875,"nega":7876,"unie":7877,"tren":7878,"większą</w>":7879,"zako":7880,"natychmiast</w>":7881,"drama":7882,"pozostałych</w>":7883,"konkursie</w>":7884,"tną</w>":7885,"rzeniem</w>":7886,"tym":7887,"skra":7888,"chętnie</w>":7889,"trzeci</w>":7890,"sażer":7891,"Tro":7892,"Chciałbym</w>":7893,"zaczyna</w>":7894,"chcieli</w>":7895,"nieu":7896,"miejscach</w>":7897,"naszą</w>":7898,"Gorli":7899,"fał":7900,"głu":7901,"filmu</w>":7902,"Podhal":7903,"szyła</w>":7904,"Sok":7905,"syjnych</w>":7906,"bytu</w>":7907,"wycof":7908,"pe</w>":7909,"wraca</w>":7910,"położona</w>":7911,"pisy":7912,"ustaw</w>":7913,"emi":7914,"serii</w>":7915,"Pieni":7916,"lega</w>":7917,"małych</w>":7918,"ałaby</w>":7919,"umiejętności</w>":7920,"tycznym</w>":7921,"gier</w>":7922,"fabry":7923,"port</w>":7924,"wskim</w>":7925,"łódz":7926,"Wybor":7927,"cmenta":7928,"800</w>":7929,"ogólno":7930,"Boż":7931,"Była</w>":7932,"pewien</w>":7933,"zdol":7934,"sre":7935,"odpowiada</w>":7936,"tarnow":7937,"gości":7938,"komisja</w>":7939,"minister":7940,"bów</w>":7941,"ŁO":7942,"Piotra</w>":7943,"Barbara</w>":7944,"programie</w>":7945,"łe</w>":7946,"ser</w>":7947,"jeździe</w>":7948,"Demokra":7949,"Okręg":7950,"gania</w>":7951,"rami":7952,"alną</w>":7953,"szeni</w>":7954,"moja</w>":7955,"dokumenty</w>":7956,"rozporzą":7957,"zę</w>":7958,"Pło":7959,"wystarczy</w>":7960,"telewizyj":7961,"lot</w>":7962,"ciężar":7963,"znane</w>":7964,"Straży</w>":7965,"Dysku":7966,"imię</w>":7967,"Jerzego</w>":7968,"bia":7969,"Pracow":7970,"ktorzy</w>":7971,"odpowiedź</w>":7972,"opty":7973,"określe":7974,"radny</w>":7975,"widzenia</w>":7976,"Zachod":7977,"Państwa</w>":7978,"wdzię":7979,"udziałem</w>":7980,"skier":7981,"orygina":7982,"serca</w>":7983,"żem</w>":7984,"Am":7985,"finansów</w>":7986,"Mic":7987,"Ludow":7988,"Ist":7989,"pri":7990,"skupi":7991,"En":7992,"pewnym</w>":7993,"wycią":7994,"uzyskać</w>":7995,"nikach</w>":7996,"dzony</w>":7997,"ger":7998,"hote":7999,"Przedsię":8000,"eduka":8001,"łą</w>":8002,"Było</w>":8003,"zdjęcia</w>":8004,"dużym</w>":8005,"mka</w>":8006,"wal</w>":8007,"Sejmie</w>":8008,"zyli":8009,"Zygmun":8010,"kadencji</w>":8011,"NE":8012,"przychod":8013,"czę</w>":8014,"obli":8015,"akcja</w>":8016,"zagad":8017,"wza":8018,"Klubu</w>":8019,"małopol":8020,"poło":8021,"piel":8022,"prawo":8023,"kompeten":8024,"Sławomir</w>":8025,"mieliśmy</w>":8026,"gimnazjum</w>":8027,"cin</w>":8028,"Wcześ":8029,"pów</w>":8030,"zem</w>":8031,"spektak":8032,"zajął</w>":8033,"wskazuje</w>":8034,"mer</w>":8035,"społeczeństwa</w>":8036,"obcią":8037,"stąd</w>":8038,"bezpieczeństwo</w>":8039,"mle":8040,"genera":8041,"Joh":8042,"skrzyż":8043,"prowadzone</w>":8044,"zasad</w>":8045,"SO":8046,"pę</w>":8047,"pobliż":8048,"innej</w>":8049,"Kierow":8050,"czyka</w>":8051,"uczu":8052,"ZUS</w>":8053,"rad</w>":8054,"pobliżu</w>":8055,"zasadzie</w>":8056,"powstanie</w>":8057,"Właści":8058,"Mosk":8059,"dużą</w>":8060,"skom":8061,"wniosków</w>":8062,"sprowa":8063,"Głos":8064,"dotąd</w>":8065,"1993</w>":8066,"Toru":8067,"las</w>":8068,"tygodnie</w>":8069,"odbył</w>":8070,"siła</w>":8071,"opis":8072,"informację</w>":8073,"Magdalena</w>":8074,"młodzi</w>":8075,"twierdzą</w>":8076,"inwestycje</w>":8077,"każe</w>":8078,"rowej</w>":8079,"szanse</w>":8080,"Wiele</w>":8081,"wywo":8082,"idzie</w>":8083,"parę</w>":8084,"Bydgo":8085,"TA":8086,"Pana</w>":8087,"szó":8088,"dostos":8089,"mowe</w>":8090,"chrześcija":8091,"Były</w>":8092,"uroczystości</w>":8093,"liczy</w>":8094,"osz</w>":8095,"wykształ":8096,"mną</w>":8097,"wyboru</w>":8098,"oddziału</w>":8099,"drużyn</w>":8100,"wziąć</w>":8101,"Podstawowej</w>":8102,"laz":8103,"czo</w>":8104,"biura</w>":8105,"swych</w>":8106,"wiej</w>":8107,"przeja":8108,"wodę</w>":8109,"Trybuna":8110,"licznych</w>":8111,"kibiców</w>":8112,"Mateusz</w>":8113,"Fili":8114,"Wyniki</w>":8115,"odszkod":8116,"prawem</w>":8117,"włą":8118,"alu</w>":8119,"ęło</w>":8120,"Kacz":8121,"Ale":8122,"zwierzę":8123,"owości</w>":8124,"Sączu</w>":8125,"usługi</w>":8126,"Legi":8127,"1992</w>":8128,"moich</w>":8129,"ęła</w>":8130,"akade":8131,"północ":8132,"RZY":8133,"Chrzan":8134,"wyposa":8135,"myślę</w>":8136,"MP":8137,"szać</w>":8138,"teni":8139,"bywa</w>":8140,"spoj":8141,"nnym</w>":8142,"pta":8143,"RY":8144,"ujawni":8145,"pamięci</w>":8146,"Miasto</w>":8147,"chowie</w>":8148,"przeło":8149,"Wspól":8150,"bramkę</w>":8151,"kary</w>":8152,"jek</w>":8153,"ułat":8154,"Jedno":8155,"szkołach</w>":8156,"owca</w>":8157,"kultural":8158,"mniejsz":8159,"Regiona":8160,"rzone</w>":8161,"sh</w>":8162,"zazna":8163,"Parlamen":8164,"nagra":8165,"sc":8166,"sowych</w>":8167,"piec</w>":8168,"zbliż":8169,"wów</w>":8170,"tni</w>":8171,"ly</w>":8172,"utów</w>":8173,"rację</w>":8174,"odbior":8175,"jedzie</w>":8176,"stanowią</w>":8177,"Edwar":8178,"skó":8179,"wyborów</w>":8180,"wód</w>":8181,"dużej</w>":8182,"czech</w>":8183,"wstrzymał</w>":8184,"klaski</w>":8185,"Aleksandra</w>":8186,"przygotow":8187,"wieczorem</w>":8188,"mb":8189,"Lud":8190,"szkoła</w>":8191,"Juli":8192,"liny</w>":8193,"plan</w>":8194,"PAP</w>":8195,"wielki</w>":8196,"stanowie":8197,"ingu</w>":8198,"akcję</w>":8199,"wojnie</w>":8200,"Później</w>":8201,"reprezentan":8202,"TY":8203,"deł</w>":8204,"przypadkach</w>":8205,"wzrostu</w>":8206,"kara":8207,"polega</w>":8208,"niesienie</w>":8209,"oszczęd":8210,"ekra":8211,"cznymi</w>":8212,"pozostaje</w>":8213,"przyjem":8214,"godzinach</w>":8215,"rozbi":8216,"dorosł":8217,"broni</w>":8218,"Niemczech</w>":8219,"burmistrza</w>":8220,"pka</w>":8221,"mała</w>":8222,"wypełni":8223,"integra":8224,"pujemy</w>":8225,"popełni":8226,"nakład":8227,"pręd":8228,"granicy</w>":8229,"łby</w>":8230,"wersji</w>":8231,"akcje</w>":8232,"ria</w>":8233,"kurat</w>":8234,"zakładu</w>":8235,"Mieszkańcy</w>":8236,"kierowcy</w>":8237,"awans</w>":8238,"Łu":8239,"restaura":8240,"dodatkowe</w>":8241,"Wad":8242,"zadanie</w>":8243,"drewni":8244,"Sokół</w>":8245,"zdą":8246,"1991</w>":8247,"obja":8248,"Przypomni":8249,"epi":8250,"XIX</w>":8251,"interpre":8252,"decyzje</w>":8253,"nionych</w>":8254,"chodziło</w>":8255,"zwyczaj</w>":8256,"Eu":8257,"ątki</w>":8258,"gospodarczej</w>":8259,"TV":8260,"przedłu":8261,"magazy":8262,"energii</w>":8263,"grę</w>":8264,"ucha</w>":8265,"przystąpi":8266,"ątkiem</w>":8267,"projekcie</w>":8268,"Aleksander</w>":8269,"dystan":8270,"syn</w>":8271,"Rzecz":8272,"sekun":8273,"bierze</w>":8274,"maty":8275,"ojca</w>":8276,"zewnętrz":8277,"zabrakło</w>":8278,"minucie</w>":8279,"TA</w>":8280,"duży</w>":8281,"uszko":8282,"htt":8283,"rzony</w>":8284,"kł</w>":8285,"120</w>":8286,"wari":8287,"orien":8288,"jącą</w>":8289,"połowy</w>":8290,"kcję</w>":8291,"gospodarze</w>":8292,"zagranicznych</w>":8293,"Pomocy</w>":8294,"wód":8295,"ubra":8296,"cen</w>":8297,"wychowaw":8298,"Ire":8299,"Wcześniej</w>":8300,"zamierza</w>":8301,"noweli":8302,"masz</w>":8303,"letnia</w>":8304,"dziło</w>":8305,"Anto":8306,"przewidzi":8307,"Elżbieta</w>":8308,"pocią":8309,"obszar":8310,"prost</w>":8311,"Przedsiębior":8312,"http</w>":8313,"zwrócić</w>":8314,"Polonia</w>":8315,"ilości</w>":8316,"JE":8317,"negocja":8318,"Ucze":8319,"Wró":8320,"śni</w>":8321,"stawę</w>":8322,"1989</w>":8323,"banku</w>":8324,"niesie</w>":8325,"rego</w>":8326,"Bole":8327,"ąco</w>":8328,"ślą":8329,"unik":8330,"ubezpieczenia</w>":8331,"funkcję</w>":8332,"zda</w>":8333,"mojego</w>":8334,"życi":8335,"więzienia</w>":8336,"hod":8337,"wiemy</w>":8338,"wrócił</w>":8339,"Dębi":8340,"żka</w>":8341,"rozpozna":8342,"XX</w>":8343,"budynków</w>":8344,"poglą":8345,"poinformował</w>":8346,"ore":8347,"jutro</w>":8348,"muszę</w>":8349,"parafii</w>":8350,"energe":8351,"ben":8352,"olimpij":8353,"naru":8354,"strzela":8355,"Rado":8356,"smu":8357,"niespo":8358,"Micha":8359,"wona</w>":8360,"utrzymanie</w>":8361,"pasażer":8362,"żon":8363,"dobrym</w>":8364,"Uniwersytetu</w>":8365,"mul":8366,"dr":8367,"moral":8368,"starosta</w>":8369,"niejszą</w>":8370,"Poznania</w>":8371,"karnego</w>":8372,"państw</w>":8373,"łka</w>":8374,"juniorów</w>":8375,"Szkoła</w>":8376,"perspe":8377,"pośle</w>":8378,"ścią</w>":8379,"Pary":8380,"letnie</w>":8381,"prowadzili</w>":8382,"czymś</w>":8383,"Czeka":8384,"meczach</w>":8385,"oficjalnie</w>":8386,"najbliższych</w>":8387,"wiec</w>":8388,"as":8389,"Dawi":8390,"ćmi</w>":8391,"chowa</w>":8392,"łoby</w>":8393,"między":8394,"dofinans":8395,"Kol":8396,"społecznych</w>":8397,"profesjona":8398,"obiec":8399,"ziono</w>":8400,"zapis":8401,"żołnierzy</w>":8402,"owałem</w>":8403,"listów</w>":8404,"rzyła</w>":8405,"wery":8406,"dostrze":8407,"Monika</w>":8408,"przerwie</w>":8409,"czoł":8410,"rzał</w>":8411,"żyna</w>":8412,"tekst</w>":8413,"zach</w>":8414,"kowany</w>":8415,"Policjan":8416,"Hiszpa":8417,"czona</w>":8418,"wory</w>":8419,"własną</w>":8420,"lera</w>":8421,"kapitał":8422,"Młod":8423,"pło":8424,"tion</w>":8425,"Chor":8426,"ilość</w>":8427,"przyjęcie</w>":8428,"przygotowy":8429,"biegu</w>":8430,"Funduszu</w>":8431,"najmłod":8432,"niła</w>":8433,"dużych</w>":8434,"powstał</w>":8435,"najważniejsze</w>":8436,"wca</w>":8437,"Kosz":8438,"óg</w>":8439,"ofiar":8440,"Dział":8441,"US":8442,"brod":8443,"siost":8444,"Nowe</w>":8445,"negatyw":8446,"gier":8447,"trzeci":8448,"lwe":8449,"Dyskusja</w>":8450,"fut":8451,"umowę</w>":8452,"finału</w>":8453,"pozycję</w>":8454,"ału":8455,"Sob":8456,"skutecznie</w>":8457,"Seba":8458,"wywoł":8459,"profi":8460,"śmieci</w>":8461,"seksu":8462,"ama":8463,"dzono</w>":8464,"wyników</w>":8465,"kazało</w>":8466,"kowało</w>":8467,"rocznie</w>":8468,"płacić</w>":8469,"kierowców</w>":8470,"gwał":8471,"zdarzenia</w>":8472,"Pucharu</w>":8473,"samych</w>":8474,"asy":8475,"deklar":8476,"bły":8477,"zarząd</w>":8478,"śledz":8479,"lizacja</w>":8480,"krzyw":8481,"komuna":8482,"lili</w>":8483,"zor</w>":8484,"Tego</w>":8485,"MS</w>":8486,"pienia</w>":8487,"MIE":8488,"szans</w>":8489,"agre":8490,"dwor":8491,"niech</w>":8492,"dźwię":8493,"całości</w>":8494,"Ośrodka</w>":8495,"owskim</w>":8496,"komu</w>":8497,"chorych</w>":8498,"liczbę</w>":8499,"Koro":8500,"narze":8501,"talen":8502,"jednostek</w>":8503,"samorządu</w>":8504,"brą":8505,"uzy":8506,"ambi":8507,"kwotę</w>":8508,"obywatel":8509,"oskarż":8510,"czasach</w>":8511,"los</w>":8512,"rywal":8513,"szone</w>":8514,"pamiętać</w>":8515,"słowo</w>":8516,"lider":8517,"zmu":8518,"chodził</w>":8519,"żydow":8520,"Smo":8521,"przyjął</w>":8522,"tram":8523,"Gospodarki</w>":8524,"czynności</w>":8525,"ślił</w>":8526,"okresu</w>":8527,"rzeczywistości</w>":8528,"kierowca</w>":8529,"trzeź":8530,"wu":8531,"zezna":8532,"cyfi":8533,"zostaje</w>":8534,"ogro":8535,"rozsze":8536,"nowski</w>":8537,"upły":8538,"mencie</w>":8539,"żan":8540,"szefa</w>":8541,"iście</w>":8542,"zamy":8543,"bel</w>":8544,"Wyż":8545,"Spraw":8546,"Złot":8547,"powiat</w>":8548,"list</w>":8549,"Tech":8550,"obserwa":8551,"ZO":8552,"Ant":8553,"es</w>":8554,"wykorzysta":8555,"znik":8556,"chodzenia</w>":8557,"óż</w>":8558,"większa</w>":8559,"cony</w>":8560,"dzieliśmy</w>":8561,"drogą</w>":8562,"nat</w>":8563,"wyprze":8564,"zwrac":8565,"Walde":8566,"karpa":8567,"żaden</w>":8568,"urlo":8569,"wrócić</w>":8570,"Qu":8571,"Konstytu":8572,"Zdzi":8573,"dwudzie":8574,"potrafi</w>":8575,"wielką</w>":8576,"lotni":8577,"Edu":8578,"Ter":8579,"mart":8580,"obowiązek</w>":8581,"albu":8582,"należała</w>":8583,"dobrą</w>":8584,"owość</w>":8585,"rodzina</w>":8586,"ostatecznie</w>":8587,"gdzieś</w>":8588,"puszcza":8589,"choroby</w>":8590,"skąd</w>":8591,"Rog":8592,"pol</w>":8593,"politycznych</w>":8594,"wspomina</w>":8595,"jan":8596,"kosztuje</w>":8597,"Krystyna</w>":8598,"Środowi":8599,"Ryb":8600,"zmiana</w>":8601,"ąg":8602,"saty":8603,"Marka</w>":8604,"Oklaski</w>":8605,"wielkim</w>":8606,"obod":8607,"Biel":8608,"resor":8609,"stycznym</w>":8610,"nictwie</w>":8611,"ya</w>":8612,"dziły</w>":8613,"Wiado":8614,"ludow":8615,"wodzie</w>":8616,"medal</w>":8617,"mią</w>":8618,"miejskiej</w>":8619,"del</w>":8620,"rzadko</w>":8621,"FO":8622,"perso":8623,"Ag":8624,"staty":8625,"śmierć</w>":8626,"tarza</w>":8627,"tysiące</w>":8628,"Gol":8629,"rozmawiać</w>":8630,"klubów</w>":8631,"zapłacić</w>":8632,"zgo":8633,"Japo":8634,"ad</w>":8635,"zaczęła</w>":8636,"OWA":8637,"250</w>":8638,"Ke":8639,"Kal":8640,"łożyć</w>":8641,"kwad":8642,"Pew":8643,"towym</w>":8644,"Bank</w>":8645,"obni":8646,"Trener</w>":8647,"pokojowe</w>":8648,"jesz</w>":8649,"rozwija":8650,"zastępca</w>":8651,"korzystać</w>":8652,"przyjaci":8653,"okazję</w>":8654,"ustawi":8655,"Współ":8656,"Beski":8657,"Narodowej</w>":8658,"Kana":8659,"pomi":8660,"czał</w>":8661,"trzeć</w>":8662,"TO</w>":8663,"wysokie</w>":8664,"samochody</w>":8665,"wszelkie</w>":8666,"lan</w>":8667,"pomnieć</w>":8668,"sprzętu</w>":8669,"zapowiada</w>":8670,"prasowy</w>":8671,"kłopoty</w>":8672,"Kle":8673,"zastąpi":8674,"pacjentów</w>":8675,"zespole</w>":8676,"kolegów</w>":8677,"konferencji</w>":8678,"sezon</w>":8679,"parku</w>":8680,"umy":8681,"soł":8682,"Chcemy</w>":8683,"bami</w>":8684,"ZS":8685,"Katowicach</w>":8686,"kała</w>":8687,"Słow":8688,"wiązy":8689,"wczoraj":8690,"obecności</w>":8691,"jakoś</w>":8692,"szkodow":8693,"reje":8694,"Rejon":8695,"spędz":8696,"lista</w>":8697,"LA</w>":8698,"kończy</w>":8699,"Stowarzyszenia</w>":8700,"zasił":8701,"oznacz":8702,"styczna</w>":8703,"ctwo</w>":8704,"dzonych</w>":8705,"LKS</w>":8706,"odręb":8707,"struktury":8708,"obc":8709,"Zwycię":8710,"zapowiad":8711,"Mówi":8712,"święta</w>":8713,"turniej</w>":8714,"gabi":8715,"skry":8716,"ksymal":8717,"Boch":8718,"niczą</w>":8719,"najlepszy</w>":8720,"nagrodę</w>":8721,"muzeum</w>":8722,"cku</w>":8723,"umieszcz":8724,"wspólnego</w>":8725,"stolicy</w>":8726,"tyczną</w>":8727,"budowie</w>":8728,"kcje</w>":8729,"wyposaż":8730,"senatorów</w>":8731,"Wz":8732,"sąsie":8733,"klubie</w>":8734,"kilkadziesiąt</w>":8735,"ić</w>":8736,"snąć</w>":8737,"połącz":8738,"kontakt</w>":8739,"prowadziła</w>":8740,"ścić</w>":8741,"odpowiednio</w>":8742,"Soko":8743,"ościach</w>":8744,"Olku":8745,"Część</w>":8746,"Lewi":8747,"Gmina</w>":8748,"Wiesław</w>":8749,"ktury</w>":8750,"Boga</w>":8751,"kilkunastu</w>":8752,"seri":8753,"zawodach</w>":8754,"referen":8755,"wystarcz":8756,"Włodzi":8757,"wiedzieć</w>":8758,"łyby</w>":8759,"pii</w>":8760,"oryte":8761,"Projekt</w>":8762,"przecię":8763,"gh":8764,"spokojnie</w>":8765,"Wielicz":8766,"tw</w>":8767,"zawody</w>":8768,"Ameryka":8769,"JA":8770,"Arty":8771,"Izby</w>":8772,"Tury":8773,"Obywa":8774,"rządy</w>":8775,"Chry":8776,"zarabi":8777,"większy</w>":8778,"fu":8779,"poznać</w>":8780,"eś</w>":8781,"Stwier":8782,"Puchar</w>":8783,"Przemysław</w>":8784,"ślu":8785,"UR":8786,"doda":8787,"700</w>":8788,"potrzeb</w>":8789,"posiedzeniu</w>":8790,"miarę</w>":8791,"telefon</w>":8792,"stylu</w>":8793,"ówczes":8794,"odpowiedzialności</w>":8795,"czekają</w>":8796,"budżet</w>":8797,"Pierwsza</w>":8798,"nkach</w>":8799,"cer</w>":8800,"drobne</w>":8801,"dany</w>":8802,"stałe</w>":8803,"Władysław</w>":8804,"powyżej</w>":8805,"ton":8806,"Zat":8807,"ędy</w>":8808,"treści</w>":8809,"Mieczy":8810,"niesienia</w>":8811,"karny</w>":8812,"kta":8813,"klas</w>":8814,"całkiem</w>":8815,"Tele":8816,"Społecznej</w>":8817,"Panslavista</w>":8818,"sten":8819,"iden":8820,"Mad":8821,"nadzor":8822,"otrzymali</w>":8823,"znie":8824,"nili</w>":8825,"Męż":8826,"mieszka</w>":8827,"boj":8828,"naście</w>":8829,"pochodzi</w>":8830,"ludziom</w>":8831,"Trzy</w>":8832,"Policja</w>":8833,"Pri":8834,"Zdrowia</w>":8835,"przekazy":8836,"okie":8837,"podejrz":8838,"jubile":8839,"szczenie</w>":8840,"zan":8841,"jakości</w>":8842,"odbyła</w>":8843,"rozstrzygnię":8844,"szeń</w>":8845,"opuści":8846,"Lip":8847,"Pogo":8848,"marszałek</w>":8849,"CZ</w>":8850,"działanie</w>":8851,"trudne</w>":8852,"oferty</w>":8853,"rzom</w>":8854,"tce</w>":8855,"grozi</w>":8856,"sprzed":8857,"lad":8858,"skró":8859,"zgodzi":8860,"uczci":8861,"świadczenia</w>":8862,"lekarza</w>":8863,"siński</w>":8864,"któremu</w>":8865,"Wystar":8866,"Ministrów</w>":8867,"trwają</w>":8868,"Dobrze</w>":8869,"kościele</w>":8870,"błąd</w>":8871,"Łę":8872,"pochodz":8873,"pełno":8874,"lekarzy</w>":8875,"Dzień</w>":8876,"akurat</w>":8877,"listę</w>":8878,"wodaw":8879,"zapad":8880,"sześciu</w>":8881,"obywateli</w>":8882,"walczyć</w>":8883,"Dom</w>":8884,"Obro":8885,"wzbu":8886,"Arka":8887,"codziennie</w>":8888,"poczy":8889,"koszt</w>":8890,"wypowiedzi</w>":8891,"chłopa":8892,"Wito":8893,"media</w>":8894,"Sam</w>":8895,"sympa":8896,"Jesteśmy</w>":8897,"przyznał</w>":8898,"Radi":8899,"przysłu":8900,"styczną</w>":8901,"strzelił</w>":8902,"doskonale</w>":8903,"zakup</w>":8904,"wając</w>":8905,"sowej</w>":8906,"prag":8907,"mm</w>":8908,"jakich</w>":8909,"wynosiła</w>":8910,"emeryta":8911,"UE</w>":8912,"Łą":8913,"przystan":8914,"pozba":8915,"formuł":8916,"starszych</w>":8917,"drużynie</w>":8918,"Karol</w>":8919,"Właśnie</w>":8920,"wyższe</w>":8921,"występuje</w>":8922,"skali</w>":8923,"mógłby</w>":8924,"straż":8925,"trene":8926,"niepełnosprawnych</w>":8927,"pyt":8928,"as</w>":8929,"plany</w>":8930,"dę":8931,"policjantów</w>":8932,"przedsiębiorstw</w>":8933,"dzać</w>":8934,"ńce</w>":8935,"łonek</w>":8936,"atmosfer":8937,"Francu":8938,"Sos":8939,"ber</w>":8940,"Tarnowie</w>":8941,"akt</w>":8942,"stają</w>":8943,"Lubi":8944,"imi</w>":8945,"powstania</w>":8946,"godzinę</w>":8947,"zakończeniu</w>":8948,"dą":8949,"urzę":8950,"owicza</w>":8951,"policję</w>":8952,"fot</w>":8953,"oke":8954,"chemi":8955,"zawodnik</w>":8956,"obiektów</w>":8957,"ulic</w>":8958,"kryty":8959,"głowę</w>":8960,"gorzej</w>":8961,"powoduje</w>":8962,"żegna":8963,"pogot":8964,"urę</w>":8965,"ręki</w>":8966,"zespołem</w>":8967,"At":8968,"istni":8969,"Należy</w>":8970,"nęło</w>":8971,"głównym</w>":8972,"specjalnie</w>":8973,"tz</w>":8974,"Finans":8975,"bert</w>":8976,"liła</w>":8977,"perspekty":8978,"przywi":8979,"terminie</w>":8980,"skorzystać</w>":8981,"stami</w>":8982,"tką</w>":8983,"stiwal</w>":8984,"likwidacji</w>":8985,"Komendy</w>":8986,"naczel":8987,"szów</w>":8988,"komunikacji</w>":8989,"Ziemi</w>":8990,"słowa":8991,"atów</w>":8992,"dyj":8993,"ologii</w>":8994,"pań</w>":8995,"myśl</w>":8996,"Gdańsk</w>":8997,"jeste":8998,"miar</w>":8999,"wprost</w>":9000,"wzmoc":9001,"przyszłość</w>":9002,"Przedstawi":9003,"wór</w>":9004,"stępujemy</w>":9005,"poz</w>":9006,"rój</w>":9007,"alkoho":9008,"powiedzi":9009,"straj":9010,"gie</w>":9011,"droż":9012,"dostać</w>":9013,"Kło":9014,"ble</w>":9015,"SA":9016,"Rzy":9017,"Zu":9018,"zarejest":9019,"zbo":9020,"Kot":9021,"Stowarzyszenie</w>":9022,"magistra":9023,"tal</w>":9024,"Pła":9025,"gają</w>":9026,"PSL</w>":9027,"NY</w>":9028,"zatrudnienia</w>":9029,"pomor":9030,"wrześ":9031,"kazał</w>":9032,"absolu":9033,"Zjednoczonych</w>":9034,"program":9035,"pojawił</w>":9036,"popro":9037,"gda":9038,"VI</w>":9039,"Jezu":9040,"miana</w>":9041,"dwukrotnie</w>":9042,"Bryta":9043,"Zosta":9044,"ono":9045,"scenie</w>":9046,"zakładów</w>":9047,"czyłem</w>":9048,"miłości</w>":9049,"zrezygn":9050,"ng</w>":9051,"brytyj":9052,"rowe":9053,"zaprze":9054,"Górnik</w>":9055,"nerów</w>":9056,"potrzeba</w>":9057,"ubezpieczeń</w>":9058,"młodzież":9059,"zakresu</w>":9060,"własnego</w>":9061,"podkreśla":9062,"blą":9063,"techniki</w>":9064,"Pal":9065,"Chło":9066,"Prawo</w>":9067,"powstała</w>":9068,"noty</w>":9069,"Miejskiego</w>":9070,"rzym":9071,"porozumienia</w>":9072,"kilometrów</w>":9073,"niona</w>":9074,"moc</w>":9075,"wice</w>":9076,"dzkiej</w>":9077,"ściem</w>":9078,"zależności</w>":9079,"Kościoła</w>":9080,"rewolu":9081,"wiz":9082,"szał</w>":9083,"dozna":9084,"dyskusyjnych</w>":9085,"wanej</w>":9086,"gno":9087,"Przypomnijmy</w>":9088,"tle</w>":9089,"zwycięz":9090,"kwestia</w>":9091,"udziela":9092,"wysił":9093,"delega":9094,"zastanawi":9095,"spons":9096,"MAR":9097,"wystawy</w>":9098,"wpła":9099,"Inwe":9100,"uzależ":9101,"trzeciej</w>":9102,"Dra":9103,"najlepsze</w>":9104,"ri</w>":9105,"sprawiedliwości</w>":9106,"Okazało</w>":9107,"przygotowania</w>":9108,"cię</w>":9109,"Kom":9110,"krea":9111,"towanych</w>":9112,"Plan":9113,"Rozwoju</w>":9114,"Spółdziel":9115,"tali":9116,"Nr</w>":9117,"ny":9118,"ostro":9119,"dostał</w>":9120,"Cha":9121,"wrześniu</w>":9122,"Prowa":9123,"zdrawiam</w>":9124,"tra</w>":9125,"systemie</w>":9126,"Lubli":9127,"rejest":9128,"dry":9129,"obiektu</w>":9130,"nes</w>":9131,"finałow":9132,"gal":9133,"Koście":9134,"pem</w>":9135,"niowego</w>":9136,"Wrocławiu</w>":9137,"zawiera</w>":9138,"Marta</w>":9139,"nazwy</w>":9140,"marek</w>":9141,"czter":9142,"zmianę</w>":9143,"Ośrodek</w>":9144,"udostęp":9145,"nicznego</w>":9146,"zabawy</w>":9147,"oceny</w>":9148,"kłó":9149,"poziomu</w>":9150,"największych</w>":9151,"winy</w>":9152,"charakterze</w>":9153,"znajdzie</w>":9154,"kiet</w>":9155,"dniem</w>":9156,"che</w>":9157,"świadczeń</w>":9158,"itd</w>":9159,"wymaga":9160,"Jagiel":9161,"opłaty</w>":9162,"trzydzie":9163,"KIE":9164,"lskiego</w>":9165,"ti</w>":9166,"piłka</w>":9167,"straży</w>":9168,"pozbawi":9169,"filozofi":9170,"poprawek</w>":9171,"przeszko":9172,"prawdopodobniej</w>":9173,"worów</w>":9174,"podobne</w>":9175,"pliwie</w>":9176,"jedna":9177,"prokuratury</w>":9178,"zakończył</w>":9179,"niśmy</w>":9180,"właścicieli</w>":9181,"Śląska</w>":9182,"umożliwi":9183,"Interne":9184,"mając</w>":9185,"Part":9186,"Papie":9187,"mówiła</w>":9188,"Również</w>":9189,"każda</w>":9190,"częst":9191,"Domi":9192,"zajęć</w>":9193,"powtó":9194,"Narodowego</w>":9195,"Gry":9196,"granicą</w>":9197,"poza":9198,"ącz</w>":9199,"BE":9200,"Con":9201,"sprawozdaw":9202,"teatral":9203,"kory":9204,"zeszł":9205,"szono</w>":9206,"dzierża":9207,"jami</w>":9208,"zlikwi":9209,"odej":9210,"rokiem</w>":9211,"oglądać</w>":9212,"Skrzy":9213,"pomag":9214,"Także</w>":9215,"dziennie</w>":9216,"rundzie</w>":9217,"zwycięstwa</w>":9218,"Lin":9219,"złodzie":9220,"Dodat":9221,"Sprawa</w>":9222,"wyznacz":9223,"Ministerstwa</w>":9224,"Towarzystwa</w>":9225,"Ministerstwo</w>":9226,"cąc</w>":9227,"Dar":9228,"przewodniczącego</w>":9229,"żynie":9230,"1000</w>":9231,"twarz":9232,"obiekt</w>":9233,"terro":9234,"dodatkowo</w>":9235,"zanim</w>":9236,"trage":9237,"czono</w>":9238,"Hal":9239,"bach</w>":9240,"maksymal":9241,"doświadczenia</w>":9242,"procesu</w>":9243,"mały</w>":9244,"Jar":9245,"Plat":9246,"rodzinie</w>":9247,"byłby</w>":9248,"przod":9249,"Wrocław</w>":9250,"matema":9251,"alar":9252,"kolor":9253,"samolot":9254,"Pru":9255,"tkami</w>":9256,"materiałów</w>":9257,"tności</w>":9258,"równie</w>":9259,"kadry</w>":9260,"pielgrzy":9261,"dwoma</w>":9262,"stępow":9263,"Hut":9264,"nawie":9265,"Augu":9266,"laure":9267,"Prezes</w>":9268,"duża</w>":9269,"alni</w>":9270,"syna</w>":9271,"spod</w>":9272,"Kościół</w>":9273,"Wschod":9274,"formę</w>":9275,"cim":9276,"nkiem</w>":9277,"pokój</w>":9278,"Adama</w>":9279,"Wier":9280,"cona</w>":9281,"nari":9282,"form</w>":9283,"projektów</w>":9284,"niektórzy</w>":9285,"matka</w>":9286,"podpisa":9287,"tero":9288,"spółdzielni</w>":9289,"malar":9290,"wczes":9291,"nięty</w>":9292,"brać</w>":9293,"nieje</w>":9294,"pobiera":9295,"UKS</w>":9296,"wysokość</w>":9297,"defini":9298,"rolników</w>":9299,"pane</w>":9300,"pokonał</w>":9301,"zainteresowanie</w>":9302,"tradycji</w>":9303,"uta</w>":9304,"przyjęciem</w>":9305,"dziedzinie</w>":9306,"stosow":9307,"Ludwi":9308,"geni":9309,"niespodzi":9310,"kosztow":9311,"autor</w>":9312,"skre":9313,"Wan":9314,"działać</w>":9315,"wielkich</w>":9316,"Bad":9317,"czyzna</w>":9318,"zgody</w>":9319,"portu</w>":9320,"ustawą</w>":9321,"czemu</w>":9322,"Gmin":9323,"nieleg":9324,"pytań</w>":9325,"obraż":9326,"kogoś</w>":9327,"lekarz</w>":9328,"minuty</w>":9329,"lon</w>":9330,"NE</w>":9331,"boiska</w>":9332,"rowanie</w>":9333,"akademi":9334,"miesiąca</w>":9335,"dyspozycji</w>":9336,"wprowadzenie</w>":9337,"Krzysztofa</w>":9338,"Świata</w>":9339,"oto</w>":9340,"regular":9341,"strono":9342,"mych</w>":9343,"Program</w>":9344,"Policjanci</w>":9345,"Człowie":9346,"klę":9347,"przyszłego</w>":9348,"mieszkaniec</w>":9349,"Szczy":9350,"leni":9351,"cele</w>":9352,"język</w>":9353,"imprez</w>":9354,"Tran":9355,"narciar":9356,"czyźni</w>":9357,"Bę":9358,"edukacji</w>":9359,"sowego</w>":9360,"licen":9361,"lowa</w>":9362,"świ":9363,"opłat</w>":9364,"zdobyć</w>":9365,"zrobił</w>":9366,"PKP</w>":9367,"odbyło</w>":9368,"nięte</w>":9369,"dekla":9370,"Niektórzy</w>":9371,"Zresztą</w>":9372,"komite":9373,"Mer":9374,"Nar":9375,"funkcjonowania</w>":9376,"LA":9377,"szowi":9378,"kolejki</w>":9379,"Gło":9380,"Tek":9381,"Swo":9382,"rzec</w>":9383,"wyżej</w>":9384,"CA</w>":9385,"pała":9386,"przypomina</w>":9387,"europejskich</w>":9388,"rab":9389,"Wola</w>":9390,"Prezydent</w>":9391,"wolny</w>":9392,"Zawsze</w>":9393,"trybu":9394,"dła</w>":9395,"ll</w>":9396,"matycznie</w>":9397,"prawne</w>":9398,"czytać</w>":9399,"pust":9400,"dagogi":9401,"PE":9402,"wolnego</w>":9403,"swobod":9404,"CZY":9405,"sportowych</w>":9406,"dołą":9407,"Historia</w>":9408,"debat":9409,"prywatyzacji</w>":9410,"rejonie</w>":9411,"arki</w>":9412,"widzę</w>":9413,"przepisa":9414,"czegoś</w>":9415,"legen":9416,"iem</w>":9417,"szczęścia</w>":9418,"wygrać</w>":9419,"stanowić</w>":9420,"okrą":9421,"mniejszości</w>":9422,"dia":9423,"Soju":9424,"firmie</w>":9425,"podsum":9426,"znaczenia</w>":9427,"długi</w>":9428,"prom":9429,"żał":9430,"przewiduje</w>":9431,"dodał</w>":9432,"południe</w>":9433,"Daniel</w>":9434,"uważam</w>":9435,"uchy":9436,"strasz":9437,"wale</w>":9438,"Urba":9439,"byłego</w>":9440,"2010</w>":9441,"zarazem</w>":9442,"szczęśli":9443,"Katowice</w>":9444,"wielko":9445,"DZI":9446,"Obo":9447,"powodów</w>":9448,"osobom</w>":9449,"Uczest":9450,"ącymi</w>":9451,"znanych</w>":9452,"intensyw":9453,"pobi":9454,"pracownik</w>":9455,"elementy</w>":9456,"starych</w>":9457,"czołow":9458,"Niech</w>":9459,"odbędą</w>":9460,"patri":9461,"ustawę</w>":9462,"efekt</w>":9463,"pierwo":9464,"wej</w>":9465,"żyje</w>":9466,"protest":9467,"Londy":9468,"aktor":9469,"przedsiębiorstwa</w>":9470,"opubli":9471,"rozma":9472,"Bogdan</w>":9473,"yj":9474,"kan</w>":9475,"łych</w>":9476,"pielęgni":9477,"nasi</w>":9478,"nikogo</w>":9479,"Wysoki</w>":9480,"krakow</w>":9481,"pody":9482,"zezwo":9483,"kw</w>":9484,"grali</w>":9485,"dochodów</w>":9486,"rozmów</w>":9487,"wykorzystać</w>":9488,"WA":9489,"Targu</w>":9490,"książek</w>":9491,"problemem</w>":9492,"dacja</w>":9493,"sprzed</w>":9494,"monta":9495,"edycji</w>":9496,"Jadwi":9497,"zdobyli</w>":9498,"futbo":9499,"budżecie</w>":9500,"eksplo":9501,"znaleźli</w>":9502,"członek</w>":9503,"nogi</w>":9504,"Raj":9505,"departa":9506,"Banku</w>":9507,"Zagłę":9508,"dokony":9509,"ogromne</w>":9510,"obwod":9511,"miaru</w>":9512,"obrad</w>":9513,"patrzy":9514,"uchwał":9515,"OSP</w>":9516,"najnow":9517,"owicie</w>":9518,"Spotkanie</w>":9519,"rejestra":9520,"Bał":9521,"pewnego</w>":9522,"propozycji</w>":9523,"adres</w>":9524,"wytrzy":9525,"stadionie</w>":9526,"uszki</w>":9527,"nazwiska</w>":9528,"lepsze</w>":9529,"lor":9530,"88":9531,"zdrowi":9532,"przerw":9533,"rozwiązań</w>":9534,"długości</w>":9535,"zbrod":9536,"nazwę</w>":9537,"Para":9538,"wikipe":9539,"skan":9540,"wajcar":9541,"kazu</w>":9542,"zabranie</w>":9543,"wybory</w>":9544,"ąd":9545,"czerwcu</w>":9546,"lonej</w>":9547,"ssi":9548,"narzę":9549,"Wydaje</w>":9550,"Ener":9551,"głoszenia</w>":9552,"dowol":9553,"Jawo":9554,"uzu":9555,"ostatniego</w>":9556,"właściciela</w>":9557,"Najbardziej</w>":9558,"zawodowych</w>":9559,"pojawiły</w>":9560,"zagrożenia</w>":9561,"org</w>":9562,"jechała</w>":9563,"Fer":9564,"rzyło</w>":9565,"Gran":9566,"PL</w>":9567,"zbro":9568,"firmę</w>":9569,"OWA</w>":9570,"bogat":9571,"oc":9572,"Uważam</w>":9573,"nazwa</w>":9574,"Raci":9575,"radz":9576,"ataku</w>":9577,"rowania</w>":9578,"Arkadi":9579,"Ostate":9580,"łek</w>":9581,"rehabili":9582,"prywatnych</w>":9583,"ly":9584,"opinię</w>":9585,"Lot":9586,"żki</w>":9587,"kasy</w>":9588,"brew</w>":9589,"BA":9590,"rowego</w>":9591,"włos":9592,"wanego</w>":9593,"podjął</w>":9594,"zalicz":9595,"spośród</w>":9596,"Char":9597,"auta</w>":9598,"Izra":9599,"konkurencji</w>":9600,"Łódź</w>":9601,"trwał":9602,"programów</w>":9603,"czami</w>":9604,"ponadto</w>":9605,"lokalu</w>":9606,"ckiem</w>":9607,"interwen":9608,"Senat</w>":9609,"miotem</w>":9610,"dowo":9611,"posł":9612,"Chrystu":9613,"kraj</w>":9614,"dum</w>":9615,"gęst":9616,"Ira":9617,"Zar":9618,"inna</w>":9619,"niono</w>":9620,"probo":9621,"Inspe":9622,"ham":9623,"zasob":9624,"lej</w>":9625,"wielkości</w>":9626,"Zo":9627,"politycznej</w>":9628,"wieniu</w>":9629,"rzami</w>":9630,"danie</w>":9631,"Vic":9632,"wiać</w>":9633,"nęły</w>":9634,"mowych</w>":9635,"oty":9636,"płyty</w>":9637,"Wydaw":9638,"GKS</w>":9639,"wykorzyst":9640,"rywalizacji</w>":9641,"Żu":9642,"przyjeżdż":9643,"okolicy</w>":9644,"koła</w>":9645,"lecz":9646,"rządzie</w>":9647,"form":9648,"nosić</w>":9649,"cho</w>":9650,"zapis</w>":9651,"Hand":9652,"wielokrotnie</w>":9653,"naugu":9654,"super":9655,"turystów</w>":9656,"czele</w>":9657,"ier</w>":9658,"zaplanowano</w>":9659,"Żółte</w>":9660,"produktów</w>":9661,"mniejsze</w>":9662,"styka</w>":9663,"jede":9664,"próby</w>":9665,"Wielu</w>":9666,"panią</w>":9667,"oblicz":9668,"senatora</w>":9669,"zaczęli</w>":9670,"papiero":9671,"okazał</w>":9672,"sprzedamy</w>":9673,"Ali":9674,"elementów</w>":9675,"największe</w>":9676,"niczki</w>":9677,"Małopolski</w>":9678,"Przystępujemy</w>":9679,"Często</w>":9680,"wydziału</w>":9681,"toż":9682,"wień</w>":9683,"Dorota</w>":9684,"oszu":9685,"grupę</w>":9686,"Kod":9687,"Bła":9688,"proto":9689,"sejm":9690,"wystąpił</w>":9691,"rozpoczęła</w>":9692,"Fry":9693,"Nagro":9694,"czyzny</w>":9695,"oświę":9696,"Sądu</w>":9697,"ńscy</w>":9698,"Bibliote":9699,"lane</w>":9700,"zakończenie</w>":9701,"Woli</w>":9702,"urządzenia</w>":9703,"funduszu</w>":9704,"Rena":9705,"rup":9706,"siedem</w>":9707,"wysp":9708,"Orzeł</w>":9709,"kać</w>":9710,"obchod":9711,"sąde":9712,"son":9713,"wodo":9714,"Sportu</w>":9715,"okolicach</w>":9716,"inwesto":9717,"rundy</w>":9718,"historia</w>":9719,"Stąd</w>":9720,"dobrego</w>":9721,"określa":9722,"pojazdów</w>":9723,"czką</w>":9724,"Ruch":9725,"precy":9726,"porównaniu</w>":9727,"uczestnicy</w>":9728,"wykonanie</w>":9729,"gla</w>":9730,"Polskich</w>":9731,"Bóg</w>":9732,"Jakie</w>":9733,"wykonania</w>":9734,"men</w>":9735,"istnienia</w>":9736,"należą</w>":9737,"średniej</w>":9738,"głównego</w>":9739,"Gdyni</w>":9740,"Taki</w>":9741,"postępowanie</w>":9742,"les":9743,"zdu":9744,"tes</w>":9745,"Władze</w>":9746,"dopła":9747,"Ligi</w>":9748,"zapomni":9749,"wyjątkow":9750,"weekend</w>":9751,"wydatków</w>":9752,"festiwalu</w>":9753,"lum":9754,"ciły</w>":9755,"szkolenia</w>":9756,"działów</w>":9757,"zama":9758,"przerwy</w>":9759,"Gazety</w>":9760,"zatrudni</w>":9761,"chorob":9762,"Ab":9763,"specjalne</w>":9764,"uruchomi":9765,"poczucie</w>":9766,"strzem</w>":9767,"ine</w>":9768,"stara</w>":9769,"zadowol":9770,"grz":9771,"pia</w>":9772,"satys":9773,"połowę</w>":9774,"podło":9775,"skarbu</w>":9776,"łeś</w>":9777,"czynienia</w>":9778,"Pieniądze</w>":9779,"gip":9780,"zabój":9781,"wrocła":9782,"Najwyż":9783,"placówek</w>":9784,"osiedla</w>":9785,"wykry":9786,"szansa</w>":9787,"społeczne</w>":9788,"cieszy</w>":9789,"Uczni":9790,"oświet":9791,"1945</w>":9792,"Antoni</w>":9793,"bab":9794,"występ</w>":9795,"interia</w>":9796,"trasy</w>":9797,"Bezpie":9798,"dziwi":9799,"łowie</w>":9800,"łatwiej</w>":9801,"niowy</w>":9802,"Nowej</w>":9803,"propozycje</w>":9804,"ciekawe</w>":9805,"ang</w>":9806,"Ofi":9807,"rat</w>":9808,"maju</w>":9809,"wości</w>":9810,"liwy</w>":9811,"yta":9812,"nazwisko</w>":9813,"Min":9814,"podróż":9815,"nitar":9816,"wiąże</w>":9817,"dam</w>":9818,"czasy</w>":9819,"kina</w>":9820,"Mił":9821,"olbrzy":9822,"bezrobotnych</w>":9823,"dzienni":9824,"Ex":9825,"roż":9826,"uznał</w>":9827,"letniej</w>":9828,"planu</w>":9829,"remontu</w>":9830,"sprawdzić</w>":9831,"WIE":9832,"zić</w>":9833,"stypen":9834,"gimnazj":9835,"wory":9836,"minimal":9837,"historię</w>":9838,"ktach</w>":9839,"pracują</w>":9840,"gowej</w>":9841,"wna</w>":9842,"leniu</w>":9843,"liwych</w>":9844,"Auto":9845,"Szczegól":9846,"kowice</w>":9847,"dziesięć</w>":9848,"rozgryw":9849,"Kin":9850,"uniwersyte":9851,"zasię":9852,"Ostatnio</w>":9853,"koni":9854,"GA":9855,"czonego</w>":9856,"posze":9857,"1939</w>":9858,"źró":9859,"podnieść</w>":9860,"pozycja</w>":9861,"dodać</w>":9862,"anali":9863,"czasami</w>":9864,"bezpośred":9865,"jakiej":9866,"Prace</w>":9867,"Tr":9868,"Obywatel":9869,"Solidarności</w>":9870,"ochot":9871,"Polskę</w>":9872,"was</w>":9873,"bienia</w>":9874,"dzieciom</w>":9875,"rząc</w>":9876,"jaką":9877,"atak":9878,"przekształ":9879,"TNI":9880,"grudniu</w>":9881,"walce</w>":9882,"dynami":9883,"spotyka":9884,"przeglą":9885,"czycy</w>":9886,"trasie</w>":9887,"orkiest":9888,"narodowej</w>":9889,"dowych</w>":9890,"ferze</w>":9891,"niczny</w>":9892,"kampanii</w>":9893,"ref":9894,"posłowi</w>":9895,"niejszego</w>":9896,"kowana</w>":9897,"numer":9898,"pać</w>":9899,"cor":9900,"okreś":9901,"Państwowej</w>":9902,"lom</w>":9903,"sędzia</w>":9904,"zrozu":9905,"Pogoń</w>":9906,"Spraw</w>":9907,"Białoru":9908,"Środowiska</w>":9909,"dana</w>":9910,"sportowe</w>":9911,"sili</w>":9912,"rozważ":9913,"widowi":9914,"Gdzie</w>":9915,"matki</w>":9916,"padł</w>":9917,"połowa</w>":9918,"obejmuje</w>":9919,"otrzymała</w>":9920,"Chyba</w>":9921,"komple":9922,"pismo</w>":9923,"osiem</w>":9924,"zbudow":9925,"lon":9926,"Kazimierza</w>":9927,"di</w>":9928,"fol":9929,"niają</w>":9930,"odzysk":9931,"czeni</w>":9932,"Centra":9933,"mundu":9934,"liwa</w>":9935,"redakcji</w>":9936,"skompli":9937,"poniżej</w>":9938,"katastro":9939,"SPA":9940,"wybór</w>":9941,"miejskich</w>":9942,"ligen":9943,"jedynym</w>":9944,"dale</w>":9945,"Hali":9946,"Zofi":9947,"spotk":9948,"Jagiello":9949,"szczu</w>":9950,"stabi":9951,"GO</w>":9952,"gaz":9953,"uzupeł":9954,"Nadz":9955,"parlamentar":9956,"rozli":9957,"chać</w>":9958,"pełne</w>":9959,"znalazły</w>":9960,"przyjąć</w>":9961,"pozysk":9962,"mień</w>":9963,"rywali</w>":9964,"członkiem</w>":9965,"kawał":9966,"związek</w>":9967,"zesta":9968,"rzut</w>":9969,"ałyby</w>":9970,"podwój":9971,"Następnie</w>":9972,"poszkodow":9973,"propa":9974,"Słup":9975,"Spra":9976,"kondy":9977,"kujemy</w>":9978,"cjo":9979,"cyklu</w>":9980,"ganie</w>":9981,"uderzył</w>":9982,"zamieszki":9983,"dano</w>":9984,"zgodę</w>":9985,"Pożar":9986,"wodą</w>":9987,"inicjatywy</w>":9988,"Bli":9989,"Administra":9990,"ordyna":9991,"autostra":9992,"OD":9993,"przeszłości</w>":9994,"arowa</w>":9995,"tragi":9996,"obniż":9997,"urodzi":9998,"Myśle":9999,"prawdy</w>":10000,"chowy":10001,"mel":10002,"Przeci":10003,"gabine":10004,"Zespo":10005,"rzyli</w>":10006,"rzów</w>":10007,"obronie</w>":10008,"lokalnych</w>":10009,"wykonaniu</w>":10010,"dowód":10011,"oddział</w>":10012,"większych</w>":10013,"post":10014,"tworzenia</w>":10015,"udowod":10016,"oba</w>":10017,"ofe":10018,"Popraw":10019,"życz":10020,"dzieła</w>":10021,"przyczyną</w>":10022,"rada</w>":10023,"jakiej</w>":10024,"zdłu":10025,"wny</w>":10026,"infra":10027,"Waldemar</w>":10028,"sklepu</w>":10029,"iach</w>":10030,"Krajowej</w>":10031,"utrzymy":10032,"Jednym</w>":10033,"Archi":10034,"TY</w>":10035,"przeważ":10036,"marszałka</w>":10037,"pojem":10038,"przyjęcia</w>":10039,"tyk</w>":10040,"osobę</w>":10041,"Sebastian</w>":10042,"roślin</w>":10043,"opóź":10044,"Mło":10045,"Piotr":10046,"polityczne</w>":10047,"klasyfikacji</w>":10048,"Góra</w>":10049,"myśla":10050,"studiów</w>":10051,"mąż</w>":10052,"dowe</w>":10053,"Sącz</w>":10054,"osobiście</w>":10055,"rolnictwa</w>":10056,"mówię</w>":10057,"ceniem</w>":10058,"nastąpi</w>":10059,"chętnych</w>":10060,"znalazła</w>":10061,"wyłą":10062,"odnot":10063,"rozumiem</w>":10064,"figu":10065,"publicznego</w>":10066,"partyj":10067,"utru":10068,"epo":10069,"wpis":10070,"Gdańska</w>":10071,"czyni</w>":10072,"zwyczaj":10073,"sow":10074,"dobrych</w>":10075,"obowiązy":10076,"równowa":10077,"ponad":10078,"styczniu</w>":10079,"pamięt":10080,"bramek</w>":10081,"sbur":10082,"uregul":10083,"Liceum</w>":10084,"dostęp</w>":10085,"napi":10086,"obecny</w>":10087,"nikowi</w>":10088,"południu</w>":10089,"dotk":10090,"hipo":10091,"ff":10092,"swe</w>":10093,"tygodnia</w>":10094,"odczu":10095,"czyn</w>":10096,"założ":10097,"brąz":10098,"kontrower":10099,"rur":10100,"tin</w>":10101,"składa</w>":10102,"swą</w>":10103,"fron":10104,"kowskiej</w>":10105,"znać</w>":10106,"zdłuż</w>":10107,"Mecz</w>":10108,"Robak</w>":10109,"ciężko</w>":10110,"przewidy":10111,"odpadów</w>":10112,"górze</w>":10113,"Beata</w>":10114,"uzyska":10115,"byłaby</w>":10116,"sel":10117,"Parlamentar":10118,"Rosja":10119,"zwolen":10120,"osa":10121,"zamó":10122,"surow":10123,"przypomi":10124,"poprzednich</w>":10125,"ts</w>":10126,"Kamil</w>":10127,"odległości</w>":10128,"Zakopanem</w>":10129,"moją</w>":10130,"Najważ":10131,"ela</w>":10132,"kredytu</w>":10133,"wartości":10134,"dowski</w>":10135,"IS":10136,"ler":10137,"wyjeżdż":10138,"wyz":10139,"Bla":10140,"dziesz</w>":10141,"Żeby</w>":10142,"opo":10143,"serde":10144,"wprawdzie</w>":10145,"administracyjnie</w>":10146,"Plu":10147,"wygrała</w>":10148,"zaległ":10149,"drogach</w>":10150,"ludź":10151,"ulicach</w>":10152,"realizację</w>":10153,"wchodzi</w>":10154,"zakład</w>":10155,"wyraź":10156,"prowadzą</w>":10157,"ńczyk</w>":10158,"nianie</w>":10159,"spółka</w>":10160,"odpowiednie</w>":10161,"sprzą":10162,"lewej</w>":10163,"żar</w>":10164,"projekty</w>":10165,"wydatki</w>":10166,"cać</w>":10167,"obój":10168,"Syst":10169,"liści</w>":10170,"0602</w>":10171,"przemysłow":10172,"szacun":10173,"źródeł</w>":10174,"Pauli":10175,"wszystkiego</w>":10176,"ośrodka</w>":10177,"Urzędzie</w>":10178,"pobytu</w>":10179,"ol</w>":10180,"wita":10181,"ęły</w>":10182,"General":10183,"opad":10184,"bloku</w>":10185,"powinniśmy</w>":10186,"obecnych</w>":10187,"wyjątkowo</w>":10188,"ogni":10189,"odzna":10190,"polo":10191,"dzielnicy</w>":10192,"poprawkę</w>":10193,"działo</w>":10194,"db":10195,"ordy":10196,"Zygmunt</w>":10197,"Instytutu</w>":10198,"Związek</w>":10199,"Kwiat":10200,"fawory":10201,"musiała</w>":10202,"zagospodarowania</w>":10203,"działki</w>":10204,"camy</w>":10205,"Dęb":10206,"stra</w>":10207,"tamtej":10208,"towi":10209,"żone</w>":10210,"Radni</w>":10211,"Minister</w>":10212,"hoke":10213,"bezwzględ":10214,"wielkiego</w>":10215,"Połu":10216,"wize":10217,"póki</w>":10218,"Solidarność</w>":10219,"Mazu":10220,"świąte":10221,"letnich</w>":10222,"krótko</w>":10223,"CJA</w>":10224,"prowin":10225,"lide":10226,"Opie":10227,"byś</w>":10228,"slaw</w>":10229,"ciło</w>":10230,"ker</w>":10231,"nosił</w>":10232,"poważnie</w>":10233,"spółek</w>":10234,"obecnej</w>":10235,"pisma</w>":10236,"zmienia</w>":10237,"obecność</w>":10238,"dziad":10239,"pią</w>":10240,"Dróg</w>":10241,"niosły</w>":10242,"wynajęcia</w>":10243,"chłopców</w>":10244,"Zad":10245,"pul":10246,"niejszej</w>":10247,"Hol":10248,"Więcej</w>":10249,"Edward</w>":10250,"Przewod":10251,"majątku</w>":10252,"istotne</w>":10253,"Os":10254,"najlepszym</w>":10255,"młody</w>":10256,"stworzyć</w>":10257,"stwa":10258,"ver</w>":10259,"alność</w>":10260,"trudności</w>":10261,"specyfi":10262,"odbywa</w>":10263,"postanowił</w>":10264,"EK</w>":10265,"ważnym</w>":10266,"Austri":10267,"restruktury":10268,"teor":10269,"najbliższym</w>":10270,"kolejce</w>":10271,"POL":10272,"podróży</w>":10273,"biut":10274,"Będą</w>":10275,"dodatku</w>":10276,"niebie":10277,"zaczęły</w>":10278,"Zam":10279,"słusz":10280,"sprawdz":10281,"trwała</w>":10282,"fotogra":10283,"nawiąza":10284,"ksiądz</w>":10285,"dopuszcz":10286,"chwy":10287,"chu":10288,"owskich</w>":10289,"cznością</w>":10290,"zachowania</w>":10291,"wskaź":10292,"srebr":10293,"zadowo":10294,"Rok</w>":10295,"czynają</w>":10296,"zewnątrz</w>":10297,"pozwoli</w>":10298,"Karolina</w>":10299,"trafiła</w>":10300,"dor</w>":10301,"bied":10302,"Pozdrawiam</w>":10303,"AU":10304,"suge":10305,"NIK</w>":10306,"zazwyczaj</w>":10307,"polską</w>":10308,"ap":10309,"oczyszcz":10310,"WW</w>":10311,"uzyskał</w>":10312,"wzięło</w>":10313,"Taka</w>":10314,"ludźmi</w>":10315,"Chcę</w>":10316,"zajęła</w>":10317,"pozostawi":10318,"postać</w>":10319,"nna</w>":10320,"prę":10321,"zaprasza</w>":10322,"ciera":10323,"potęż":10324,"kowcy</w>":10325,"ważny</w>":10326,"rzucił</w>":10327,"spotkać</w>":10328,"gły</w>":10329,"prezesem</w>":10330,"pojawia</w>":10331,"ówką</w>":10332,"zła</w>":10333,"szają</w>":10334,"drzew</w>":10335,"obowiązków</w>":10336,"podleg":10337,"DO</w>":10338,"pewnych</w>":10339,"Sosnow":10340,"króla</w>":10341,"podjąć</w>":10342,"mum</w>":10343,"Przygot":10344,"Osie":10345,"własny</w>":10346,"nd</w>":10347,"Polskie</w>":10348,"Gą":10349,"Oświęcimiu</w>":10350,"krakowskiej</w>":10351,"dorad":10352,"łki</w>":10353,"Cieka":10354,"wynagrodzenia</w>":10355,"mistrzem</w>":10356,"zapewnić</w>":10357,"opan":10358,"chach</w>":10359,"przesy":10360,"Szczeci":10361,"robią</w>":10362,"pojedyn":10363,"syn":10364,"Gospoda":10365,"KAR":10366,"sekretarz</w>":10367,"strategi":10368,"nauczyciele</w>":10369,"BP</w>":10370,"041</w>":10371,"sekcji</w>":10372,"obowiązku</w>":10373,"układu</w>":10374,"konieczne</w>":10375,"doświadczenie</w>":10376,"Grab":10377,"Telewi":10378,"pokazać</w>":10379,"rzono</w>":10380,"terrory":10381,"jedyny</w>":10382,"ose":10383,"Woź":10384,"łap":10385,"stare</w>":10386,"przesu":10387,"niać</w>":10388,"wysoko</w>":10389,"ati":10390,"stę</w>":10391,"przyczyn</w>":10392,"inaugu":10393,"kultu":10394,"urząd</w>":10395,"deli":10396,"BA</w>":10397,"Oto</w>":10398,"0601</w>":10399,"mierze</w>":10400,"CY":10401,"ciela</w>":10402,"konieczność</w>":10403,"wielkiej</w>":10404,"agno":10405,"stanowisku</w>":10406,"rzona</w>":10407,"rlan":10408,"kal":10409,"głosy</w>":10410,"nowi</w>":10411,"0502</w>":10412,"Powiatowego</w>":10413,"Rozmawi":10414,"mbar":10415,"jaka":10416,"karty</w>":10417,"wica</w>":10418,"tekście</w>":10419,"Jęd":10420,"dziela</w>":10421,"wojska</w>":10422,"NAT":10423,"dziećmi</w>":10424,"Drugi</w>":10425,"sej":10426,"Problem</w>":10427,"moment</w>":10428,"Wawe":10429,"Bud":10430,"Dziennika</w>":10431,"Brz":10432,"twarz</w>":10433,"targ":10434,"ph":10435,"racja</w>":10436,"chciała</w>":10437,"świadomość</w>":10438,"wybuch":10439,"kościół</w>":10440,"propozycję</w>":10441,"dyrektor":10442,"kwalifika":10443,"otwarcie</w>":10444,"Przede</w>":10445,"zachowanie</w>":10446,"słod":10447,"lana</w>":10448,"wsty":10449,"trą":10450,"kibice</w>":10451,"powie</w>":10452,"trwać</w>":10453,"podzięk":10454,"ct</w>":10455,"XI</w>":10456,"wyczaj":10457,"wydarzeń</w>":10458,"robił</w>":10459,"obsługi</w>":10460,"języku</w>":10461,"Miał</w>":10462,"zdecydował</w>":10463,"każdą</w>":10464,"ara</w>":10465,"Tadeusza</w>":10466,"dem":10467,"terytori":10468,"przeznaczone</w>":10469,"swoimi</w>":10470,"stracił</w>":10471,"Kodek":10472,"reformy</w>":10473,"pał</w>":10474,"miaste":10475,"zawodowe</w>":10476,"roboty</w>":10477,"złożył</w>":10478,"polityków</w>":10479,"znajdow":10480,"bun":10481,"Nigdy</w>":10482,"posłowie</w>":10483,"Wolności</w>":10484,"Krakowskiej</w>":10485,"bank</w>":10486,"niepoko":10487,"Dawid</w>":10488,"chęć</w>":10489,"niczo</w>":10490,"wiedział</w>":10491,"wypadków</w>":10492,"Sprawied":10493,"cimy</w>":10494,"państwowych</w>":10495,"ven":10496,"kże</w>":10497,"unika":10498,"okazuje</w>":10499,"ręcz":10500,"kredytów</w>":10501,"obj":10502,"większym</w>":10503,"potrafią</w>":10504,"urządzeń</w>":10505,"powoli</w>":10506,"rzak</w>":10507,"danej</w>":10508,"Firma</w>":10509,"łowi":10510,"informacja</w>":10511,"karzem</w>":10512,"szyli</w>":10513,"ścią":10514,"lecie</w>":10515,"bać</w>":10516,"uszy</w>":10517,"cieli</w>":10518,"rezy":10519,"niesieniu</w>":10520,"uzyskania</w>":10521,"walkę</w>":10522,"kwota</w>":10523,"szyn</w>":10524,"artystów</w>":10525,"myślą</w>":10526,"brakowało</w>":10527,"mistrzostwach</w>":10528,"Jolan":10529,"lizować</w>":10530,"maz":10531,"dzkiego</w>":10532,"nagród</w>":10533,"KRA":10534,"Stru":10535,"Liman":10536,"miłość</w>":10537,"rady":10538,"materiały</w>":10539,"AWS</w>":10540,"wysła":10541,"odbyły</w>":10542,"mara":10543,"okna</w>":10544,"wywiad":10545,"Sande":10546,"Śle":10547,"land</w>":10548,"zagra</w>":10549,"pel</w>":10550,"wypadek</w>":10551,"wybrać</w>":10552,"Ojciec</w>":10553,"elem</w>":10554,"SiR</w>":10555,"pobli":10556,"szyły</w>":10557,"specjalnych</w>":10558,"kuchni</w>":10559,"Kwaśnie":10560,"słuchać</w>":10561,"zamieni":10562,"Świętego</w>":10563,"obowiązuje</w>":10564,"precyzyj":10565,"sper":10566,"racjona":10567,"mówili</w>":10568,"Franciszek</w>":10569,"jezdni</w>":10570,"przewagę</w>":10571,"czuk</w>":10572,"Edukacji</w>":10573,"własności</w>":10574,"Agencji</w>":10575,"Zło":10576,"wzor":10577,"socjali":10578,"libe":10579,"rodzaj</w>":10580,"klasa</w>":10581,"Powiatu</w>":10582,"wydoby":10583,"nościach</w>":10584,"świade":10585,"metrowy</w>":10586,"scenari":10587,"przestrzeni</w>":10588,"rąk</w>":10589,"odpowiedzieć</w>":10590,"upo":10591,"czyt":10592,"kiemu</w>":10593,"umów</w>":10594,"óz</w>":10595,"Adri":10596,"alności</w>":10597,"Dyrektor</w>":10598,"doprowadzić</w>":10599,"duch":10600,"poważne</w>":10601,"mujemy</w>":10602,"zje":10603,"Norwe":10604,"wzdłuż</w>":10605,"krakowi":10606,"wiamy</w>":10607,"porta":10608,"latek</w>":10609,"filmów</w>":10610,"rie":10611,"bramkarza</w>":10612,"swym</w>":10613,"polityka</w>":10614,"Azor</w>":10615,"VAT</w>":10616,"tramwa":10617,"PRL</w>":10618,"czają</w>":10619,"zniszcz":10620,"skal":10621,"piw":10622,"dodatkowych</w>":10623,"miejscem</w>":10624,"kowali</w>":10625,"szeniem</w>":10626,"Włodzimierz</w>":10627,"układ</w>":10628,"Kiedyś</w>":10629,"referendum</w>":10630,"Hon":10631,"widzi</w>":10632,"gimna":10633,"str</w>":10634,"Pomy":10635,"ryt":10636,"komendant</w>":10637,"wejścia</w>":10638,"profesor</w>":10639,"odwoł":10640,"Wałę":10641,"właściciele</w>":10642,"lekarze</w>":10643,"konieczności</w>":10644,"zarob":10645,"Szkole</w>":10646,"strażacy</w>":10647,"Cał":10648,"kamieni":10649,"Dziew":10650,"Rozmowa</w>":10651,"boisko</w>":10652,"Oba":10653,"Najwięcej</w>":10654,"nur":10655,"owach</w>":10656,"Patry":10657,"sportowej</w>":10658,"uję":10659,"zapobie":10660,"nawierzch":10661,"Polityki</w>":10662,"otrzyma</w>":10663,"celów</w>":10664,"nickiego</w>":10665,"przeszka":10666,"KT":10667,"Demokratycznej</w>":10668,"Wiem</w>":10669,"częścią</w>":10670,"dania</w>":10671,"finał</w>":10672,"korup":10673,"bramkarz</w>":10674,"drzwi":10675,"Wojewódzkiego</w>":10676,"Wielka</w>":10677,"drzewa</w>":10678,"spę":10679,"Lecha</w>":10680,"23":10681,"wychowan":10682,"Trój":10683,"Tomasza</w>":10684,"jakich":10685,"teatru</w>":10686,"rozpatrze":10687,"tory</w>":10688,"jakimś</w>":10689,"wianie</w>":10690,"odcinku</w>":10691,"stopnia</w>":10692,"łości</w>":10693,"świadczy</w>":10694,"złe</w>":10695,"pić</w>":10696,"sprzy":10697,"Druga</w>":10698,"rodów</w>":10699,"ewi":10700,"zakon":10701,"ceń</w>":10702,"świąty":10703,"górę</w>":10704,"zwło":10705,"człowiekiem</w>":10706,"Kolejne</w>":10707,"twarzy</w>":10708,"uzupełni":10709,"terem</w>":10710,"pomyśl":10711,"Wer":10712,"IA</w>":10713,"ksRobak</w>":10714,"przedstawić</w>":10715,"turą</w>":10716,"rzutów</w>":10717,"red</w>":10718,"terna":10719,"mistrzostwa</w>":10720,"posto":10721,"Elekt":10722,"reguły</w>":10723,"jesteś</w>":10724,"ustaw":10725,"giel</w>":10726,"atu</w>":10727,"Środ":10728,"niewy":10729,"określonych</w>":10730,"odbiera":10731,"czyliśmy</w>":10732,"czko</w>":10733,"merytory":10734,"Jacka</w>":10735,"setki</w>":10736,"kówki</w>":10737,"ccy</w>":10738,"gr</w>":10739,"lipcu</w>":10740,"znam</w>":10741,"artykule</w>":10742,"związany</w>":10743,"listopa":10744,"XVI</w>":10745,"otrzymać</w>":10746,"konto</w>":10747,"ygod":10748,"komplek":10749,"wprowadzenia</w>":10750,"Wiadomo</w>":10751,"mas</w>":10752,"przygotowanie</w>":10753,"posił":10754,"Zał":10755,"Dre":10756,"remonty</w>":10757,"tas</w>":10758,"Rab":10759,"prokuratura</w>":10760,"tór":10761,"mol</w>":10762,"wielka</w>":10763,"potencjal":10764,"POKO":10765,"urzędników</w>":10766,"przyspie":10767,"granicę</w>":10768,"Uro":10769,"wzajem":10770,"śmie</w>":10771,"Zost":10772,"zechce</w>":10773,"lizację</w>":10774,"stek</w>":10775,"znana</w>":10776,"komer":10777,"Więc</w>":10778,"hotelu</w>":10779,"goda</w>":10780,"Cracovia</w>":10781,"SE":10782,"końcem</w>":10783,"handlu</w>":10784,"pch":10785,"Medy":10786,"średnich</w>":10787,"Kubi":10788,"Jednocześnie</w>":10789,"tary":10790,"han":10791,"Konkurs</w>":10792,"Holan":10793,"wojewody</w>":10794,"schroni":10795,"przetargu</w>":10796,"inżynie":10797,"zagrał</w>":10798,"Rosja</w>":10799,"celar":10800,"junio":10801,"ozd":10802,"pędz":10803,"Austra":10804,"inteligen":10805,"port":10806,"zabytkow":10807,"praktyce</w>":10808,"ńc":10809,"prowadzeniu</w>":10810,"Ange":10811,"cząc</w>":10812,"samą</w>":10813,"trium":10814,"jakiegoś</w>":10815,"rowskiego</w>":10816,"wydał</w>":10817,"szczególności</w>":10818,"uzgod":10819,"decyduje</w>":10820,"wce</w>":10821,"świetnie</w>":10822,"stowarzyszenia</w>":10823,"Ponad</w>":10824,"pyta</w>":10825,"skrę":10826,"niemy</w>":10827,"ub</w>":10828,"Błę":10829,"skutki</w>":10830,"ważna</w>":10831,"Koncer":10832,"wygrali</w>":10833,"sowi</w>":10834,"wszędzie</w>":10835,"sud":10836,"baj":10837,"odpowiedzialność</w>":10838,"potrzebna</w>":10839,"etapie</w>":10840,"rAzor</w>":10841,"Ogólnokształc":10842,"Bą":10843,"żyły</w>":10844,"społecznego</w>":10845,"chan":10846,"Wystarczy</w>":10847,"współpracę</w>":10848,"Sad":10849,"źć</w>":10850,"rankin":10851,"Nasz</w>":10852,"hipote":10853,"strzę":10854,"druku</w>":10855,"marcu</w>":10856,"główny</w>":10857,"Kore":10858,"gła":10859,"wyrok</w>":10860,"Nad</w>":10861,"otwiera":10862,"Produ":10863,"POKOJ":10864,"głównych</w>":10865,"substan":10866,"nade":10867,"ciel":10868,"Gwia":10869,"basad":10870,"sur":10871,"określa</w>":10872,"dostaw":10873,"wamy</w>":10874,"Leś":10875,"momentu</w>":10876,"Mieczysław</w>":10877,"dyskut":10878,"podstawowe</w>":10879,"logia</w>":10880,"przycisk</w>":10881,"ubo":10882,"koja":10883,"fanta":10884,"ciu":10885,"szo":10886,"utrzymania</w>":10887,"rzeki</w>":10888,"dziesięcio":10889,"miastach</w>":10890,"przyda":10891,"szkoleniowiec</w>":10892,"dować</w>":10893,"jakąś</w>":10894,"cierp":10895,"rej</w>":10896,"kompozy":10897,"wierzyć</w>":10898,"fata":10899,"larz</w>":10900,"wakacje</w>":10901,"kot":10902,"PP</w>":10903,"owia</w>":10904,"dłem</w>":10905,"przyrody</w>":10906,"domy</w>":10907,"mikro":10908,"plane":10909,"zagrożenie</w>":10910,"ina</w>":10911,"zarzuty</w>":10912,"PAR":10913,"Początek</w>":10914,"tekstu</w>":10915,"Bartosz</w>":10916,"wypeł":10917,"umo":10918,"terenów</w>":10919,"siedmiu</w>":10920,"Świą":10921,"zachwy":10922,"FA</w>":10923,"Arkadiusz</w>":10924,"brał</w>":10925,"nieni</w>":10926,"zau":10927,"win</w>":10928,"muzyka</w>":10929,"czonej</w>":10930,"założenia</w>":10931,"jnej</w>":10932,"wyło":10933,"szczu":10934,"ostroż":10935,"limi":10936,"tkiem</w>":10937,"RR</w>":10938,"inną</w>":10939,"apel":10940,"efekty</w>":10941,"Szcza":10942,"Czas</w>":10943,"tis</w>":10944,"bliżej</w>":10945,"Nag":10946,"miesiącach</w>":10947,"korzyści</w>":10948,"nom</w>":10949,"Szu":10950,"przestępstwa</w>":10951,"Polak</w>":10952,"transa":10953,"piłkarz</w>":10954,"KR":10955,"Vol":10956,"majątkow":10957,"MP</w>":10958,"wskich</w>":10959,"wypoczy":10960,"wnioskodaw":10961,"dowy</w>":10962,"ontari":10963,"Naz":10964,"niaka</w>":10965,"Skor":10966,"Zakładu</w>":10967,"ciało</w>":10968,"uprawi":10969,"Lw":10970,"Dni</w>":10971,"zaakcep":10972,"głowie</w>":10973,"najprawdopodobniej</w>":10974,"Finansów</w>":10975,"siatki</w>":10976,"samochodem</w>":10977,"walka</w>":10978,"Broni":10979,"kape":10980,"dorosłych</w>":10981,"obaj</w>":10982,"Lan":10983,"twy</w>":10984,"przekonać</w>":10985,"pracownika</w>":10986,"sformuł":10987,"warunkiem</w>":10988,"odnale":10989,"uważają</w>":10990,"kością</w>":10991,"działam</w>":10992,"cuk":10993,"powrót</w>":10994,"siód":10995,"ówkach</w>":10996,"film":10997,"banków</w>":10998,"Bob":10999,"tus</w>":11000,"Marii</w>":11001,"Tyle</w>":11002,"zję</w>":11003,"grze</w>":11004,"miesięcznie</w>":11005,"Anglii</w>":11006,"Cel":11007,"potę":11008,"OWICE</w>":11009,"gowych</w>":11010,"wiają</w>":11011,"artykułu</w>":11012,"waliśmy</w>":11013,"won":11014,"użytku</w>":11015,"kop":11016,"napo":11017,"przejm":11018,"kolejnym</w>":11019,"kolejności</w>":11020,"lis</w>":11021,"Sku":11022,"Sied":11023,"Mały":11024,"maniu</w>":11025,"doży":11026,"przejść</w>":11027,"próbował</w>":11028,"SU":11029,"Cheł":11030,"bić</w>":11031,"trzecim</w>":11032,"dając</w>":11033,"mieści</w>":11034,"wątpliwie</w>":11035,"zadzwo":11036,"WYTNI":11037,"źródła</w>":11038,"oświaty</w>":11039,"ziemię</w>":11040,"Rynek</w>":11041,"stycznie</w>":11042,"usłysze":11043,"miliar":11044,"mes</w>":11045,"Tekst</w>":11046,"cyf":11047,"powstać</w>":11048,"łch":11049,"śwież":11050,"znajdą</w>":11051,"podstawowej</w>":11052,"każde</w>":11053,"służb</w>":11054,"pozostałe</w>":11055,"okoliczności</w>":11056,"operacji</w>":11057,"reag":11058,"wagi</w>":11059,"śmiertel":11060,"podziel":11061,"oczach</w>":11062,"gwałtow":11063,"uchwal":11064,"puł":11065,"śmi":11066,"projektem</w>":11067,"szonych</w>":11068,"wydarzenia</w>":11069,"Sar":11070,"lidera</w>":11071,"be</w>":11072,"zaczyna":11073,"towana</w>":11074,"CK</w>":11075,"Michal":11076,"sierpniu</w>":11077,"Ekonomi":11078,"ustro":11079,"dodatek</w>":11080,"gin":11081,"wsparcie</w>":11082,"mego</w>":11083,"Grun":11084,"Piłsud":11085,"Gazeta</w>":11086,"prokurator</w>":11087,"sowy</w>":11088,"Wówczas</w>":11089,"obrazy</w>":11090,"kradzieży</w>":11091,"koniecznie</w>":11092,"transportu</w>":11093,"Białej</w>":11094,"zabytków</w>":11095,"moto":11096,"rozmai":11097,"fede":11098,"arski</w>":11099,"Wójcik</w>":11100,"owanymi</w>":11101,"październiku</w>":11102,"ęli</w>":11103,"wykonywania</w>":11104,"tymczas":11105,"panowie</w>":11106,"ogrze":11107,"Ole":11108,"różnic":11109,"relacji</w>":11110,"Krze":11111,"nobrze":11112,"łego</w>":11113,"krok</w>":11114,"przyto":11115,"czeniach</w>":11116,"NATO</w>":11117,"Zakopane</w>":11118,"ON":11119,"niepodległ":11120,"Ruch</w>":11121,"skak":11122,"wybudow":11123,"rowana</w>":11124,"metr</w>":11125,"ir</w>":11126,"pał":11127,"nasi":11128,"miliona</w>":11129,"Tel</w>":11130,"Życie</w>":11131,"Afry":11132,"zająć</w>":11133,"skami</w>":11134,"karwan</w>":11135,"określone</w>":11136,"obowiązki</w>":11137,"etap</w>":11138,"mnó":11139,"Jedna</w>":11140,"zakres</w>":11141,"Widze":11142,"stosuje</w>":11143,"gany</w>":11144,"jaw":11145,"wyci":11146,"Elblą":11147,"zdem</w>":11148,"Szymon</w>":11149,"Col":11150,"uprawnienia</w>":11151,"gosła":11152,"wiesz</w>":11153,"śre":11154,"Prawdo":11155,"telefonu</w>":11156,"Ana":11157,"jo":11158,"oficer":11159,"koro":11160,"gole</w>":11161,"kategoriach</w>":11162,"Szkol":11163,"sprzedam</w>":11164,"Nauczycie":11165,"optymi":11166,"leczenia</w>":11167,"ografii</w>":11168,"klienta</w>":11169,"szczyt</w>":11170,"tj</w>":11171,"res</w>":11172,"Grzy":11173,"branży</w>":11174,"teore":11175,"meczów</w>":11176,"przyszedł</w>":11177,"jakość</w>":11178,"Pun":11179,"arka</w>":11180,"zuje</w>":11181,"Psze":11182,"Grand</w>":11183,"niowo</w>":11184,"bul":11185,"towano</w>":11186,"Start</w>":11187,"Pię":11188,"powieści</w>":11189,"pij":11190,"naukę</w>":11191,"fer</w>":11192,"wystąpi</w>":11193,"pięć":11194,"monitor":11195,"RA</w>":11196,"kiety</w>":11197,"zmarł</w>":11198,"wójta</w>":11199,"Towarzystwo</w>":11200,"wykonane</w>":11201,"Fin":11202,"Biura</w>":11203,"Goście</w>":11204,"ofiar</w>":11205,"Konie":11206,"przypadek</w>":11207,"tan</w>":11208,"lustra":11209,"władz":11210,"trybie</w>":11211,"odpor":11212,"jesienią</w>":11213,"Znaj":11214,"oszczędności</w>":11215,"domag":11216,"kał</w>":11217,"Potrze":11218,"wysł":11219,"dwaj</w>":11220,"Państwo</w>":11221,"jczyk</w>":11222,"cztero":11223,"myśli":11224,"Orkiest":11225,"ąza":11226,"finansowania</w>":11227,"ałabym</w>":11228,"popiera":11229,"studenci</w>":11230,"BU":11231,"szpital</w>":11232,"liwie</w>":11233,"Radom":11234,"KM</w>":11235,"zę":11236,"Kole":11237,"powiem</w>":11238,"złożyć</w>":11239,"Szczepa":11240,"Targ</w>":11241,"Gospodarze</w>":11242,"tko</w>":11243,"metody</w>":11244,"Rzeszów</w>":11245,"Mają</w>":11246,"chodzili</w>":11247,"niezwykł":11248,"wizyty</w>":11249,"wejść</w>":11250,"ciego</w>":11251,"koncie</w>":11252,"naje":11253,"wieczór</w>":11254,"wiosen":11255,"niania</w>":11256,"Kontro":11257,"Wał":11258,"Sopo":11259,"Dotych":11260,"widzów</w>":11261,"pą</w>":11262,"dzona</w>":11263,"przedsięwzięcia</w>":11264,"łożył</w>":11265,"związków</w>":11266,"dochodzi</w>":11267,"toria</w>":11268,"Chmie":11269,"OWY</w>":11270,"gospodarczych</w>":11271,"tum</w>":11272,"mik</w>":11273,"porusz":11274,"szkiewicz</w>":11275,"pamiętam</w>":11276,"Teatru</w>":11277,"Pała":11278,"armii</w>":11279,"wczyk</w>":11280,"mieszkaniu</w>":11281,"Sytua":11282,"awar":11283,"Wojciecha</w>":11284,"hor":11285,"emocji</w>":11286,"strona</w>":11287,"kcją</w>":11288,"dojść</w>":11289,"efektyw":11290,"dle</w>":11291,"gronie</w>":11292,"ant</w>":11293,"starszy</w>":11294,"zali":11295,"wiński</w>":11296,"natury</w>":11297,"szkołę</w>":11298,"bieg</w>":11299,"sche":11300,"brat</w>":11301,"stronach</w>":11302,"biorą</w>":11303,"Bre":11304,"Stwierdzam</w>":11305,"Witold</w>":11306,"ft</w>":11307,"żę</w>":11308,"Marszałek</w>":11309,"Grzego":11310,"obrazu</w>":11311,"miot</w>":11312,"Radosła":11313,"zała":11314,"Ustawa</w>":11315,"tokrzy":11316,"uma":11317,"zatrzymali</w>":11318,"pełnomoc":11319,"dowa</w>":11320,"ciami</w>":11321,"leni</w>":11322,"mediów</w>":11323,"let</w>":11324,"wiedzę</w>":11325,"pami</w>":11326,"imi":11327,"wiarygod":11328,"średnio</w>":11329,"letnim</w>":11330,"id":11331,"strzał</w>":11332,"Chri":11333,"Com":11334,"przedmiotem</w>":11335,"ściany</w>":11336,"przygotować</w>":11337,"Tutaj</w>":11338,"ującymi</w>":11339,"prowi":11340,"dziecię":11341,"wprowadzić</w>":11342,"służyć</w>":11343,"lica</w>":11344,"ut</w>":11345,"rują</w>":11346,"Poja":11347,"presti":11348,"zdjęć</w>":11349,"mono":11350,"miejscowych</w>":11351,"łgar":11352,"męża</w>":11353,"zen":11354,"nickiej</w>":11355,"kontrakt</w>":11356,"danego</w>":11357,"dziewczyn":11358,"papier":11359,"Zab":11360,"zacją</w>":11361,"publiczności</w>":11362,"gowe</w>":11363,"wecki</w>":11364,"zdrowie</w>":11365,"dziewczyny</w>":11366,"ekipy</w>":11367,"trwały</w>":11368,"ciągł":11369,"poparcie</w>":11370,"olku":11371,"Przyby":11372,"zmierz":11373,"postanowie":11374,"piosenki</w>":11375,"kają</w>":11376,"POKOJOWE</w>":11377,"sowa</w>":11378,"krakowskiego</w>":11379,"szczeb":11380,"va":11381,"wieniem</w>":11382,"pera</w>":11383,"czuje</w>":11384,"mieszcz":11385,"zdobyła</w>":11386,"Fo":11387,"wynik":11388,"elimin":11389,"Stali</w>":11390,"sylwe":11391,"Tomek</w>":11392,"węgla</w>":11393,"izo":11394,"konstytucji</w>":11395,"nauczyciel</w>":11396,"kredyt</w>":11397,"ństwem</w>":11398,"NT":11399,"Zdzisław</w>":11400,"składki</w>":11401,"zeszłym</w>":11402,"wraż":11403,"inwestorów</w>":11404,"wagę</w>":11405,"22":11406,"koledzy</w>":11407,"wers":11408,"wymiany</w>":11409,"dochody</w>":11410,"ŁKS</w>":11411,"pasz":11412,"int</w>":11413,"łym</w>":11414,"przypomni":11415,"dzimy</w>":11416,"mieniem</w>":11417,"służb":11418,"nieprawidłow":11419,"Bogusław</w>":11420,"przebieg":11421,"programy</w>":11422,"mechaniz":11423,"zalud":11424,"Nak":11425,"jakaś</w>":11426,"mężczyźni</w>":11427,"omawi":11428,"wykorzystał</w>":11429,"Sącza</w>":11430,"wań</w>":11431,"reżyser":11432,"cząt</w>":11433,"niezbędne</w>":11434,"metra</w>":11435,"nomina":11436,"pogrze":11437,"największym</w>":11438,"organizuje</w>":11439,"dziesiątych</w>":11440,"igrzy":11441,"wziął</w>":11442,"Zanim</w>":11443,"08":11444,"letnią</w>":11445,"DZIE":11446,"przypomnieć</w>":11447,"śniegu</w>":11448,"wpływem</w>":11449,"ocenia</w>":11450,"Inwesty":11451,"DA</w>":11452,"jka</w>":11453,"wojewoda</w>":11454,"dokument</w>":11455,"niepełnospraw":11456,"słone":11457,"inf":11458,"przetarg</w>":11459,"con":11460,"szereg</w>":11461,"gęstość</w>":11462,"przyjaciół</w>":11463,"utrzymać</w>":11464,"pen</w>":11465,"Szyb":11466,"dyploma":11467,"PA</w>":11468,"diece":11469,"lepszy</w>":11470,"świadczenie</w>":11471,"skrom":11472,"częściowo</w>":11473,"miastem</w>":11474,"mkarwan</w>":11475,"pokazuje</w>":11476,"kwietniu</w>":11477,"uznać</w>":11478,"występują</w>":11479,"Isk":11480,"ukrai":11481,"Zale":11482,"Niektóre</w>":11483,"sens</w>":11484,"inicj":11485,"Teresa</w>":11486,"Uczniowie</w>":11487,"większej</w>":11488,"strat</w>":11489,"zawodu</w>":11490,"spożyw":11491,"kryteri":11492,"Rozpo":11493,"debiut":11494,"cudz":11495,"mama</w>":11496,"miary</w>":11497,"móz":11498,"berg</w>":11499,"Lep":11500,"dziński</w>":11501,"noślą":11502,"zaludnienia</w>":11503,"funkcjonariuszy</w>":11504,"Przyja":11505,"efekcie</w>":11506,"Wkrótce</w>":11507,"wyszedł</w>":11508,"procesie</w>":11509,"klasz":11510,"niezależnie</w>":11511,"rozpocząć</w>":11512,"oczywist":11513,"plasuje</w>":11514,"internetowej</w>":11515,"finansowej</w>":11516,"najwyżej</w>":11517,"Ruchu</w>":11518,"Fede":11519,"przebieg</w>":11520,"pienię":11521,"długo":11522,"zarządzania</w>":11523,"arcy":11524,"wałem</w>":11525,"hel":11526,"dyskusję</w>":11527,"wysoki</w>":11528,"Regu":11529,"tologi":11530,"kilkudziesięciu</w>":11531,"Prokuratura</w>":11532,"ora":11533,"mentem</w>":11534,"rozsą":11535,"Pozost":11536,"pełną</w>":11537,"żoną</w>":11538,"uszem</w>":11539,"iść</w>":11540,"osiem":11541,"uzbro":11542,"szczyk</w>":11543,"grają</w>":11544,"magać</w>":11545,"plac</w>":11546,"satysfak":11547,"o2</w>":11548,"kowanych</w>":11549,"chłopcy</w>":11550,"czyków</w>":11551,"stawki</w>":11552,"czyńskiego</w>":11553,"Matki</w>":11554,"ukara":11555,"sensu</w>":11556,"gnęła</w>":11557,"zmę":11558,"właścicielem</w>":11559,"strzałem</w>":11560,"owisko</w>":11561,"Pszemol</w>":11562,"chce":11563,"wanym</w>":11564,"komendanta</w>":11565,"lubi</w>":11566,"osą":11567,"rośnie</w>":11568,"gazu</w>":11569,"intele":11570,"LU":11571,"atra":11572,"wyjazd</w>":11573,"Musimy</w>":11574,"prawej</w>":11575,"dło</w>":11576,"dowej</w>":11577,"Błęki":11578,"Fab":11579,"Fundacji</w>":11580,"nara":11581,"niemieckich</w>":11582,"konsekwencji</w>":11583,"Mali":11584,"prawdziwe</w>":11585,"kwadra":11586,"krakowskich</w>":11587,"głównej</w>":11588,"nną</w>":11589,"tania</w>":11590,"gory":11591,"ps</w>":11592,"wizeru":11593,"tymczasem</w>":11594,"TS</w>":11595,"zadaniem</w>":11596,"szuki":11597,"Aut":11598,"rewan":11599,"autora</w>":11600,"ograniczenia</w>":11601,"wierz":11602,"roman":11603,"koma</w>":11604,"Brytanii</w>":11605,"medale</w>":11606,"conych</w>":11607,"Zakład</w>":11608,"Dwie</w>":11609,"przesł":11610,"bem</w>":11611,"nowotar":11612,"ciągów</w>":11613,"najgor":11614,"id</w>":11615,"ręką</w>":11616,"zamku</w>":11617,"pocie":11618,"zajmują</w>":11619,"departamencie</w>":11620,"przywód":11621,"nazwą</w>":11622,"przyznać</w>":11623,"Radomi":11624,"łączy</w>":11625,"TVP</w>":11626,"Kowalski</w>":11627,"ia":11628,"lowe</w>":11629,"dopi":11630,"szkol":11631,"mobi":11632,"dojdzie</w>":11633,"Hy":11634,"Choj":11635,"sięg":11636,"tereny</w>":11637,"SPAM</w>":11638,"MA</w>":11639,"biskup</w>":11640,"Gali":11641,"wynikiem</w>":11642,"rysun":11643,"AWF</w>":11644,"Mazowie":11645,"Szkoda</w>":11646,"towały</w>":11647,"osobą</w>":11648,"fery</w>":11649,"Such":11650,"tpi</w>":11651,"szanie</w>":11652,"kamer":11653,"przyby":11654,"zainteresowania</w>":11655,"niedawna</w>":11656,"marki</w>":11657,"magne":11658,"koalicji</w>":11659,"lutym</w>":11660,"lki</w>":11661,"odbywają</w>":11662,"ośmiu</w>":11663,"promocji</w>":11664,"pamięć</w>":11665,"ił</w>":11666,"oga</w>":11667,"długie</w>":11668,"Wystę":11669,"samobój":11670,"oży":11671,"Wych":11672,"lope":11673,"Nata":11674,"ująco</w>":11675,"rodzinnych</w>":11676,"BAR":11677,"lie":11678,"Szo":11679,"jski</w>":11680,"weni":11681,"zawiado":11682,"wykorzystan":11683,"powiąza":11684,"zadowolony</w>":11685,"Republi":11686,"impreza</w>":11687,"kapli":11688,"Król</w>":11689,"budzi</w>":11690,"czan</w>":11691,"Głównym</w>":11692,"sensie</w>":11693,"wających</w>":11694,"Polską</w>":11695,"Nasza</w>":11696,"głod":11697,"piln":11698,"kalen":11699,"anów</w>":11700,"porozumienie</w>":11701,"najważniejszych</w>":11702,"wykoń":11703,"niemieckiego</w>":11704,"pór</w>":11705,"obejrzeć</w>":11706,"cyjno</w>":11707,"odwro":11708,"zasadach</w>":11709,"stoi":11710,"łowi</w>":11711,"zabrać</w>":11712,"zatwier":11713,"Syl":11714,"Kowa":11715,"Coraz</w>":11716,"Jur":11717,"opoda":11718,"mene":11719,"jasne</w>":11720,"zamian</w>":11721,"pki</w>":11722,"gowego</w>":11723,"Lewicy</w>":11724,"Oko":11725,"mieszkańcom</w>":11726,"czyny</w>":11727,"dzka</w>":11728,"recep":11729,"Sty":11730,"Zim":11731,"ustalić</w>":11732,"serce</w>":11733,"goli</w>":11734,"owaniach</w>":11735,"Mistrzo":11736,"mnóstwo</w>":11737,"listopadzie</w>":11738,"otrzymy":11739,"zaprezen":11740,"chciałem</w>":11741,"Hele":11742,"wiadomość</w>":11743,"MAT":11744,"obszarze</w>":11745,"Luba":11746,"błędy</w>":11747,"szania</w>":11748,"harmo":11749,"zawarte</w>":11750,"sieć</w>":11751,"nadzoru</w>":11752,"cjom</w>":11753,"wum</w>":11754,"dował</w>":11755,"analizy</w>":11756,"publiczne</w>":11757,"ńcu</w>":11758,"este":11759,"gol":11760,"130</w>":11761,"Koszy":11762,"pojawiają</w>":11763,"lizm</w>":11764,"Bartło":11765,"lar</w>":11766,"sanitar":11767,"lności</w>":11768,"Damian</w>":11769,"Piw":11770,"dotacji</w>":11771,"uniknąć</w>":11772,"wiru":11773,"fundusze</w>":11774,"Ben":11775,"czość</w>":11776,"zadłu":11777,"ią</w>":11778,"Maja</w>":11779,"PT":11780,"bezdom":11781,"faktycznie</w>":11782,"gruntów</w>":11783,"Cały</w>":11784,"kolejną</w>":11785,"prowadzona</w>":11786,"sceny</w>":11787,"waną</w>":11788,"siewicz</w>":11789,"tworzą</w>":11790,"mierz":11791,"Can":11792,"szałem</w>":11793,"miesiącu</w>":11794,"zauf":11795,"Wice":11796,"wydawało</w>":11797,"udo":11798,"mieszkan":11799,"wpływu</w>":11800,"bora":11801,"zwiedz":11802,"lonego</w>":11803,"szewskiego</w>":11804,"energi":11805,"licy</w>":11806,"Ve":11807,"wywie":11808,"Komitetu</w>":11809,"antów</w>":11810,"stanął</w>":11811,"dotyczą</w>":11812,"Prawdopodobnie</w>":11813,"możesz</w>":11814,"niły</w>":11815,"największą</w>":11816,"Ostatecznie</w>":11817,"Janusza</w>":11818,"sprawozdania</w>":11819,"sunąć</w>":11820,"konstrukcji</w>":11821,"Specjal":11822,"artykułów</w>":11823,"propozycja</w>":11824,"anymi</w>":11825,"stry":11826,"blu":11827,"rowym</w>":11828,"posiedzenia</w>":11829,"radę</w>":11830,"sposobu</w>":11831,"działaczy</w>":11832,"wiary</w>":11833,"żd":11834,"dosy":11835,"25":11836,"mann</w>":11837,"Mój</w>":11838,"kopalni</w>":11839,"córka</w>":11840,"hasłem</w>":11841,"pośrednictwem</w>":11842,"Michała</w>":11843,"sklepów</w>":11844,"CIE":11845,"rar":11846,"onach</w>":11847,"szymy</w>":11848,"społeczności</w>":11849,"1988</w>":11850,"sądzę</w>":11851,"Młodzieży</w>":11852,"profes":11853,"równy":11854,"towarów</w>":11855,"pogo":11856,"ścieków</w>":11857,"klima":11858,"Gal":11859,"dyż":11860,"styn</w>":11861,"inspi":11862,"sona</w>":11863,"ścisł":11864,"stary</w>":11865,"nowelizacji</w>":11866,"przedsiębiorców</w>":11867,"mali</w>":11868,"tał</w>":11869,"ons</w>":11870,"Komunika":11871,"XVIII</w>":11872,"rzyły</w>":11873,"gospodarstwa</w>":11874,"lanie</w>":11875,"cono</w>":11876,"wszelkich</w>":11877,"ważnych</w>":11878,"miej</w>":11879,"dziennikarzy</w>":11880,"aut</w>":11881,"walić</w>":11882,"uczyć</w>":11883,"racje</w>":11884,"Roki":11885,"Kowalczyk</w>":11886,"kali":11887,"Matu":11888,"Mistrzost":11889,"Komuna":11890,"arczyk</w>":11891,"Wreszcie</w>":11892,"polsko</w>":11893,"ciłem</w>":11894,"MY</w>":11895,"największy</w>":11896,"owiska</w>":11897,"opinie</w>":11898,"głosowało</w>":11899,"Decy":11900,"strzał":11901,"przedstawił</w>":11902,"Osoby</w>":11903,"zwrócił</w>":11904,"jki</w>":11905,"Prawa</w>":11906,"wykon":11907,"PZU</w>":11908,"byliśmy</w>":11909,"dowód</w>":11910,"żadne</w>":11911,"Włod":11912,"Iza":11913,"sponden":11914,"szyński</w>":11915,"pomieszczenia</w>":11916,"zadowole":11917,"sądem</w>":11918,"spadek</w>":11919,"samorząd</w>":11920,"Panowie</w>":11921,"minutach</w>":11922,"gospodarczego</w>":11923,"młodego</w>":11924,"opłac":11925,"instytucje</w>":11926,"Obie":11927,"pienie</w>":11928,"uniemożli":11929,"kwi</w>":11930,"zapytać</w>":11931,"rozry":11932,"terminu</w>":11933,"koncepcji</w>":11934,"waga</w>":11935,"osiągnięcia</w>":11936,"urzędnicy</w>":11937,"organizatorzy</w>":11938,"sę":11939,"Szczególnie</w>":11940,"spotkaniach</w>":11941,"planów</w>":11942,"liceum</w>":11943,"fote":11944,"AB":11945,"miłoś":11946,"mary":11947,"odsło":11948,"DK</w>":11949,"macie":11950,"leniem</w>":11951,"ss":11952,"Lesz":11953,"Wysokiej</w>":11954,"powietrzu</w>":11955,"władzę</w>":11956,"Stara":11957,"wbrew</w>":11958,"nastro":11959,"Żydów</w>":11960,"dalsze</w>":11961,"Jolanta</w>":11962,"fałszy":11963,"Ile</w>":11964,"Ogłoszenia</w>":11965,"Aust":11966,"Izbie</w>":11967,"market":11968,"kolejna</w>":11969,"nieśli</w>":11970,"ałeś</w>":11971,"ót</w>":11972,"wange":11973,"owskie</w>":11974,"kapitału</w>":11975,"sków</w>":11976,"postu":11977,"partner":11978,"knął</w>":11979,"tysiąca</w>":11980,"PRA":11981,"lewicz</w>":11982,"ochronie</w>":11983,"ucieka":11984,"Południ":11985,"Północ":11986,"sprób":11987,"Bydgoszczy</w>":11988,"dały</w>":11989,"bio":11990,"NF":11991,"samorządowych</w>":11992,"organów</w>":11993,"180</w>":11994,"użytk":11995,"wspólne</w>":11996,"strzą":11997,"kowców</w>":11998,"Ję":11999,"zami</w>":12000,"pozwoli":12001,"występy</w>":12002,"New</w>":12003,"nicznie</w>":12004,"wewnętrznych</w>":12005,"wyku":12006,"ografia</w>":12007,"znak</w>":12008,"ninie</w>":12009,"wiosną</w>":12010,"przekony":12011,"dowiedzieć</w>":12012,"oszac":12013,"przypomina":12014,"Er":12015,"tacy</w>":12016,"danym</w>":12017,"niowa</w>":12018,"tole":12019,"dźwie":12020,"lokali</w>":12021,"Zbigniewa</w>":12022,"benzy":12023,"pożegna":12024,"przeszedł</w>":12025,"nacisnąć</w>":12026,"24":12027,"Obok</w>":12028,"latka</w>":12029,"filmie</w>":12030,"metry</w>":12031,"uchwałę</w>":12032,"Hiszpanii</w>":12033,"Jawor":12034,"ekspery":12035,"Podkarpa":12036,"różno":12037,"przyjechał</w>":12038,"szlache":12039,"cemu</w>":12040,"siek</w>":12041,"wóz</w>":12042,"wstrzymało</w>":12043,"Nasze</w>":12044,"Wikipedii</w>":12045,"oz":12046,"osiedlu</w>":12047,"Włoch</w>":12048,"planuje</w>":12049,"sprzedać</w>":12050,"bezpieczeń</w>":12051,"płu":12052,"WE":12053,"psa</w>":12054,"Tor":12055,"tworzyć</w>":12056,"Skarbu</w>":12057,"filmy</w>":12058,"zmienił</w>":12059,"Będziemy</w>":12060,"papieża</w>":12061,"wolą</w>":12062,"Armii</w>":12063,"GA</w>":12064,"IE</w>":12065,"1980</w>":12066,"wyższych</w>":12067,"niemieckiej</w>":12068,"propor":12069,"niał</w>":12070,"piękne</w>":12071,"należności</w>":12072,"najszybciej</w>":12073,"chodzenie</w>":12074,"przegrał</w>":12075,"lecki</w>":12076,"Ger":12077,"potrzebny</w>":12078,"Może":12079,"Eugeni":12080,"delika":12081,"Iwona</w>":12082,"przewie":12083,"stosowania</w>":12084,"prosi":12085,"Studen":12086,"Wielkiego</w>":12087,"the":12088,"przypadków</w>":12089,"owuje</w>":12090,"wyjścia</w>":12091,"Wielki</w>":12092,"torze</w>":12093,"Ratu":12094,"zgodne</w>":12095,"byłych</w>":12096,"ciażby</w>":12097,"wnu":12098,"110</w>":12099,"plaka":12100,"małej</w>":12101,"gospodarstw</w>":12102,"Wacła":12103,"pochodzenia</w>":12104,"Chociaż</w>":12105,"owoc":12106,"dalszych</w>":12107,"kowicz</w>":12108,"asz</w>":12109,"odzie":12110,"lasu</w>":12111,"piera</w>":12112,"Mężczyzna</w>":12113,"jnego</w>":12114,"wacji</w>":12115,"napad":12116,"kturę</w>":12117,"tanio</w>":12118,"towało</w>":12119,"zarzą":12120,"powodzeniem</w>":12121,"szkód</w>":12122,"Pode":12123,"dachu</w>":12124,"zapozna":12125,"puszcza</w>":12126,"katowi":12127,"odmien":12128,"piśmie</w>":12129,"tworzenie</w>":12130,"tytuł":12131,"ćwier":12132,"opozycji</w>":12133,"dyrektorem</w>":12134,"rozgrywkach</w>":12135,"działają</w>":12136,"trzecia</w>":12137,"Rząd</w>":12138,"nicznym</w>":12139,"tworzy</w>":12140,"okiem</w>":12141,"pojawiła</w>":12142,"tyna</w>":12143,"kowała</w>":12144,"kara</w>":12145,"oka</w>":12146,"uprawnień</w>":12147,"hekt":12148,"podaje</w>":12149,"sse":12150,"międzynarodowych</w>":12151,"terapii</w>":12152,"przemysłu</w>":12153,"tość</w>":12154,"czterdzie":12155,"Hel":12156,"pozbawienia</w>":12157,"mański</w>":12158,"ciebie</w>":12159,"niczna</w>":12160,"dojrz":12161,"intelektu":12162,"Każda</w>":12163,"pojedynku</w>":12164,"imienia</w>":12165,"tłumaczył</w>":12166,"kariery</w>":12167,"Żura":12168,"utrudni":12169,"jny</w>":12170,"Op":12171,"zrozumieć</w>":12172,"chirur":12173,"torami</w>":12174,"wydania</w>":12175,"Haj":12176,"ukra":12177,"zwiększ":12178,"Henryka</w>":12179,"Tom":12180,"pojęcia</w>":12181,"Art</w>":12182,"mp</w>":12183,"porażki</w>":12184,"sprawia</w>":12185,"parlamentu</w>":12186,"demon":12187,"wiat</w>":12188,"Sojuszu</w>":12189,"Powiatowej</w>":12190,"OR":12191,"dar</w>":12192,"wystawa</w>":12193,"sytuacje</w>":12194,"Początkowo</w>":12195,"podatek</w>":12196,"przychodzi</w>":12197,"zawodowej</w>":12198,"ras</w>":12199,"wyjątkiem</w>":12200,"adresem</w>":12201,"wcy</w>":12202,"pasażerów</w>":12203,"karnym</w>":12204,"dial":12205,"siedem":12206,"Czech</w>":12207,"kształt</w>":12208,"środowisko</w>":12209,"Tarnowa</w>":12210,"Kto":12211,"okręgu</w>":12212,"kujących</w>":12213,"ody</w>":12214,"szczęś":12215,"niemiecki</w>":12216,"zza</w>":12217,"tacją</w>":12218,"światło</w>":12219,"piński</w>":12220,"pozostał":12221,"nowie</w>":12222,"kar</w>":12223,"kolejnej</w>":12224,"dawnych</w>":12225,"Davi":12226,"źródło</w>":12227,"lność</w>":12228,"Michał":12229,"dziewcząt</w>":12230,"ofertę</w>":12231,"kąd</w>":12232,"jemu</w>":12233,"jakiejś</w>":12234,"czeństwa</w>":12235,"tragedii</w>":12236,"parti":12237,"wzięli</w>":12238,"szona</w>":12239,"wnioskiem</w>":12240,"dokonać</w>":12241,"hur":12242,"progno":12243,"kun</w>":12244,"ktow":12245,"oka":12246,"pił</w>":12247,"ml</w>":12248,"modernizacji</w>":12249,"lla</w>":12250,"spodziewać</w>":12251,"Stre":12252,"interesów</w>":12253,"wsparcia</w>":12254,"średniowie":12255,"gowa</w>":12256,"czystości</w>":12257,"łowa</w>":12258,"działacze</w>":12259,"tycy</w>":12260,"Wysta":12261,"zaczęło</w>":12262,"Wisło":12263,"światła</w>":12264,"Prix</w>":12265,"okra":12266,"stawia</w>":12267,"Konrad</w>":12268,"przesła":12269,"Rzeszowie</w>":12270,"Marcina</w>":12271,"karne</w>":12272,"chodziła</w>":12273,"kaja":12274,"powstały</w>":12275,"ós":12276,"błędów</w>":12277,"pojazdu</w>":12278,"krew</w>":12279,"Czyli</w>":12280,"Wprawdzie</w>":12281,"ciliśmy</w>":12282,"hodow":12283,"odwiedz":12284,"wolontari":12285,"podatków</w>":12286,"Wojsk":12287,"nając</w>":12288,"agencji</w>":12289,"pracą</w>":12290,"upoważ":12291,"rzutu</w>":12292,"stale</w>":12293,"naczelnik</w>":12294,"Czekamy</w>":12295,"przyjdzie</w>":12296,"prą":12297,"broń</w>":12298,"Czu":12299,"Parku</w>":12300,"tożsamo":12301,"szal":12302,"myśleć</w>":12303,"stwierdza</w>":12304,"interwencji</w>":12305,"sp</w>":12306,"rową</w>":12307,"hiszpa":12308,"Sprze":12309,"wyremon":12310,"fundow":12311,"jeździć</w>":12312,"niczną</w>":12313,"zdaje</w>":12314,"stwierdzić</w>":12315,"Skoro</w>":12316,"TV</w>":12317,"nowa":12318,"Góry</w>":12319,"posa":12320,"test":12321,"związki</w>":12322,"Nowi":12323,"oddać</w>":12324,"środowisku</w>":12325,"atle":12326,"Goł":12327,"legisla":12328,"Czesław</w>":12329,"rana</w>":12330,"diagno":12331,"nęli</w>":12332,"dosyć</w>":12333,"składu</w>":12334,"Rozu":12335,"Inne</w>":12336,"mistrzostwo</w>":12337,"model</w>":12338,"rzetel":12339,"Został</w>":12340,"Jaworz":12341,"gazety</w>":12342,"ola</w>":12343,"powietrza</w>":12344,"podziału</w>":12345,"łał</w>":12346,"Wrocławia</w>":12347,"przyszło</w>":12348,"SMS</w>":12349,"Jas":12350,"tkowi":12351,"Ws":12352,"spokój</w>":12353,"szko</w>":12354,"narodu</w>":12355,"selek":12356,"263</w>":12357,"debaty</w>":12358,"Miel":12359,"siłę</w>":12360,"Grażyna</w>":12361,"wybud":12362,"darmo</w>":12363,"Poprawka</w>":12364,"płaci</w>":12365,"zakończyła</w>":12366,"sytuacjach</w>":12367,"unijnych</w>":12368,"Oni</w>":12369,"waj</w>":12370,"Ham":12371,"AŁ":12372,"dzieło</w>":12373,"kwestion":12374,"Lau":12375,"PU":12376,"Kuch":12377,"zmieni</w>":12378,"Wydział</w>":12379,"Wisł":12380,"abo":12381,"zabu":12382,"zakaz</w>":12383,"pięcio":12384,"połączenia</w>":12385,"GI":12386,"przyrod":12387,"szak</w>":12388,"nij</w>":12389,"połomi":12390,"okazała</w>":12391,"szkolnego</w>":12392,"stania</w>":12393,"dofinansowanie</w>":12394,"sier":12395,"osiągnąć</w>":12396,"Kaczyński</w>":12397,"Waw":12398,"wid":12399,"następujące</w>":12400,"sukcesy</w>":12401,"proste</w>":12402,"rac":12403,"rowol":12404,"Ojca</w>":12405,"bazyli":12406,"zablo":12407,"Fundusz</w>":12408,"następuje</w>":12409,"amerykański</w>":12410,"ustawodaw":12411,"Zasad":12412,"określić</w>":12413,"WWW</w>":12414,"Zofia</w>":12415,"auto</w>":12416,"minimum</w>":12417,"pewnej</w>":12418,"Sztuki</w>":12419,"Janina</w>":12420,"podobnych</w>":12421,"przedstawia</w>":12422,"Premie":12423,"widok</w>":12424,"napię":12425,"sztuk</w>":12426,"mody":12427,"Boże</w>":12428,"bienie</w>":12429,"Festiwal</w>":12430,"tenden":12431,"najmniej":12432,"Około</w>":12433,"Jut":12434,"Śląsk</w>":12435,"zakończyć</w>":12436,"wikipedy":12437,"kated":12438,"inwestycja</w>":12439,"punkt":12440,"Fre":12441,"podkreślić</w>":12442,"dujemy</w>":12443,"nożnej</w>":12444,"wyrob":12445,"Sil":12446,"Pięk":12447,"wne</w>":12448,"dobro":12449,"nko</w>":12450,"nięta</w>":12451,"ktami</w>":12452,"Władysława</w>":12453,"wspomina":12454,"szkolnych</w>":12455,"umowa</w>":12456,"urzędzie</w>":12457,"czuwa":12458,"zachować</w>":12459,"1981</w>":12460,"siedzibie</w>":12461,"biletów</w>":12462,"mistrzów</w>":12463,"słowi":12464,"procedury</w>":12465,"Andry":12466,"Cor":12467,"Pomor":12468,"zakłada</w>":12469,"czewski</w>":12470,"lety</w>":12471,"Turniej</w>":12472,"Świe":12473,"chciałby</w>":12474,"warst":12475,"lizmu</w>":12476,"stosunkowo</w>":12477,"początkowo</w>":12478,"rekrea":12479,"Kate":12480,"świadomości</w>":12481,"Akcja</w>":12482,"rozkład":12483,"chowskiego</w>":12484,"kolejnego</w>":12485,"kwalifikow":12486,"kąpie":12487,"ZSRR</w>":12488,"wolność</w>":12489,"Zamiast</w>":12490,"dziennego</w>":12491,"pam</w>":12492,"zmy":12493,"zasiad":12494,"stom</w>":12495,"radości</w>":12496,"Dunaj":12497,"Ły":12498,"fragment</w>":12499,"dziwnego</w>":12500,"przedstawiciel</w>":12501,"przeniesi":12502,"dora":12503,"łej</w>":12504,"Szwajcar":12505,"wymi</w>":12506,"ambasad":12507,"parkie":12508,"dowiedzieliśmy</w>":12509,"421</w>":12510,"alterna":12511,"graczy</w>":12512,"Piłkarze</w>":12513,"jezi":12514,"faktu</w>":12515,"wydanie</w>":12516,"Pracownicy</w>":12517,"powszechnie</w>":12518,"Tatrza":12519,"rezygna":12520,"towa":12521,"fundacji</w>":12522,"wojna</w>":12523,"Danuta</w>":12524,"zro":12525,"wyru":12526,"politykę</w>":12527,"przywró":12528,"gigan":12529,"Lewan":12530,"box</w>":12531,"kłopotów</w>":12532,"solidar":12533,"odszkodowania</w>":12534,"oświęcim":12535,"ces</w>":12536,"bela</w>":12537,"chodziły</w>":12538,"akty":12539,"prawę</w>":12540,"wywoła":12541,"zabiera":12542,"tane":12543,"Mów":12544,"formą</w>":12545,"przypadki</w>":12546,"zbiór":12547,"Izba</w>":12548,"Loka":12549,"FC</w>":12550,"Organizatorzy</w>":12551,"podejrze":12552,"odbywać</w>":12553,"rzci":12554,"zacząć</w>":12555,"kompen":12556,"zdjęcie</w>":12557,"podstaw</w>":12558,"ukaza":12559,"skór":12560,"triumf":12561,"Soł":12562,"VII</w>":12563,"dwu</w>":12564,"wydać</w>":12565,"lany</w>":12566,"wolne</w>":12567,"zaple":12568,"konce":12569,"pg</w>":12570,"Cracovii</w>":12571,"potra":12572,"rękach</w>":12573,"kursu</w>":12574,"obszar</w>":12575,"dostępne</w>":12576,"wejście</w>":12577,"domin":12578,"stoją</w>":12579,"Agata</w>":12580,"sky</w>":12581,"czaka</w>":12582,"zakłady</w>":12583,"towski</w>":12584,"miliony</w>":12585,"podtrzy":12586,"rzucić</w>":12587,"formacji</w>":12588,"nazwie</w>":12589,"ubiegło":12590,"lacje</w>":12591,"gimnazjalnych</w>":12592,"wyścigu</w>":12593,"Gier":12594,"pedagogi":12595,"fachow":12596,"ostatnia</w>":12597,"planie</w>":12598,"San</w>":12599,"persona":12600,"profila":12601,"aspe":12602,"emocje</w>":12603,"pozostanie</w>":12604,"kawiar":12605,"ota":12606,"scen":12607,"minów</w>":12608,"krzyż":12609,"ZY":12610,"widział</w>":12611,"obozu</w>":12612,"chodząc</w>":12613,"giej</w>":12614,"dea</w>":12615,"rozporządzenia</w>":12616,"oszczędz":12617,"powstaje</w>":12618,"adwoka":12619,"wystawę</w>":12620,"prośbą</w>":12621,"zao":12622,"Zdro":12623,"konfron":12624,"Wielkopolski</w>":12625,"Zakopanego</w>":12626,"własność</w>":12627,"poprzednim</w>":12628,"Aż</w>":12629,"party":12630,"nadmier":12631,"wzboga":12632,"kus</w>":12633,"chociażby</w>":12634,"SM</w>":12635,"ino</w>":12636,"kare":12637,"interweni":12638,"Mistrzostwa</w>":12639,"0000</w>":12640,"częta</w>":12641,"przełoż":12642,"funkcje</w>":12643,"mianowicie</w>":12644,"kardyna":12645,"demokracji</w>":12646,"292</w>":12647,"Dziennik</w>":12648,"Rod":12649,"Bełch":12650,"samorządów</w>":12651,"łazie":12652,"szczeń</w>":12653,"znaczne</w>":12654,"pise":12655,"niezbyt</w>":12656,"wyjść</w>":12657,"brutto</w>":12658,"niowym</w>":12659,"350</w>":12660,"strefy</w>":12661,"komfor":12662,"gospodarczą</w>":12663,"rozpoczną</w>":12664,"wiceprezes</w>":12665,"chowi":12666,"technologii</w>":12667,"teryna":12668,"szech</w>":12669,"Garbar":12670,"Dą":12671,"koncertu</w>":12672,"pojedynek</w>":12673,"kontakty</w>":12674,"specjalistów</w>":12675,"kodek":12676,"ankę</w>":12677,"nieod":12678,"jednoli":12679,"422</w>":12680,"von</w>":12681,"Odpowie":12682,"ulubi":12683,"wyjaśnić</w>":12684,"Wą":12685,"wskazy":12686,"fini":12687,"głosowanie</w>":12688,"przedmiotów</w>":12689,"niając</w>":12690,"kilogra":12691,"ajmy</w>":12692,"pewną</w>":12693,"nujemy</w>":12694,"chłod":12695,"numerem</w>":12696,"Karpa":12697,"pas</w>":12698,"fikacja</w>":12699,"portre":12700,"kta</w>":12701,"wypowiad":12702,"strażaków</w>":12703,"rodzinne</w>":12704,"tens":12705,"pośród</w>":12706,"Czerw":12707,"wykonać</w>":12708,"Dow":12709,"Efe":12710,"rezerw":12711,"rtu":12712,"DY":12713,"Francja</w>":12714,"ciąg</w>":12715,"Ukrainy</w>":12716,"odprawi":12717,"społeczeństwo</w>":12718,"bił</w>":12719,"Ple":12720,"ted</w>":12721,"sukcesu</w>":12722,"zostawi":12723,"cień</w>":12724,"znalezie":12725,"końcówce</w>":12726,"zydium</w>":12727,"nce</w>":12728,"lowi</w>":12729,"zdro":12730,"160</w>":12731,"tkach</w>":12732,"przygotowany</w>":12733,"indywidualnych</w>":12734,"Młodzi</w>":12735,"mny</w>":12736,"zdarza</w>":12737,"rządem</w>":12738,"Czarni</w>":12739,"restauracji</w>":12740,"Jastrzę":12741,"pozytywnie</w>":12742,"karierę</w>":12743,"lanka</w>":12744,"wszedł</w>":12745,"dyst":12746,"900</w>":12747,"istnieją</w>":12748,"zamon":12749,"polscy</w>":12750,"biscy":12751,"płyn":12752,"sposobem</w>":12753,"zapowiedział</w>":12754,"utworów</w>":12755,"Włoszech</w>":12756,"głośno</w>":12757,"odpowiednich</w>":12758,"ośrodek</w>":12759,"wszech":12760,"zarejestr":12761,"Ai":12762,"styl</w>":12763,"anem</w>":12764,"doce":12765,"Sol":12766,"funkcjonariusze</w>":12767,"rozpoczyna</w>":12768,"otwarte</w>":12769,"różnego</w>":12770,"termina":12771,"banki</w>":12772,"instala":12773,"biuro</w>":12774,"sos":12775,"następnych</w>":12776,"czce</w>":12777,"nieba":12778,"andar":12779,"technologi":12780,"anką</w>":12781,"CO":12782,"Sier":12783,"uczestniczyć</w>":12784,"Va":12785,"karki</w>":12786,"wyko":12787,"Szczu":12788,"tłumaczyć</w>":12789,"Irlan":12790,"des</w>":12791,"Bali":12792,"Dona":12793,"wców</w>":12794,"Spar":12795,"lite":12796,"komenta":12797,"Rat":12798,"kowaniu</w>":12799,"don</w>":12800,"Grodzi":12801,"podał</w>":12802,"play</w>":12803,"pomaga</w>":12804,"lider</w>":12805,"przyczyny</w>":12806,"Olszty":12807,"tujemy</w>":12808,"kła</w>":12809,"ya":12810,"nawia</w>":12811,"niekorzyst":12812,"Licz":12813,"DNI":12814,"Odkry":12815,"emerytury</w>":12816,"dło":12817,"kompromi":12818,"Wiktor</w>":12819,"budżetowej</w>":12820,"miast":12821,"przekazać</w>":12822,"pokazy":12823,"lacja</w>":12824,"japo":12825,"twórczości</w>":12826,"woj</w>":12827,"Edy":12828,"organizację</w>":12829,"koncentra":12830,"Biuro</w>":12831,"ciak</w>":12832,"Drze":12833,"zaopa":12834,"sześci":12835,"egzeku":12836,"TU":12837,"nowali</w>":12838,"przepisami</w>":12839,"Trybunału</w>":12840,"element</w>":12841,"Fra":12842,"gimnazja":12843,"Słowacji</w>":12844,"Filip</w>":12845,"Trzy":12846,"potrakt":12847,"anu</w>":12848,"dalszej</w>":12849,"zakopia":12850,"powrocie</w>":12851,"początkow":12852,"zanot":12853,"usił":12854,"Kościuszki</w>":12855,"Ania</w>":12856,"Pen":12857,"wygod":12858,"podoba</w>":12859,"trwania</w>":12860,"pokaz</w>":12861,"budowlane</w>":12862,"Brak</w>":12863,"wyt":12864,"Kros":12865,"ffi":12866,"zby":12867,"psów</w>":12868,"rium</w>":12869,"grupow":12870,"prywatne</w>":12871,"poprzedniej</w>":12872,"it</w>":12873,"książkę</w>":12874,"Niemców</w>":12875,"wysokiej</w>":12876,"defen":12877,"cykli":12878,"instalacji</w>":12879,"teru</w>":12880,"krajowej</w>":12881,"kanów</w>":12882,"budynki</w>":12883,"działek</w>":12884,"wiśla":12885,"szwe":12886,"pię</w>":12887,"angielskiego</w>":12888,"zachodniej</w>":12889,"Justyna</w>":12890,"Bożego</w>":12891,"mba</w>":12892,"bilan":12893,"Kara":12894,"Zespole</w>":12895,"Sytuacja</w>":12896,"zorien":12897,"ośnie</w>":12898,"przygotowane</w>":12899,"dzieścia</w>":12900,"cyna</w>":12901,"mej</w>":12902,"osobowych</w>":12903,"pomieszczeń</w>":12904,"brzmi</w>":12905,"Czasem</w>":12906,"dystrybu":12907,"rosn":12908,"napisa":12909,"Wspo":12910,"partne":12911,"rozmowie</w>":12912,"postrze":12913,"1944</w>":12914,"Ot":12915,"ńsko</w>":12916,"psy</w>":12917,"konkursy</w>":12918,"Brukse":12919,"CZE":12920,"kandydata</w>":12921,"mogłaby</w>":12922,"równocześnie</w>":12923,"8859</w>":12924,"przekonany</w>":12925,"odpowiedział</w>":12926,"żadna</w>":12927,"dawnej</w>":12928,"Ktoś</w>":12929,"Stron":12930,"hasło</w>":12931,"publika":12932,"wersja</w>":12933,"ust":12934,"rodzinę</w>":12935,"Wielkie</w>":12936,"Śląsku</w>":12937,"pływ</w>":12938,"Radosław</w>":12939,"przedstawienie</w>":12940,"Zwie":12941,"terape":12942,"Die":12943,"ceniu</w>":12944,"cyklope":12945,"az":12946,"Europejskiego</w>":12947,"CD</w>":12948,"ŁU":12949,"życiem</w>":12950,"organizacja</w>":12951,"nadaw":12952,"ulice</w>":12953,"Mówi</w>":12954,"otrzymają</w>":12955,"stopień</w>":12956,"pomimo</w>":12957,"leczenie</w>":12958,"Grzegorza</w>":12959,"niższe</w>":12960,"planach</w>":12961,"głosować</w>":12962,"północy</w>":12963,"publiczność</w>":12964,"nikomu</w>":12965,"niemożliwe</w>":12966,"bezrobocia</w>":12967,"Dębicy</w>":12968,"Radzi":12969,"produkty</w>":12970,"lanych</w>":12971,"atu":12972,"cyjnymi</w>":12973,"prezydentem</w>":12974,"ciś":12975,"mszy</w>":12976,"szale":12977,"cmentarzu</w>":12978,"kwalifi":12979,"przesą":12980,"Moja</w>":12981,"BK</w>":12982,"nadzwyczaj":12983,"małżon":12984,"mieszkańca</w>":12985,"twórców</w>":12986,"okolice</w>":12987,"punktem</w>":12988,"ekstraklasy</w>":12989,"podmiotów</w>":12990,"Spi":12991,"szkody</w>":12992,"onka</w>":12993,"Urzęd":12994,"Pozostałe</w>":12995,"Bri":12996,"literatury</w>":12997,"butel":12998,"van</w>":12999,"zatrudnienie</w>":13000,"0604</w>":13001,"rewi":13002,"prawnej</w>":13003,"faj":13004,"inę</w>":13005,"Konstan":13006,"czerp":13007,"brzu":13008,"wah":13009,"tność</w>":13010,"elementem</w>":13011,"prawdziwy</w>":13012,"lob":13013,"skłon":13014,"adap":13015,"bou":13016,"wystąpić</w>":13017,"podanie</w>":13018,"Piłsudskiego</w>":13019,"nięciu</w>":13020,"przyszły</w>":13021,"Ryszarda</w>":13022,"zajęli</w>":13023,"podstawy</w>":13024,"wewnątrz</w>":13025,"nazywa</w>":13026,"służy</w>":13027,"zły</w>":13028,"żadnym</w>":13029,"wakacji</w>":13030,"mow":13031,"wyjeździe</w>":13032,"naraż":13033,"Otrzy":13034,"znalazło</w>":13035,"Cięż":13036,"niczek</w>":13037,"meczem</w>":13038,"patrywa":13039,"ryb":13040,"kanalizacji</w>":13041,"trafić</w>":13042,"tyz":13043,"gma":13044,"rozgrywa":13045,"len</w>":13046,"zik</w>":13047,"Babi":13048,"oświadczenie</w>":13049,"nowie":13050,"nota</w>":13051,"ew":13052,"latem</w>":13053,"świetle</w>":13054,"BIE":13055,"mus</w>":13056,"żuż":13057,"określenie</w>":13058,"27":13059,"krwi":13060,"ZOZ</w>":13061,"sześ":13062,"skawi":13063,"Dunaje":13064,"pełnym</w>":13065,"Róż":13066,"wyroku</w>":13067,"trzeciego</w>":13068,"zdjęciu</w>":13069,"Gracz</w>":13070,"mografi":13071,"zawodnika</w>":13072,"znaleziono</w>":13073,"nizm</w>":13074,"utwory</w>":13075,"morza</w>":13076,"chodzimy</w>":13077,"Austrii</w>":13078,"zaproponował</w>":13079,"Anny</w>":13080,"Moim</w>":13081,"wspaniał":13082,"terytorium</w>":13083,"negocj":13084,"biznes":13085,"kreacji</w>":13086,"toru</w>":13087,"ącemu</w>":13088,"632</w>":13089,"fur":13090,"draż":13091,"karę</w>":13092,"Bed":13093,"cego</w>":13094,"orga":13095,"nizmu</w>":13096,"Teatr</w>":13097,"Świad":13098,"starostwa</w>":13099,"gaz</w>":13100,"wschodniej</w>":13101,"sis</w>":13102,"remis</w>":13103,"Ny":13104,"zak</w>":13105,"przekonuje</w>":13106,"ZI":13107,"Wej":13108,"Ap":13109,"prowadziły</w>":13110,"Ża":13111,"wające</w>":13112,"nospam</w>":13113,"doświadczeń</w>":13114,"stoku</w>":13115,"odse":13116,"ostatnią</w>":13117,"spal":13118,"córki</w>":13119,"amerykańskich</w>":13120,"skup</w>":13121,"składek</w>":13122,"gwiazd":13123,"gatunków</w>":13124,"633</w>":13125,"taks":13126,"wóz":13127,"dzieckiem</w>":13128,"spis":13129,"miemy</w>":13130,"dochód</w>":13131,"obiekty</w>":13132,"niewątpliwie</w>":13133,"tyce</w>":13134,"siedziby</w>":13135,"trza":13136,"Celem</w>":13137,"jadą</w>":13138,"rzecznika</w>":13139,"Dziedzi":13140,"Prawie</w>":13141,"NO</w>":13142,"tysiąc</w>":13143,"ryzyko</w>":13144,"Samorządow":13145,"stosowanie</w>":13146,"dopuści":13147,"drużyną</w>":13148,"Jutro</w>":13149,"orem</w>":13150,"jury</w>":13151,"sprzyja":13152,"niegdy":13153,"wkład":13154,"odcinek</w>":13155,"sprawcy</w>":13156,"autoryte":13157,"plus</w>":13158,"Festiwalu</w>":13159,"gm</w>":13160,"Twier":13161,"radzie":13162,"rozwiązy":13163,"czyste</w>":13164,"Mc":13165,"ruch":13166,"kło</w>":13167,"krymina":13168,"organizacje</w>":13169,"granicach</w>":13170,"następne</w>":13171,"politycy</w>":13172,"złego</w>":13173,"księdza</w>":13174,"dostępu</w>":13175,"popeł":13176,"warzy":13177,"skutecz":13178,"łamach</w>":13179,"Gaj":13180,"zakupu</w>":13181,"Halina</w>":13182,"WS":13183,"mur":13184,"kwiaty</w>":13185,"Ochot":13186,"Okazuje</w>":13187,"towo</w>":13188,"dorob":13189,"zauważyć</w>":13190,"niemu</w>":13191,"isto":13192,"sąsiedz":13193,"low":13194,"psychologi":13195,"bin</w>":13196,"lokal</w>":13197,"dalszym</w>":13198,"MŚ</w>":13199,"stworzenie</w>":13200,"pojawi</w>":13201,"podobny</w>":13202,"par</w>":13203,"cykl</w>":13204,"anoni":13205,"140</w>":13206,"TK":13207,"wychodzi</w>":13208,"należało</w>":13209,"maliśmy</w>":13210,"Pietrzy":13211,"zacznie</w>":13212,"Duż":13213,"zapisy</w>":13214,"fem</w>":13215,"europejskiej</w>":13216,"zauważył</w>":13217,"ścił</w>":13218,"Kongre":13219,"zje</w>":13220,"stych</w>":13221,"technika</w>":13222,"wystąpienia</w>":13223,"interesy</w>":13224,"ys</w>":13225,"Źród":13226,"Mickiewicza</w>":13227,"God":13228,"ofert</w>":13229,"zróżnic":13230,"deo</w>":13231,"Skąd</w>":13232,"deficy":13233,"spore</w>":13234,"lekko</w>":13235,"lice":13236,"sądzie</w>":13237,"sołe":13238,"forum</w>":13239,"Gdynia</w>":13240,"Człon":13241,"zwierzęta</w>":13242,"najbliższą</w>":13243,"producentów</w>":13244,"ers</w>":13245,"zainteresowanych</w>":13246,"przeprowadzić</w>":13247,"interesuje</w>":13248,"jedyna</w>":13249,"mowej</w>":13250,"materiał</w>":13251,"sekund</w>":13252,"Magda</w>":13253,"Inte":13254,"Taj":13255,"Jędrze":13256,"gran":13257,"uśmiech":13258,"oddziałów</w>":13259,"sować</w>":13260,"tropoli":13261,"jakiego</w>":13262,"trenerem</w>":13263,"dują</w>":13264,"robót</w>":13265,"Straża":13266,"wolę</w>":13267,"koleż":13268,"Kuź":13269,"starego</w>":13270,"Muszy":13271,"takimi</w>":13272,"późno</w>":13273,"Maciek</w>":13274,"znajomych</w>":13275,"429</w>":13276,"transpor":13277,"najmłodszych</w>":13278,"obiet":13279,"uczy</w>":13280,"kier</w>":13281,"niaków</w>":13282,"wyobraż":13283,"Sen":13284,"Polonii</w>":13285,"Trady":13286,"Bene":13287,"powstało</w>":13288,"psu":13289,"zaczynają</w>":13290,"pasa</w>":13291,"Miejski</w>":13292,"czek":13293,"267</w>":13294,"pary</w>":13295,"oczekiwania</w>":13296,"wybrany</w>":13297,"asfal":13298,"mogłem</w>":13299,"nicka</w>":13300,"kontuzji</w>":13301,"zagrają</w>":13302,"tać</w>":13303,"przyłą":13304,"siu</w>":13305,"oty</w>":13306,"tkowski</w>":13307,"kosztować</w>":13308,"Ozna":13309,"niekiedy</w>":13310,"szuka</w>":13311,"Najczęściej</w>":13312,"Pil":13313,"PIE":13314,"obecnego</w>":13315,"bli</w>":13316,"Biała</w>":13317,"Bułgar":13318,"zwiększenie</w>":13319,"bod":13320,"kosme":13321,"niewielkie</w>":13322,"podopiecznych</w>":13323,"pochodzą</w>":13324,"kieszeni</w>":13325,"Park</w>":13326,"świadków</w>":13327,"jedyną</w>":13328,"liczą</w>":13329,"Niedawno</w>":13330,"najbliższy</w>":13331,"trzecią</w>":13332,"podobno</w>":13333,"ogół</w>":13334,"otwarcia</w>":13335,"miem</w>":13336,"Libi":13337,"Paryżu</w>":13338,"Razem</w>":13339,"XVII</w>":13340,"naczy":13341,"kupił</w>":13342,"Rumu":13343,"patrzeć</w>":13344,"radnego</w>":13345,"ciąży</w>":13346,"Pożarnej</w>":13347,"Kawecki</w>":13348,"pw</w>":13349,"DW":13350,"czytania</w>":13351,"XII</w>":13352,"sala</w>":13353,"gle":13354,"okazać</w>":13355,"mogłyby</w>":13356,"pse":13357,"zą</w>":13358,"galerii</w>":13359,"następnym</w>":13360,"roda":13361,"zaka":13362,"ciński</w>":13363,"powstrzy":13364,"podium</w>":13365,"wyli":13366,"natorze</w>":13367,"mające</w>":13368,"kilkaset</w>":13369,"shi":13370,"lda</w>":13371,"fanie</w>":13372,"Rzą":13373,"domach</w>":13374,"ator</w>":13375,"rocznicę</w>":13376,"Zoba":13377,"gowy</w>":13378,"automa":13379,"Zmar":13380,"wyma":13381,"pracowali</w>":13382,"komisari":13383,"pełnił</w>":13384,"bilety</w>":13385,"zakończenia</w>":13386,"Zen":13387,"rywala</w>":13388,"techni":13389,"28":13390,"1986</w>":13391,"VIII</w>":13392,"grywa</w>":13393,"tło":13394,"opiekę</w>":13395,"prowincji</w>":13396,"macji</w>":13397,"agresyw":13398,"ofiary</w>":13399,"Niepołomi":13400,"roba":13401,"ciąż":13402,"wyna":13403,"Drugie</w>":13404,"łbym</w>":13405,"będąc</w>":13406,"przepis</w>":13407,"odniesieniu</w>":13408,"względów</w>":13409,"rys</w>":13410,"komisje</w>":13411,"rola</w>":13412,"związana</w>":13413,"likwida":13414,"odde":13415,"poniedziałku</w>":13416,"ekspozy":13417,"drużynę</w>":13418,"PAN</w>":13419,"Bartłomiej</w>":13420,"naukowych</w>":13421,"panem</w>":13422,"Tłu":13423,"potrwa</w>":13424,"kościo":13425,"bój</w>":13426,"Przykład":13427,"książka</w>":13428,"Nagrody</w>":13429,
[...]
